<unk>	0
<s>	0
</s>	0
▁,	-3.21783
▁.	-3.33765
s	-3.8174
▁the	-4.09453
;	-4.17419
▁&	-4.21701
▁	-4.56874
▁to	-4.61554
apos	-4.68828
▁a	-4.74092
y	-4.75994
▁of	-4.76841
▁là	-4.79714
▁and	-4.83542
▁tôi	-4.9203
▁và	-4.92929
▁một	-4.97706
▁có	-4.99175
▁that	-5.02636
▁I	-5.04427
t	-5.06718
▁in	-5.16669
quot	-5.21025
▁những	-5.23212
▁chúng	-5.24757
▁của	-5.25733
▁is	-5.34113
▁you	-5.36692
i	-5.37457
ing	-5.3746
ed	-5.38872
n	-5.39613
▁it	-5.4074
▁ta	-5.42228
▁không	-5.44435
▁we	-5.50874
ng	-5.5647
▁đó	-5.56561
▁người	-5.58186
▁bạn	-5.58539
▁trong	-5.65746
▁thể	-5.67721
▁And	-5.71264
▁?	-5.72163
▁này	-5.72702
▁đã	-5.73206
▁các	-5.75291
▁thi	-5.76735
▁được	-5.77436
▁với	-5.84604
ly	-5.84763
▁be	-5.87663
▁ra	-5.87962
d	-5.88057
▁cho	-5.88105
▁--	-5.88505
m	-5.90463
▁Và	-5.91187
▁sự	-5.92176
▁làm	-5.99474
▁nó	-6.04222
▁ở	-6.05884
▁was	-6.05935
▁mà	-6.06526
▁để	-6.08729
▁về	-6.09907
▁như	-6.11687
▁for	-6.1183
▁sẽ	-6.12095
-	-6.15102
▁with	-6.17809
▁:	-6.19232
▁are	-6.19723
▁điều	-6.20921
▁have	-6.2119
▁thế	-6.22182
▁on	-6.2736
▁khi	-6.29363
▁họ	-6.31966
▁can	-6.33223
▁Tôi	-6.33587
▁nói	-6.34326
▁do	-6.34838
▁So	-6.37371
▁đến	-6.39631
▁what	-6.39704
▁phải	-6.43577
u	-6.43651
re	-6.45998
▁about	-6.46057
▁The	-6.46383
▁rằng	-6.47308
▁vào	-6.48473
▁gì	-6.48545
▁đang	-6.48684
▁từ	-6.4913
▁việc	-6.49149
▁lại	-6.52021
▁thấy	-6.53508
▁rấ	-6.55557
▁cách	-6.5572
▁cả	-6.56614
▁hơn	-6.56851
▁nhiều	-6.59146
▁not	-6.60922
▁all	-6.62362
▁an	-6.63738
▁at	-6.64386
▁thực	-6.64545
▁đầu	-6.6496
▁so	-6.65053
▁con	-6.66902
▁đây	-6.67397
▁học	-6.68931
a	-6.69118
▁khác	-6.69908
▁my	-6.70493
▁like	-6.70797
▁people	-6.71814
▁công	-6.72292
▁trên	-6.7245
▁there	-6.73051
▁one	-6.73623
▁cái	-6.75359
▁vì	-6.75509
▁as	-6.75681
▁nào	-6.75857
▁chỉ	-6.7616
▁biết	-6.76359
▁from	-6.76379
▁Chúng	-6.76726
▁It	-6.76858
▁đi	-6.8117
▁năm	-6.82522
▁our	-6.84121
▁nghĩ	-6.84568
▁thứ	-6.8485
▁thành	-6.86486
▁but	-6.87314
▁go	-6.87435
▁cũng	-6.91741
c	-6.91817
▁nhà	-6.9295
▁just	-6.93597
▁Như	-6.93837
▁số	-6.9404
▁We	-6.94429
cause	-6.94751
▁us	-6.95599
▁bị	-6.95689
▁t	-6.95974
▁quan	-6.96689
▁me	-6.97964
▁But	-6.97997
▁or	-6.98021
▁muốn	-6.98439
e	-6.99509
▁these	-6.99956
▁if	-7.00622
▁mình	-7.01484
▁them	-7.01727
▁out	-7.01821
▁know	-7.0186
very	-7.02576
▁nhất	-7.02705
▁get	-7.03255
▁nhưng	-7.03631
▁1	-7.03842
▁tạo	-7.04429
▁động	-7.05189
▁chính	-7.05348
▁giới	-7.0561
▁up	-7.06858
▁nên	-7.07711
▁when	-7.08277
o	-7.08555
▁vậy	-7.0888
▁by	-7.08919
▁more	-7.09889
ve	-7.10189
▁he	-7.11154
▁see	-7.11797
▁hình	-7.14346
▁had	-7.15503
▁giờ	-7.15982
▁hiện	-7.16036
▁your	-7.17287
▁some	-7.17326
.	-7.17337
▁sống	-7.17391
▁who	-7.1744
▁tại	-7.17827
▁think	-7.17947
▁would	-7.17977
▁nếu	-7.18203
▁nhận	-7.18349
▁how	-7.18839
▁mọ	-7.19447
▁were	-7.19832
▁their	-7.19961
▁cuộc	-7.21576
▁hay	-7.22011
▁cần	-7.22405
▁which	-7.2269
▁tự	-7.23568
▁đề	-7.2371
▁thì	-7.23713
▁look	-7.24324
▁want	-7.24747
▁tất	-7.2699
▁ông	-7.27428
▁ấy	-7.28076
▁bởi	-7.28375
▁N	-7.28796
▁tới	-7.28913
▁b	-7.29414
▁bắt	-7.29701
▁V	-7.29976
▁tin	-7.30377
▁còn	-7.3062
▁nhìn	-7.30951
▁lớn	-7.31054
▁theo	-7.31202
▁cơ	-7.31742
▁cùng	-7.32395
▁bằng	-7.32441
▁ý	-7.32577
▁tế	-7.33494
▁cảm	-7.3362
▁sau	-7.34163
▁dụng	-7.34368
▁thật	-7.34794
▁world	-7.34928
▁gia	-7.35111
▁câu	-7.35335
▁lên	-7.35501
▁qua	-7.35717
▁bản	-7.35781
▁anh	-7.3609
▁Thi	-7.36779
▁time	-7.3696
▁reall	-7.36987
▁bộ	-7.37135
▁You	-7.37136
▁thời	-7.3761
▁sao	-7.37749
▁chuyện	-7.37879
▁trở	-7.38242
▁here	-7.38446
p	-7.38734
▁actual	-7.38889
▁ngày	-7.3897
▁nhân	-7.39082
▁other	-7.39117
▁has	-7.39425
es	-7.39636
▁sinh	-7.39792
▁sai	-7.41188
▁way	-7.41845
▁năng	-7.42855
▁trước	-7.43549
▁phát	-7.43758
▁nước	-7.43759
h	-7.4435
▁into	-7.44546
▁Nó	-7.44551
▁đổi	-7.44555
▁toàn	-7.45513
▁could	-7.45712
▁phần	-7.45835
▁nơi	-7.46741
▁thông	-7.47284
▁tìm	-7.48208
▁don	-7.48222
▁nhau	-7.48234
▁m	-7.48556
▁mới	-7.48868
▁thay	-7.48888
▁did	-7.49214
▁years	-7.49406
▁vấn	-7.49975
▁định	-7.50076
▁Now	-7.50384
▁will	-7.50509
▁ch	-7.50779
▁C	-7.51321
▁hệ	-7.51361
▁now	-7.51362
▁then	-7.51593
▁trường	-7.51777
▁nhiên	-7.52162
▁sử	-7.52298
▁tính	-7.53037
▁things	-7.53122
▁where	-7.53688
▁trình	-7.53954
▁Đâ	-7.54483
▁say	-7.54515
▁tốt	-7.5506
▁tưởng	-7.55098
▁kết	-7.55659
▁make	-7.55754
▁B	-7.56023
▁T	-7.56155
▁vật	-7.57318
▁hàng	-7.58001
▁lý	-7.5817
▁hỏi	-7.58973
▁Bạn	-7.60802
▁máy	-7.61491
▁ảnh	-7.61631
nh	-7.6266
er	-7.62824
▁hợp	-7.63213
▁Đó	-7.63739
▁no	-7.64324
▁mặt	-7.64529
▁every	-7.64773
en	-7.65396
▁tiếp	-7.65684
▁hành	-7.65689
▁than	-7.6641
▁start	-7.66464
▁kinh	-7.66582
▁work	-7.666
▁nữa	-7.66695
▁take	-7.67288
▁gian	-7.67306
▁thức	-7.67616
▁hội	-7.677
▁thiết	-7.68291
▁rồi	-7.68795
▁cô	-7.69321
▁xem	-7.69406
▁liệu	-7.6948
▁vị	-7.69524
hose	-7.69536
▁trọng	-7.69914
▁hoá	-7.69976
▁something	-7.70478
▁thích	-7.70544
▁độ	-7.70553
▁two	-7.70648
▁right	-7.71265
▁need	-7.71983
▁đồng	-7.72543
▁much	-7.72912
▁giải	-7.73138
▁first	-7.74268
▁lượng	-7.75481
▁call	-7.75503
▁hai	-7.75542
▁trẻ	-7.75545
lso	-7.75675
going	-7.76161
▁bấ	-7.76669
▁He	-7.76763
▁thường	-7.77235
ì	-7.77803
▁đều	-7.78309
▁quá	-7.78747
▁tiên	-7.78786
▁over	-7.79109
▁Một	-7.79223
▁đối	-7.7943
▁sáng	-7.79567
▁talk	-7.8055
▁hiểu	-7.81085
▁she	-7.81355
▁life	-7.81359
▁quả	-7.81383
▁nay	-7.81527
▁tâm	-7.81849
▁loại	-7.82095
▁back	-7.82144
▁In	-7.82385
▁giống	-7.82517
▁lần	-7.827
▁thing	-7.82894
▁got	-7.82966
▁cứu	-7.83643
▁kind	-7.83705
▁bệnh	-7.84083
▁thống	-7.84119
▁bao	-7.84253
▁lot	-7.8443
▁little	-7.84872
▁viên	-7.855
▁ai	-7.8617
▁his	-7.86723
▁Vậ	-7.87089
ll	-7.87212
▁That	-7.87228
▁nghệ	-7.87321
▁most	-7.87327
▁điểm	-7.87839
▁nghĩa	-7.88264
▁tr	-7.88337
▁gọi	-7.88404
in	-7.88447
▁A	-7.88689
▁Có	-7.89113
▁M	-7.8939
▁mô	-7.89561
▁nhỏ	-7.89564
▁show	-7.90452
▁S	-7.90561
▁What	-7.90898
▁hoàn	-7.91069
▁only	-7.91503
▁n	-7.91628
▁Họ	-7.92197
▁đưa	-7.9229
▁even	-7.92402
▁nghiệm	-7.93263
▁vẫ	-7.94051
▁tác	-7.94107
▁đường	-7.94613
▁new	-7.95095
▁xả	-7.95378
▁many	-7.96213
▁cố	-7.96437
ies	-7.96528
▁khoả	-7.96776
▁c	-7.96944
▁any	-7.97255
▁good	-7.97522
▁thuật	-7.98055
▁different	-7.98255
▁bên	-7.98355
tương	-7.98573
▁dùng	-7.98656
▁dân	-7.98715
▁giá	-7.98837
▁dự	-7.98991
▁đại	-7.99082
▁hoặc	-7.99082
▁biệt	-7.99173
▁change	-7.9925
▁Đ	-8.00236
▁chiế	-8.00319
▁her	-8.00648
▁triển	-8.00676
▁chuyển	-8.01017
▁lúc	-8.01398
▁diễn	-8.01448
▁use	-8.01457
▁từng	-8.01842
▁through	-8.02256
hững	-8.02314
▁trị	-8.02699
▁quyết	-8.02742
▁does	-8.02808
▁cao	-8.03487
▁em	-8.03686
▁nghe	-8.03812
▁ăn	-8.04583
▁tuyệt	-8.05172
around	-8.05463
▁mỗi	-8.05582
▁cầu	-8.05852
▁Điề	-8.05918
▁There	-8.06165
▁10	-8.06187
▁kế	-8.0642
▁lực	-8.06869
▁chất	-8.07102
▁khá	-8.07763
▁phụ	-8.07949
▁th	-8.08234
on	-8.08253
▁mean	-8.09204
▁đ	-8.09403
▁lời	-8.09761
▁giáo	-8.09831
▁đất	-8.10407
▁cá	-8.10629
▁giúp	-8.10764
ắc	-8.10938
▁Nế	-8.11275
▁down	-8.11311
▁ơn	-8.11372
▁trung	-8.11796
▁give	-8.12481
▁2	-8.12753
▁di	-8.12762
▁bảo	-8.12859
▁khả	-8.12967
▁being	-8.13193
▁hã	-8.13195
▁tiến	-8.13203
▁nữ	-8.13342
▁hết	-8.13562
▁phòng	-8.1361
▁nghiên	-8.13793
▁chưa	-8.14343
▁liên	-8.14436
▁xe	-8.14552
▁xuất	-8.14587
▁mang	-8.15486
▁same	-8.15511
▁Well	-8.15588
▁tình	-8.1576
▁l	-8.15826
▁thu	-8.15845
▁phân	-8.16396
▁come	-8.16488
▁Anh	-8.16911
▁tranh	-8.17107
▁đơn	-8.17136
al	-8.1727
▁não	-8.17286
▁truyền	-8.17437
▁tập	-8.17465
day	-8.17788
▁tuổi	-8.17852
▁phương	-8.1799
▁đúng	-8.17997
▁khoa	-8.18007
▁điện	-8.18089
▁bình	-8.18397
▁sản	-8.18494
▁đặt	-8.18793
▁day	-8.19048
▁tượng	-8.1911
▁bài	-8.19354
▁biến	-8.19411
▁Khi	-8.19594
▁Các	-8.19687
▁tiền	-8.20143
▁try	-8.20251
▁human	-8.20422
▁giữa	-8.20544
▁If	-8.21023
▁tiếng	-8.21041
▁tell	-8.21212
▁yêu	-8.21309
▁three	-8.21902
one	-8.22785
▁trả	-8.22785
▁ngay	-8.23249
▁great	-8.23526
▁thú	-8.24382
▁20	-8.24632
▁part	-8.25315
▁3	-8.25415
▁lấy	-8.25506
▁doing	-8.25513
▁put	-8.25589
▁Không	-8.2561
▁g	-8.2619
▁xã	-8.26371
▁gần	-8.26379
▁Tro	-8.26507
▁vi	-8.26746
▁trí	-8.26785
▁bỏ	-8.26922
▁hoạt	-8.27013
▁well	-8.27854
▁chiến	-8.28246
▁sách	-8.28247
▁!	-8.28357
▁đáng	-8.28494
▁xâ	-8.29053
▁phẩm	-8.29311
▁pháp	-8.2964
▁hiệu	-8.29818
▁khó	-8.30054
▁thân	-8.30238
▁cuối	-8.30499
▁cứ	-8.30648
▁chủ	-8.30749
▁dụ	-8.30824
▁real	-8.30844
▁chơi	-8.30912
▁why	-8.3107
▁fact	-8.31315
▁percent	-8.31318
▁p	-8.31362
ây	-8.31838
▁mất	-8.32146
▁minh	-8.32456
▁sức	-8.32465
▁đời	-8.32518
▁year	-8.32724
▁own	-8.32922
▁kể	-8.32929
▁made	-8.32958
▁ba	-8.33465
ther	-8.33529
▁Mỹ	-8.33684
▁bee	-8.34085
▁thậ	-8.34174
▁tay	-8.3443
l	-8.34483
▁đồ	-8.3457
▁chí	-8.34881
▁child	-8.3489
▁mạnh	-8.34989
▁bé	-8.3503
r	-8.35153
▁nghiệp	-8.35524
▁may	-8.35581
▁find	-8.35599
▁create	-8.35766
▁ngoài	-8.35824
▁khí	-8.36049
▁dẫn	-8.36183
▁ít	-8.36185
▁lập	-8.36621
▁tài	-8.36794
▁ask	-8.36821
g	-8.36918
▁đấy	-8.37221
▁loài	-8.37341
▁kỳ	-8.37641
▁bức	-8.37713
▁...	-8.38001
▁tinh	-8.38433
▁should	-8.38849
▁luôn	-8.38996
▁hạn	-8.39266
▁vô	-8.39386
▁brain	-8.39639
▁happen	-8.39659
▁dựng	-8.39753
▁-	-8.39808
▁tiêu	-8.39823
▁văn	-8.39923
▁tên	-8.40554
▁cộng	-8.40763
▁idea	-8.4098
▁âm	-8.4119
▁chứng	-8.41307
▁tử	-8.42087
▁important	-8.42249
▁phố	-8.42397
▁hướng	-8.42788
▁nhạc	-8.43512
▁thought	-8.43764
▁Thank	-8.44094
▁giả	-8.4425
▁thử	-8.44419
▁Hã	-8.45007
▁viết	-8.45137
▁let	-8.45363
▁chức	-8.45388
▁nguyên	-8.45405
▁kiến	-8.45502
▁quốc	-8.45665
▁bà	-8.45956
able	-8.46051
▁last	-8.4607
▁đâu	-8.46086
▁ứng	-8.46205
▁turn	-8.46207
▁vời	-8.46282
▁kh	-8.46319
▁thị	-8.46366
▁tư	-8.46523
▁D	-8.46547
▁nề	-8.46674
▁chế	-8.46908
▁chọn	-8.4693
▁love	-8.46945
▁quyền	-8.47135
▁after	-8.47337
▁giản	-8.47405
ánh	-8.47487
▁đặc	-8.47541
other	-8.47969
▁big	-8.47989
▁bào	-8.48654
▁mạng	-8.4877
▁end	-8.49008
▁cấp	-8.4905
▁khu	-8.49105
▁chết	-8.49132
▁suy	-8.49373
▁phá	-8.49438
▁triệu	-8.49522
▁Be	-8.49719
▁tăng	-8.49761
▁How	-8.4984
ông	-8.49939
▁problem	-8.50102
▁xu	-8.50162
▁thần	-8.50289
▁cụ	-8.5039
ch	-8.50422
▁đá	-8.50481
▁before	-8.50487
▁đạo	-8.50557
▁might	-8.50624
▁đứ	-8.50829
1	-8.51323
▁course	-8.5141
▁help	-8.51797
▁lẽ	-8.52302
▁sĩ	-8.52462
▁khỏ	-8.52483
went	-8.52646
▁live	-8.53203
▁him	-8.53459
▁TED	-8.53586
▁đánh	-8.53892
▁never	-8.5405
▁vụ	-8.54081
▁mẹ	-8.54127
▁example	-8.54312
▁màu	-8.54535
▁gặp	-8.54679
▁tháng	-8.54747
▁better	-8.54821
▁dưới	-8.55185
▁off	-8.55191
▁Thế	-8.55258
▁story	-8.55604
▁still	-8.55915
▁khiế	-8.56065
▁xác	-8.56171
▁xuống	-8.56508
▁H	-8.56909
▁able	-8.56958
▁án	-8.57018
▁learn	-8.57756
▁chút	-8.57786
▁gắng	-8.57852
▁few	-8.58144
ren	-8.58317
▁bit	-8.58525
▁phép	-8.58824
▁nhóm	-8.59067
▁dịch	-8.59206
▁mở	-8.59213
▁long	-8.59214
▁When	-8.59255
▁quanh	-8.59589
ắp	-8.59649
▁vực	-8.59966
▁point	-8.60167
▁came	-8.60244
▁dữ	-8.60269
▁L	-8.60448
▁system	-8.60484
▁next	-8.60653
▁trò	-8.60835
iểu	-8.60879
▁chia	-8.60938
▁bay	-8.61006
▁k	-8.61214
▁together	-8.61368
▁thêm	-8.61591
ally	-8.61924
▁each	-8.62363
▁duy	-8.62465
▁thuyết	-8.6252
▁mức	-8.62531
▁place	-8.62672
▁nhanh	-8.62835
▁tổ	-8.62888
▁question	-8.63018
▁đàn	-8.63297
▁dạng	-8.63497
▁million	-8.63722
▁gây	-8.63739
▁cực	-8.63797
▁xa	-8.63878
tham	-8.63896
▁between	-8.64022
▁rõ	-8.64183
▁New	-8.64478
▁vọng	-8.64514
▁ago	-8.64788
▁nguồn	-8.65223
▁vùng	-8.6564
▁dù	-8.659
▁quay	-8.66009
▁design	-8.66229
▁cảnh	-8.6636
▁found	-8.66516
ity	-8.66536
▁R	-8.66593
▁báo	-8.66613
▁sort	-8.66689
▁đẹp	-8.66849
▁believe	-8.66927
body	-8.67209
▁tục	-8.67249
▁again	-8.67526
▁giác	-8.67858
▁sát	-8.68263
▁càng	-8.68464
▁data	-8.68515
out	-8.68611
▁đủ	-8.68668
▁dễ	-8.68671
▁ví	-8.6869
▁play	-8.69614
▁cây	-8.69744
▁trang	-8.69944
▁vũ	-8.70112
▁sợ	-8.70121
▁phim	-8.7015
▁nhớ	-8.7018
▁phía	-8.70189
▁30	-8.70209
▁become	-8.7035
▁cell	-8.70371
▁hưởng	-8.70691
▁đoạn	-8.71055
▁understand	-8.71527
▁water	-8.71867
▁women	-8.71889
▁thư	-8.71903
▁kiểm	-8.72321
▁U	-8.72542
▁trái	-8.72951
▁thương	-8.73131
▁chú	-8.73205
▁Quốc	-8.73454
▁bố	-8.73596
▁kì	-8.73662
▁dài	-8.74244
▁Tạ	-8.74403
▁school	-8.74475
▁vòng	-8.74818
▁ngữ	-8.74959
ting	-8.75045
▁luận	-8.75308
▁phản	-8.75466
▁light	-8.75576
▁too	-8.7559
▁done	-8.75887
ân	-8.75973
▁Trung	-8.76394
hôm	-8.76552
▁chẳ	-8.7656
▁Cả	-8.76776
selve	-8.77108
▁đầy	-8.77288
▁đôi	-8.77349
▁Th	-8.77499
▁dục	-8.7763
▁50	-8.77838
▁technology	-8.77843
▁lợi	-8.78019
▁video	-8.78251
ăm	-8.78354
▁four	-8.78508
▁Do	-8.78846
▁kia	-8.78852
ất	-8.78939
▁giảm	-8.79232
▁bâ	-8.79243
▁thuốc	-8.79696
▁person	-8.79764
▁always	-8.79868
▁second	-8.79928
▁kiếm	-8.80344
▁vừ	-8.80551
▁money	-8.80807
▁tích	-8.80814
▁dàn	-8.80906
▁chân	-8.80961
▁trăm	-8.81128
▁Cá	-8.8115
▁&#9	-8.81183
ầm	-8.81553
▁&#93;	-8.81562
▁ever	-8.81676
ce	-8.82191
▁thôi	-8.82289
ok	-8.82325
▁đình	-8.83003
▁whole	-8.83341
▁giao	-8.83744
▁feel	-8.83864
▁lai	-8.83866
▁bước	-8.83892
▁power	-8.84025
▁Người	-8.84647
▁working	-8.84677
▁sâu	-8.84759
▁experience	-8.85013
▁ty	-8.85053
▁toán	-8.85596
▁away	-8.85803
▁guy	-8.85831
▁sư	-8.86308
▁trụ	-8.86472
▁tồn	-8.86524
▁information	-8.86625
▁diện	-8.8673
▁trời	-8.86784
▁trải	-8.86808
▁reason	-8.86814
▁quy	-8.86842
▁4	-8.87
▁chi	-8.87372
ion	-8.8771
▁100	-8.87722
▁rộng	-8.87831
▁country	-8.87831
▁giữ	-8.87908
▁phục	-8.87944
▁lã	-8.88165
▁thanh	-8.88239
▁home	-8.88316
▁She	-8.88404
▁nối	-8.88448
▁đoán	-8.88643
▁địa	-8.88743
▁kids	-8.88769
▁My	-8.88816
▁đô	-8.8892
ld	-8.88978
▁lòng	-8.89098
▁old	-8.89151
▁riêng	-8.89255
▁thuộc	-8.89264
▁vệ	-8.89371
▁tạp	-8.89474
▁Bở	-8.89825
ương	-8.90195
▁mục	-8.9022
▁phủ	-8.90495
▁mắt	-8.90624
▁dạy	-8.9069
▁nổi	-8.90743
▁thí	-8.90858
▁vẻ	-8.91123
▁đạt	-8.91221
▁v	-8.9136
ic	-8.91735
▁five	-8.91777
▁đứng	-8.91895
▁căn	-8.91964
▁Internet	-8.92061
▁kỹ	-8.92169
▁food	-8.92172
▁thúc	-8.92252
▁luật	-8.92272
▁sẻ	-8.92389
▁lệ	-8.92526
▁tố	-8.92865
▁mẫu	-8.93121
▁per	-8.93376
▁la	-8.93453
▁man	-8.93591
▁case	-8.9362
▁tá	-8.93694
▁project	-8.93715
▁tối	-8.93808
▁E	-8.93838
▁lịch	-8.93877
making	-8.94098
▁bàn	-8.94614
▁picture	-8.94732
▁đọc	-8.94959
▁space	-8.9511
▁small	-8.95118
▁building	-8.95133
▁5	-8.95179
▁lớp	-8.95384
▁moment	-8.95497
▁d	-8.95516
coming	-8.9582
▁kỷ	-8.95935
▁One	-8.96086
▁yếu	-8.96264
▁health	-8.96371
▁future	-8.96922
▁everything	-8.97595
▁develop	-8.97606
est	-8.97633
▁khoẻ	-8.97924
▁vui	-8.9798
▁high	-8.9802
▁number	-8.98098
▁tiết	-8.98166
▁chương	-8.98207
▁chạy	-8.98597
▁phí	-8.98688
▁ngồi	-8.98823
▁best	-8.99134
▁gái	-8.99163
▁Là	-8.99221
ằm	-8.99253
▁less	-8.99379
▁cuốn	-8.99391
▁phút	-8.9947
quite	-8.99599
ever	-8.99613
▁cậu	-8.99614
▁thinking	-8.99728
▁No	-8.99955
▁trợ	-8.99969
th	-8.9998
▁mối	-9.00086
▁da	-9.00097
▁form	-9.00207
▁Phi	-9.00274
▁K	-9.00352
▁Wh	-9.0057
us	-9.00671
▁sắc	-9.00927
▁hard	-9.00942
▁social	-9.01009
▁Thậ	-9.01093
▁chắn	-9.01103
▁buổi	-9.0113
ầu	-9.01141
▁hầu	-9.01573
▁bring	-9.01573
▁enough	-9.01682
▁suốt	-9.01707
▁un	-9.02283
▁answer	-9.02381
▁kiện	-9.02427
▁left	-9.02498
▁biển	-9.02851
▁trúc	-9.0299
▁tra	-9.0324
▁open	-9.03314
▁15	-9.03506
▁basic	-9.03513
▁energy	-9.03567
▁chung	-9.03571
▁For	-9.03695
▁group	-9.04061
▁ké	-9.04132
▁ngôn	-9.04298
▁mua	-9.04405
▁kiểu	-9.05015
▁doanh	-9.05123
▁These	-9.05175
▁tỉ	-9.05424
▁Vâng	-9.05467
▁hoà	-9.05597
k	-9.05654
▁process	-9.0571
▁sense	-9.05779
▁ngạc	-9.0589
▁ng	-9.05894
aybe	-9.06009
▁cửa	-9.0603
▁thiên	-9.06036
▁sở	-9.06331
--	-9.06406
▁body	-9.06418
▁lives	-9.06626
▁xúc	-9.07293
▁G	-9.07326
▁xét	-9.07354
ể	-9.07404
▁vậ	-9.07453
▁al	-9.0748
▁cánh	-9.07492
▁khám	-9.07662
▁lạ	-9.07696
▁face	-9.08086
▁thoại	-9.08279
▁comes	-9.08283
▁tuần	-9.08287
▁ràng	-9.08296
▁bán	-9.08382
▁hand	-9.08425
▁grow	-9.08465
▁lâu	-9.08475
▁Sau	-9.08508
▁probabl	-9.08527
▁countries	-9.08528
▁r	-9.08713
▁hiểm	-9.08901
▁hồi	-9.09304
▁science	-9.09407
▁its	-9.0944
S	-9.09653
▁dollars	-9.09796
▁job	-9.1003
▁room	-9.1009
▁ngô	-9.10162
▁cấu	-9.10188
▁Let	-9.10394
▁nhiệm	-9.1041
▁business	-9.10419
▁simple	-9.10454
▁keep	-9.11187
▁interesting	-9.11282
▁phức	-9.11432
▁image	-9.11475
▁build	-9.11582
▁kích	-9.11691
▁cung	-9.12344
▁move	-9.12523
▁chụp	-9.12596
▁chuyên	-9.12615
▁men	-9.12617
▁nhập	-9.12849
cross	-9.12961
retty	-9.13541
▁large	-9.13745
▁trạ	-9.1388
▁lí	-9.1403
▁else	-9.14152
▁Tấ	-9.1433
▁York	-9.14446
self	-9.14482
▁bóng	-9.14529
ness	-9.14561
▁billion	-9.14696
▁xin	-9.14725
▁cạnh	-9.14819
▁thái	-9.14821
▁such	-9.1495
▁kẻ	-9.15487
▁allow	-9.15497
amp	-9.15526
ers	-9.15581
ation	-9.15601
▁under	-9.15671
▁viện	-9.16146
▁piece	-9.16171
▁độc	-9.1628
▁đa	-9.16466
▁chứ	-9.16487
▁ghi	-9.16624
▁hữu	-9.16682
▁băng	-9.16737
▁saw	-9.16856
▁mind	-9.16942
▁stuff	-9.17087
▁half	-9.17183
ment	-9.1719
▁ngành	-9.17404
▁language	-9.17631
▁lo	-9.17695
▁40	-9.1788
▁seem	-9.17925
▁inside	-9.17962
ự	-9.1803
▁chỗ	-9.1805
▁hoạ	-9.18299
▁trưởng	-9.1846
▁khủng	-9.18589
▁vẽ	-9.18594
▁living	-9.18602
▁dung	-9.18686
ận	-9.18728
ĩ	-9.18962
▁side	-9.19057
ăn	-9.19424
▁model	-9.19441
▁family	-9.19694
▁care	-9.19723
▁Cô	-9.20028
▁ích	-9.20057
▁hoa	-9.20132
▁car	-9.20282
▁makes	-9.20457
▁name	-9.20482
▁chuẩn	-9.20534
▁times	-9.20586
▁far	-9.20592
▁anything	-9.20678
▁week	-9.20835
▁bác	-9.20912
iễn	-9.20964
▁Độ	-9.21093
▁quý	-9.21096
▁khăn	-9.21231
▁phúc	-9.21259
▁thiếu	-9.21465
▁All	-9.21498
▁complete	-9.21722
▁student	-9.21943
▁share	-9.21948
▁am	-9.22093
▁later	-9.22153
▁chịu	-9.22188
▁As	-9.22445
▁xanh	-9.226
▁set	-9.22674
▁tấm	-9.22684
▁while	-9.22729
▁lắng	-9.2323
▁niệm	-9.2323
▁tệ	-9.23275
le	-9.23353
▁hề	-9.23377
▁ban	-9.23471
▁particular	-9.23519
▁wrong	-9.23663
▁phạm	-9.23664
▁run	-9.23683
▁tức	-9.23705
▁whe	-9.23914
▁nhiêu	-9.241
▁single	-9.24101
▁book	-9.24631
▁trai	-9.24685
▁Tr	-9.24694
▁watch	-9.24697
yet	-9.24954
▁hơi	-9.24983
▁áp	-9.25077
▁government	-9.25149
▁sắp	-9.25311
▁đau	-9.2559
▁cha	-9.25717
▁global	-9.25809
▁music	-9.25883
▁happens	-9.26145
▁Thực	-9.26156
▁Giờ	-9.26302
▁age	-9.26373
▁hav	-9.26381
▁mặc	-9.26617
▁chống	-9.26835
▁lạc	-9.26913
▁American	-9.27159
▁thất	-9.27252
▁xử	-9.27501
▁walk	-9.27598
▁area	-9.27828
ọi	-9.2783
▁game	-9.27845
▁control	-9.27995
▁thousand	-9.28257
▁often	-9.283
▁hope	-9.28377
▁châu	-9.28454
▁đố	-9.28531
▁myself	-9.28847
▁bad	-9.28849
▁remember	-9.29469
▁close	-9.29531
▁certain	-9.29775
▁study	-9.29776
▁trực	-9.29791
▁problems	-9.2985
or	-9.29858
▁lựa	-9.30088
▁vượ	-9.30124
▁level	-9.30165
▁imagine	-9.30222
▁matter	-9.30381
▁line	-9.30489
▁hộ	-9.30801
▁realize	-9.30835
▁hậu	-9.30857
▁difference	-9.30863
▁bánh	-9.30946
▁cổ	-9.31016
▁computer	-9.31031
▁words	-9.31208
▁ga	-9.31241
▁12	-9.31599
▁tổng	-9.31939
▁nội	-9.31951
▁sure	-9.32046
▁saying	-9.32159
▁ways	-9.32351
▁dò	-9.32366
▁khổ	-9.32426
▁possible	-9.32444
▁city	-9.32501
▁seen	-9.32596
▁khắc	-9.32662
▁đội	-9.32707
▁mật	-9.3274
▁tỷ	-9.33088
▁toà	-9.33228
ần	-9.33331
▁community	-9.33376
▁xấu	-9.33382
▁ph	-9.33411
▁top	-9.33453
▁gử	-9.33538
▁robot	-9.3355
âu	-9.33716
▁nguy	-9.33757
▁once	-9.33854
▁read	-9.3387
▁days	-9.33927
▁dần	-9.34031
▁six	-9.34164
▁ẩn	-9.34281
▁true	-9.34463
▁nothing	-9.34511
▁hứng	-9.34658
▁Africa	-9.347
▁interest	-9.34743
▁exact	-9.34982
▁Con	-9.34983
▁thiện	-9.34998
▁tim	-9.35104
▁disease	-9.35144
▁both	-9.35197
▁19	-9.35295
▁State	-9.35309
▁6	-9.35402
▁head	-9.3541
▁Earth	-9.35469
▁Okay	-9.35471
▁hạt	-9.35559
ên	-9.3564
D	-9.35899
▁public	-9.36308
▁figure	-9.36459
▁individual	-9.36614
ấu	-9.36645
▁research	-9.36726
▁lưu	-9.36786
▁almost	-9.36823
ready	-9.36906
▁kê	-9.37014
▁ideas	-9.37022
▁nhiệt	-9.3711
mong	-9.37261
▁entire	-9.37275
▁chiều	-9.37328
▁test	-9.37438
▁spend	-9.37464
▁Nê	-9.3756
▁danh	-9.37679
▁amazing	-9.37773
▁issue	-9.37964
▁ô	-9.38226
▁self	-9.38268
▁order	-9.38298
▁couple	-9.38443
▁dầu	-9.38465
▁beautiful	-9.38611
▁niề	-9.38616
ục	-9.38737
▁phi	-9.39028
▁tội	-9.39622
▁ca	-9.39676
▁Ph	-9.39685
▁nghèo	-9.39793
▁heard	-9.39928
▁heart	-9.40036
▁ngoại	-9.40141
▁cận	-9.40353
▁thủ	-9.407
▁decided	-9.40927
▁nạn	-9.41021
▁chữa	-9.41142
▁final	-9.41164
▁kính	-9.41195
▁mù	-9.41244
▁nghi	-9.41348
▁chá	-9.4136
▁patient	-9.41372
▁ung	-9.41445
where	-9.4146
▁history	-9.41506
ấp	-9.4166
▁đấu	-9.41713
▁environment	-9.41805
▁đẩ	-9.41884
▁dấu	-9.42043
▁tả	-9.42172
▁hy	-9.42189
▁Châu	-9.42207
▁hạ	-9.4233
▁universe	-9.42723
▁cost	-9.428
▁value	-9.4282
▁house	-9.42855
▁Unite	-9.42856
ắm	-9.42898
▁nỗi	-9.42963
▁18	-9.43032
▁built	-9.43103
▁art	-9.43185
▁khố	-9.43509
▁night	-9.43669
▁stories	-9.43959
▁thách	-9.44164
ăng	-9.44231
▁hundred	-9.4431
▁word	-9.4451
▁societ	-9.44632
▁già	-9.44651
▁Oh	-9.45065
▁đen	-9.45127
came	-9.45228
▁Google	-9.45302
▁giấy	-9.45387
▁tắc	-9.45403
▁đóng	-9.45453
▁Every	-9.45639
▁education	-9.45653
▁ngược	-9.4575
▁khách	-9.45849
▁chữ	-9.45912
▁eat	-9.46246
▁months	-9.4625
▁cancer	-9.46471
▁nuôi	-9.46471
▁25	-9.46521
▁young	-9.46594
▁huge	-9.46834
▁unti	-9.4686
▁To	-9.46958
▁past	-9.47243
▁follow	-9.47333
man	-9.47548
▁bại	-9.47567
▁minutes	-9.47681
▁nghị	-9.47696
▁Tây	-9.48105
▁ước	-9.48294
▁soát	-9.48317
▁though	-9.48559
í	-9.48724
▁stop	-9.48756
ập	-9.48855
ry	-9.48917
▁woman	-9.49064
▁hát	-9.49071
▁lĩnh	-9.49229
▁nửa	-9.49233
▁tiện	-9.49237
new	-9.49244
▁nam	-9.49358
▁mơ	-9.49435
▁lỗi	-9.49497
▁ngủ	-9.4951
▁China	-9.49612
▁80	-9.49745
▁quick	-9.49796
▁hoạch	-9.50007
▁quản	-9.50047
▁chà	-9.50101
▁Or	-9.50101
▁Ta	-9.50119
▁gồm	-9.50368
▁economic	-9.50406
▁friends	-9.50476
▁nhiễm	-9.50546
▁w	-9.50718
▁cư	-9.50744
▁khiển	-9.51127
less	-9.51163
▁dương	-9.51335
▁sóc	-9.51504
▁focus	-9.51521
▁planet	-9.51559
▁hear	-9.51601
▁cắt	-9.51722
▁thả	-9.5194
▁200	-9.52023
▁team	-9.52692
▁giết	-9.52851
▁hại	-9.52961
▁clear	-9.53335
▁sound	-9.53383
▁mov	-9.53424
▁quen	-9.53525
▁thẳng	-9.5355
▁quân	-9.53635
▁state	-9.53638
▁ngờ	-9.53652
▁cử	-9.53731
▁teacher	-9.5382
stead	-9.53969
▁leave	-9.5401
▁trừ	-9.54039
▁dây	-9.54066
▁challenge	-9.54216
taking	-9.54286
▁đích	-9.54407
▁war	-9.54447
▁happening	-9.54477
▁force	-9.54586
▁lưới	-9.54604
▁works	-9.54614
▁mã	-9.54645
▁nhờ	-9.54805
▁đông	-9.54837
▁experiment	-9.54951
▁đức	-9.55078
▁chiếu	-9.55094
▁population	-9.55211
▁thấp	-9.55232
▁11	-9.55245
ằng	-9.55414
▁Chỉ	-9.55449
sang	-9.55451
▁mê	-9.55615
▁free	-9.5568
ấn	-9.55715
▁hours	-9.55718
▁60	-9.55744
▁nature	-9.5579
an	-9.55963
▁tàu	-9.55992
▁bày	-9.56161
▁đổ	-9.5633
▁pay	-9.5638
▁niên	-9.56393
▁lái	-9.56394
▁qu	-9.56565
▁cười	-9.56607
▁Hiệ	-9.56762
▁term	-9.56769
▁đêm	-9.56818
▁phóng	-9.56922
2	-9.57025
▁dàng	-9.57043
▁khai	-9.57097
▁khoá	-9.57131
old	-9.5736
▁x	-9.57496
▁ngắn	-9.576
▁since	-9.57601
▁rối	-9.57606
▁web	-9.5772
▁xếp	-9.57812
▁đo	-9.58029
▁gốc	-9.58055
▁kỉ	-9.58248
um	-9.58323
▁sàng	-9.58426
▁gấp	-9.58653
▁phong	-9.58902
▁mother	-9.58916
▁phẫ	-9.59032
▁God	-9.59099
▁đem	-9.59238
ường	-9.59399
ten	-9.59406
▁DNA	-9.59444
▁đỡ	-9.59458
ar	-9.59753
▁Ch	-9.59768
▁giây	-9.59878
▁bạo	-9.59882
▁natural	-9.59884
▁stand	-9.60146
▁vai	-9.6026
▁paper	-9.60276
▁lắm	-9.6031
▁questions	-9.60412
against	-9.60432
▁hồ	-9.60438
▁America	-9.60658
▁7	-9.60688
▁trách	-9.60914
▁front	-9.61079
Với	-9.61132
▁sometimes	-9.61219
▁gắn	-9.61301
▁explain	-9.61336
▁de	-9.61346
b	-9.61453
▁Rồ	-9.61465
rời	-9.61479
▁India	-9.61519
▁listen	-9.61569
▁thụ	-9.61617
▁cáo	-9.61697
▁places	-9.61697
ốc	-9.61735
▁must	-9.61743
▁ngàn	-9.61848
▁won	-9.61853
▁plant	-9.62048
▁company	-9.6217
▁tù	-9.62205
▁difficult	-9.62383
ù	-9.62404
▁bốn	-9.62452
▁đà	-9.62599
▁HIV	-9.6281
▁đợi	-9.62891
▁structure	-9.63064
▁tôn	-9.63092
▁lead	-9.63202
▁Bà	-9.63231
▁third	-9.63363
▁nô	-9.63468
▁color	-9.63498
▁outside	-9.63502
▁bí	-9.63604
▁father	-9.64101
haps	-9.64102
▁hài	-9.6413
▁simpl	-9.64187
▁8	-9.64277
▁powerful	-9.64561
▁kill	-9.64591
iếc	-9.64637
▁chị	-9.6473
▁xuyên	-9.6476
la	-9.64917
gan	-9.6533
▁9	-9.6536
▁nhảy	-9.65463
▁oil	-9.65474
▁hold	-9.65725
▁chuyến	-9.65853
▁siêu	-9.65864
▁amount	-9.65878
▁lộ	-9.65907
▁Some	-9.66235
ắt	-9.66349
▁base	-9.66467
▁happy	-9.66514
▁full	-9.66546
ẻ	-9.66749
▁du	-9.66755
▁nghiê	-9.66802
▁thoả	-9.66806
▁chim	-9.6686
ỗi	-9.66928
▁film	-9.66952
▁dừng	-9.66973
▁dur	-9.67146
▁ký	-9.67416
▁discover	-9.67418
▁machine	-9.67439
▁thiệ	-9.67483
▁early	-9.67679
▁At	-9.67787
▁lao	-9.67833
▁tầng	-9.67859
▁re	-9.67881
▁learning	-9.67892
▁đảm	-9.68092
ơi	-9.68215
▁along	-9.68219
▁John	-9.68302
▁behavior	-9.68383
z	-9.6851
▁buy	-9.68737
▁air	-9.68918
▁culture	-9.69138
▁species	-9.69216
▁hấp	-9.69222
▁tải	-9.69375
▁Ai	-9.69599
▁ảo	-9.69654
▁phổ	-9.69666
▁least	-9.69671
▁Tuy	-9.6988
▁black	-9.69914
▁risk	-9.6994
▁act	-9.70219
▁món	-9.70339
▁Nam	-9.70513
▁lá	-9.7072
▁On	-9.708
▁market	-9.70801
▁short	-9.70817
ton	-9.70931
▁90	-9.71119
▁gen	-9.71127
▁feeling	-9.71228
▁program	-9.71292
▁death	-9.71293
▁Việ	-9.7138
ấy	-9.71497
▁lồ	-9.7162
▁middle	-9.71754
▁rừng	-9.71999
▁camera	-9.72005
▁news	-9.72087
▁produce	-9.7219
▁OK	-9.72228
▁personal	-9.72242
▁Cho	-9.72252
úng	-9.72483
▁nhắc	-9.7254
▁view	-9.7269
▁easy	-9.72694
▁góc	-9.72935
▁khở	-9.73142
▁object	-9.73163
▁poor	-9.73169
▁chỉnh	-9.73176
▁choice	-9.7328
▁trù	-9.73532
ability	-9.73623
▁animals	-9.73711
▁yourself	-9.73802
▁wait	-9.73882
▁hút	-9.73882
▁J	-9.73908
▁thải	-9.73988
▁local	-9.74122
òn	-9.74175
▁systems	-9.74203
▁political	-9.74298
▁hộp	-9.74452
ã	-9.74577
behind	-9.74591
▁dream	-9.74601
▁media	-9.74682
▁luyện	-9.74843
▁Được	-9.74864
▁Ba	-9.74905
▁thơ	-9.7492
▁70	-9.74941
▁ổn	-9.75066
▁Go	-9.75274
▁seven	-9.75332
▁nhu	-9.75369
▁khuôn	-9.754
▁land	-9.75592
▁relationship	-9.76056
▁ngâ	-9.76271
▁giàu	-9.76272
▁chuột	-9.76301
▁cập	-9.76359
▁tín	-9.76415
▁save	-9.76443
▁o	-9.76573
▁cà	-9.76588
▁P	-9.76596
▁khoản	-9.76597
▁speak	-9.76788
▁h	-9.76959
▁coi	-9.76995
▁present	-9.77274
▁đỏ	-9.77296
year	-9.77318
▁liệt	-9.77548
▁deal	-9.77656
▁compani	-9.77748
▁tấn	-9.77904
ệt	-9.77918
▁Hoa	-9.78089
▁fel	-9.78114
▁century	-9.78163
▁device	-9.78278
▁major	-9.78293
▁TV	-9.78335
te	-9.78468
▁physical	-9.78528
▁tuyến	-9.78529
▁phận	-9.78549
▁cause	-9.78552
uyên	-9.78598
▁size	-9.78665
▁thắng	-9.78782
▁stay	-9.78841
▁câ	-9.79384
▁phone	-9.79386
K	-9.79411
▁common	-9.79533
▁exist	-9.79565
▁somebod	-9.7971
▁friend	-9.79756
▁normal	-9.79795
iều	-9.79876
▁support	-9.79993
▁feet	-9.80097
▁eyes	-9.80197
to	-9.80217
▁An	-9.80224
f	-9.80312
▁wonderful	-9.80313
ừng	-9.80513
A	-9.80533
▁doctor	-9.80551
▁access	-9.80562
▁đảo	-9.80577
▁pick	-9.80644
▁rest	-9.80796
▁People	-9.80807
▁obvious	-9.80819
▁safe	-9.80826
▁vĩ	-9.80832
▁Trá	-9.80891
▁nặng	-9.81064
▁song	-9.81081
age	-9.81225
▁hẳn	-9.81308
▁chứa	-9.81322
▁Chúa	-9.81347
▁Từ	-9.81407
son	-9.81441
▁mềm	-9.81587
▁vân	-9.81595
▁pattern	-9.81615
▁Al	-9.81658
▁spen	-9.8166
▁beginning	-9.81839
el	-9.81905
▁fight	-9.81906
▁huỷ	-9.81966
iếng	-9.82003
▁generation	-9.82151
▁chố	-9.82156
▁stage	-9.82277
▁hit	-9.82302
▁boy	-9.82366
▁David	-9.82371
▁sun	-9.82468
▁deep	-9.82573
▁dậy	-9.82616
▁mấy	-9.82682
▁drive	-9.82702
▁begin	-9.8314
▁lab	-9.83148
▁near	-9.83405
▁Bắc	-9.83436
▁mạch	-9.83453
▁longer	-9.83572
▁quyển	-9.83665
ước	-9.83722
▁môn	-9.83907
▁complex	-9.83911
▁resource	-9.8393
▁chóng	-9.83996
ôi	-9.84039
▁protein	-9.84192
▁điển	-9.84195
▁canno	-9.84212
▁send	-9.84404
▁dưỡng	-9.84458
▁sóng	-9.84489
▁buộc	-9.84509
hà	-9.84513
▁Công	-9.84605
▁ống	-9.84655
▁rate	-9.84676
▁eight	-9.84706
▁organization	-9.8475
▁mẽ	-9.84771
▁máu	-9.85004
▁hands	-9.85021
▁perfect	-9.85258
aid	-9.85264
▁write	-9.85317
▁sơ	-9.85361
▁wonder	-9.85511
▁linh	-9.85547
▁condition	-9.85553
▁fear	-9.85584
▁buồn	-9.85636
▁cũ	-9.8571
▁mắn	-9.85795
▁màn	-9.85857
▁growth	-9.86113
▁lan	-9.86238
▁dõi	-9.86336
▁uống	-9.86339
▁service	-9.8635
▁notice	-9.86376
▁loạn	-9.86609
ra	-9.86631
▁Ngà	-9.86663
land	-9.8667
▁khán	-9.86751
▁ground	-9.86805
▁16	-9.86817
▁Kỳ	-9.8688
▁tree	-9.87001
▁điên	-9.87064
▁center	-9.87171
▁tồi	-9.87176
▁fall	-9.87182
▁chờ	-9.87195
▁Yes	-9.87217
▁Nga	-9.87237
by	-9.87299
▁Thứ	-9.87319
▁add	-9.8732
▁tảng	-9.87473
▁chủng	-9.87612
▁absolute	-9.87971
▁impact	-9.87972
ữa	-9.87993
▁lầm	-9.88058
▁hãi	-9.88155
▁low	-9.88281
▁die	-9.88289
▁parents	-9.88447
▁Yeah	-9.88523
▁vững	-9.88523
giving	-9.89083
▁step	-9.8913
ta	-9.89149
▁nấ	-9.89319
up	-9.89335
▁góp	-9.89357
▁non	-9.89598
▁Afghanistan	-9.89636
▁reach	-9.89644
▁los	-9.89764
▁arm	-9.89881
▁travel	-9.89917
▁cities	-9.89933
▁thưởng	-9.90213
▁solve	-9.90311
▁sửa	-9.9042
▁bang	-9.9068
▁Can	-9.90696
▁Liệ	-9.90751
▁morning	-9.90761
▁movement	-9.90784
▁tường	-9.90902
▁co	-9.91269
▁treat	-9.91272
▁O	-9.91324
▁Our	-9.91617
▁tried	-9.9171
▁gi	-9.91826
▁carbon	-9.9186
▁knowledge	-9.91925
▁đèn	-9.91955
ẩn	-9.91997
▁scale	-9.9203
▁W	-9.92092
▁average	-9.92186
▁14	-9.92271
▁lạnh	-9.92298
▁green	-9.92438
▁potential	-9.92488
▁virus	-9.9252
▁voice	-9.92606
▁Y	-9.92695
▁F	-9.9279
▁mái	-9.93107
▁audience	-9.9334
▁material	-9.93519
▁bảng	-9.93546
▁trắng	-9.93631
ous	-9.93676
▁tờ	-9.93775
hỏng	-9.93778
▁girl	-9.93801
▁tộc	-9.93922
▁key	-9.94202
▁lẫn	-9.94215
▁đỉnh	-9.94217
rought	-9.94291
▁hi	-9.94337
▁tổn	-9.94341
▁17	-9.94363
▁English	-9.94508
▁diệu	-9.9451
▁attention	-9.94513
▁needs	-9.94514
▁đe	-9.94597
▁extreme	-9.94802
▁break	-9.94882
▁cool	-9.94926
▁ngừ	-9.94943
▁expect	-9.95051
▁message	-9.95125
▁online	-9.95174
▁reality	-9.95187
▁sleep	-9.95227
▁raise	-9.95234
▁Qu	-9.95278
▁strong	-9.95399
▁Đông	-9.95429
▁opportunity	-9.95456
▁network	-9.95581
▁slow	-9.95705
▁núi	-9.95712
uổi	-9.96207
▁ei	-9.96407
credible	-9.96585
▁innovation	-9.96586
▁ma	-9.96612
▁ủng	-9.96621
N	-9.96663
▁tiểu	-9.96684
▁animal	-9.96801
ary	-9.96801
▁born	-9.96854
▁trì	-9.96876
▁red	-9.97011
▁21	-9.97036
▁train	-9.97056
▁situation	-9.97188
▁pass	-9.97202
▁field	-9.9725
▁With	-9.97272
▁rơ	-9.97406
▁bigge	-9.97458
▁bề	-9.97469
▁economy	-9.97489
▁trận	-9.97573
▁dead	-9.9779
▁blue	-9.97791
▁hảo	-9.97811
▁trồng	-9.97815
▁nice	-9.97821
▁tốn	-9.97839
ẩm	-9.97878
▁Just	-9.9796
▁giỏi	-9.98113
▁giọng	-9.9817
ma	-9.98295
▁quên	-9.9833
▁tô	-9.98382
ưa	-9.98403
▁protect	-9.9842
rote	-9.98574
▁áo	-9.98584
▁toward	-9.98585
▁sudden	-9.98706
▁action	-9.98787
▁sitt	-9.98811
▁product	-9.98936
▁Right	-9.99015
▁kim	-9.99019
▁ấn	-9.99047
▁Hồi	-9.99059
▁chó	-9.99092
trao	-9.99118
▁sa	-9.99222
rew	-9.99275
▁studie	-9.99321
▁chạm	-9.99325
▁stress	-9.99632
▁nhé	-9.9971
▁molecule	-9.998
ter	-9.99851
▁vố	-9.99908
▁cỡ	-9.99966
▁consider	-10.001
▁khuẩn	-10.0027
▁blood	-10.0028
▁pull	-10.0029
▁nóng	-10.0032
▁thù	-10.0034
C	-10.0043
▁result	-10.0056
▁bật	-10.0056
▁nghì	-10.0056
▁tools	-10.0062
▁cầm	-10.0069
▁bền	-10.0071
▁literal	-10.0075
▁shape	-10.0093
▁tiề	-10.0106
hẳng	-10.0116
▁modern	-10.012
▁phấn	-10.012
▁sánh	-10.0161
▁eye	-10.0175
ợ	-10.0176
▁approach	-10.0192
▁mãi	-10.0193
▁books	-10.0212
▁World	-10.0213
▁climate	-10.0214
▁main	-10.0214
▁chance	-10.0219
▁hôn	-10.0219
▁record	-10.0231
ép	-10.0238
▁increase	-10.0245
ền	-10.0251
▁thank	-10.0252
▁plan	-10.0262
▁13	-10.0265
cy	-10.0271
▁chấm	-10.0271
▁Mà	-10.0271
▁hospital	-10.0277
▁vợ	-10.0279
▁Đại	-10.0282
▁nh	-10.0283
▁general	-10.0297
▁surface	-10.0311
▁hoảng	-10.0322
▁mời	-10.0332
hiển	-10.0333
êu	-10.034
▁Facebook	-10.0341
▁fun	-10.0345
ism	-10.0346
▁khích	-10.0352
▁Chín	-10.0366
▁Chinese	-10.0373
ghề	-10.0374
▁runn	-10.0377
▁solution	-10.038
▁scientists	-10.0383
▁understanding	-10.0385
▁writing	-10.0405
▁creating	-10.0405
▁success	-10.0431
▁bottom	-10.0438
▁hổ	-10.0438
▁sign	-10.0439
▁measure	-10.0442
▁sit	-10.0463
▁continue	-10.047
▁website	-10.047
▁nghỉ	-10.047
▁vỡ	-10.0471
▁quần	-10.0472
▁lửa	-10.0472
▁lố	-10.0489
▁ghế	-10.0503
▁smart	-10.0503
▁điệu	-10.0503
▁xương	-10.0505
▁cut	-10.0523
▁hỗ	-10.0526
▁hào	-10.0543
changing	-10.0569
▁Not	-10.0571
▁specific	-10.0576
▁connect	-10.0585
▁nổ	-10.0588
▁tách	-10.0594
▁đừng	-10.0605
▁Iran	-10.0621
▁photograph	-10.0628
ine	-10.0636
▁dường	-10.0637
▁region	-10.065
▁source	-10.0664
▁phối	-10.0675
▁track	-10.068
▁rút	-10.0683
▁ice	-10.0691
▁meet	-10.0696
▁khẩu	-10.0702
▁kịch	-10.0703
▁South	-10.0709
ẽ	-10.071
▁affect	-10.0714
▁chảy	-10.0734
▁moral	-10.0738
▁sót	-10.074
▁alone	-10.0741
▁teach	-10.0756
▁forward	-10.076
ive	-10.0769
▁biên	-10.0771
▁cover	-10.0776
▁ones	-10.0781
▁girls	-10.0784
ance	-10.08
▁gió	-10.0801
▁fail	-10.0802
▁email	-10.0803
▁type	-10.0804
▁thịt	-10.0815
uỗi	-10.0832
▁ong	-10.0834
▁sớm	-10.0834
▁Where	-10.0839
▁numbers	-10.0851
▁By	-10.0857
▁guess	-10.0868
▁loạt	-10.0868
▁late	-10.0869
▁box	-10.0883
▁gợ	-10.0884
▁development	-10.0885
▁class	-10.0889
▁bè	-10.0889
▁thoát	-10.0896
▁office	-10.0898
▁California	-10.0902
more	-10.0903
▁table	-10.0911
▁chậm	-10.0937
▁wall	-10.0944
ùng	-10.0946
,000	-10.0949
▁phiê	-10.095
▁provide	-10.0958
▁khứ	-10.097
▁chồng	-10.0974
▁truth	-10.0974
ond	-10.0975
▁dĩ	-10.0977
▁tàn	-10.1022
▁essential	-10.1039
▁sạch	-10.104
▁nâ	-10.1048
▁tắt	-10.1055
▁sex	-10.1066
▁conversation	-10.1073
▁movie	-10.1092
ful	-10.1127
▁telling	-10.114
▁bi	-10.1142
▁soon	-10.1142
▁white	-10.1148
▁hô	-10.1161
▁fast	-10.1176
▁rich	-10.1176
▁baby	-10.1181
kay	-10.1193
▁kid	-10.1205
▁giấc	-10.1213
▁suất	-10.1214
ễ	-10.1214
▁lặp	-10.1215
▁fly	-10.1217
▁chu	-10.1246
▁avail	-10.1248
▁theory	-10.1254
▁effective	-10.1257
▁Ma	-10.1259
T	-10.1267
▁sea	-10.1274
▁asking	-10.1275
▁suggest	-10.128
ian	-10.1302
▁Hay	-10.1309
▁ocean	-10.1312
▁chấ	-10.1316
▁quỹ	-10.1318
M	-10.1323
▁manage	-10.1323
▁current	-10.1354
espec	-10.1366
▁Chris	-10.1388
▁push	-10.1389
▁pre	-10.1404
ially	-10.1406
▁games	-10.1407
ie	-10.1414
▁lỗ	-10.1416
▁London	-10.1425
▁industry	-10.1425
incredibly	-10.1425
ne	-10.1431
▁activit	-10.1442
▁khuyế	-10.1447
▁goal	-10.146
▁easi	-10.1461
▁trưng	-10.1461
▁phê	-10.1463
▁500	-10.1487
x	-10.1497
▁ngại	-10.1502
ệp	-10.1514
ảnh	-10.1543
▁Gi	-10.1546
▁met	-10.1551
▁bờ	-10.1555
▁Bill	-10.1556
▁journey	-10.1569
▁trữ	-10.157
▁túi	-10.1574
ở	-10.158
▁fire	-10.1581
▁page	-10.1586
ào	-10.1588
▁worth	-10.159
▁sông	-10.1591
▁mỏ	-10.1597
ia	-10.16
▁benefit	-10.1608
▁24	-10.1624
uộc	-10.1628
▁village	-10.167
▁touch	-10.1672
▁dặm	-10.1679
▁event	-10.1682
▁tán	-10.1683
▁tri	-10.169
▁trại	-10.1699
▁collect	-10.1711
▁thước	-10.172
▁kiệm	-10.1724
▁fish	-10.1725
▁hole	-10.1727
ard	-10.1732
▁Thu	-10.1742
hắc	-10.1749
▁nguyện	-10.1752
▁digital	-10.1752
▁vision	-10.1755
▁equal	-10.1756
▁Mặ	-10.1785
▁favorite	-10.1789
▁Israel	-10.1794
▁waste	-10.1799
▁materials	-10.1809
▁code	-10.1809
▁dark	-10.1826
▁similar	-10.1836
▁street	-10.1842
▁fundamental	-10.1857
▁West	-10.1861
▁response	-10.1864
▁cờ	-10.1865
ught	-10.1877
▁né	-10.1877
▁chặ	-10.1881
õ	-10.1889
▁happiness	-10.1905
▁đươ	-10.1914
ành	-10.1921
▁describe	-10.1928
▁sell	-10.1928
▁Don	-10.1936
▁sỹ	-10.194
▁connection	-10.1942
▁slide	-10.1955
▁month	-10.1957
▁direct	-10.1973
▁trust	-10.1978
▁La	-10.1989
▁lose	-10.1994
gone	-10.1995
▁War	-10.1998
▁special	-10.2006
▁AIDS	-10.2014
▁nhẹ	-10.2018
▁Hai	-10.203
iêu	-10.2037
▁bơi	-10.2046
▁technologi	-10.2051
▁Europe	-10.2052
▁Cuố	-10.2071
▁San	-10.2072
I	-10.2073
▁creative	-10.2091
▁vỏ	-10.2091
ức	-10.2127
▁wish	-10.2133
▁ghép	-10.2134
▁nhắn	-10.2143
ược	-10.2153
▁voi	-10.2155
be	-10.2165
▁scientific	-10.2168
em	-10.2173
▁thở	-10.2175
▁democracy	-10.218
▁thăm	-10.2181
▁cars	-10.2192
▁map	-10.2196
▁fair	-10.2206
▁nhị	-10.2206
▁among	-10.2223
ũ	-10.2224
ate	-10.2226
ach	-10.2232
▁store	-10.225
▁miles	-10.2252
▁join	-10.2259
▁recently	-10.2263
▁Iraq	-10.2277
ý	-10.2279
▁rẻ	-10.2286
▁successful	-10.2292
▁factor	-10.2308
▁vế	-10.2325
▁dã	-10.2325
as	-10.2328
▁sounds	-10.2332
▁rules	-10.2346
▁nỗ	-10.2357
▁nhật	-10.2362
et	-10.2365
▁tàng	-10.2368
head	-10.2375
▁thảm	-10.2377
▁tai	-10.2382
▁post	-10.239
▁subject	-10.2401
▁evidence	-10.2401
▁lặng	-10.2402
ist	-10.242
▁effect	-10.2421
▁lâ	-10.2423
▁rác	-10.243
▁nation	-10.2433
▁Em	-10.2443
▁position	-10.245
▁offer	-10.2455
▁recognize	-10.2458
▁nhấ	-10.2459
▁law	-10.2473
ề	-10.2478
▁function	-10.2481
▁sáu	-10.2482
▁bọn	-10.2503
▁Are	-10.2517
▁Brazil	-10.252
▁Nhật	-10.252
▁Bản	-10.2521
▁lọc	-10.2526
▁content	-10.2533
▁putting	-10.2534
▁yes	-10.2536
▁son	-10.2537
com	-10.254
ro	-10.2541
▁tụ	-10.2545
▁emotion	-10.2556
▁block	-10.2573
time	-10.2573
▁list	-10.2576
ish	-10.2579
▁Of	-10.2597
▁First	-10.2601
▁memory	-10.2601
▁mental	-10.2602
▁trống	-10.2605
▁tru	-10.2611
▁transform	-10.2613
ảo	-10.2623
▁drug	-10.2624
▁tend	-10.2631
▁practice	-10.2634
▁bò	-10.2641
▁After	-10.2641
▁hùng	-10.2644
side	-10.2675
▁e	-10.2676
▁Mexico	-10.2681
▁medical	-10.2686
▁draw	-10.2688
▁Even	-10.2697
▁invent	-10.2711
▁necessar	-10.2722
▁meaning	-10.2724
▁phiế	-10.2728
▁Maybe	-10.2735
▁concept	-10.274
ũng	-10.2742
▁đế	-10.275
▁Paul	-10.275
▁East	-10.2752
▁represent	-10.2762
▁quang	-10.2768
▁artist	-10.2774
▁300	-10.278
▁tròn	-10.28
▁search	-10.2804
▁Look	-10.2805
▁đẳng	-10.2805
▁nine	-10.2809
▁ngẫ	-10.2817
▁ưu	-10.284
▁ro	-10.2843
▁Bộ	-10.2845
▁doạ	-10.2848
▁period	-10.2881
▁road	-10.29
▁mùi	-10.2915
▁Đất	-10.2959
ượng	-10.2964
▁hà	-10.2967
▁crazy	-10.297
▁đam	-10.2974
▁pain	-10.2986
ếp	-10.3003
▁ghé	-10.3006
▁software	-10.3011
▁degree	-10.3014
▁choose	-10.3022
B	-10.3022
▁Tha	-10.3024
Đầu	-10.303
▁schools	-10.3037
▁onto	-10.3047
▁account	-10.3051
▁female	-10.3053
il	-10.3058
▁Act	-10.3063
▁Hà	-10.3074
▁radio	-10.3094
▁George	-10.3095
▁return	-10.3096
▁results	-10.3096
▁require	-10.311
▁attack	-10.3119
▁khô	-10.3121
▁f	-10.3127
▁thác	-10.3132
▁surprise	-10.3138
▁throw	-10.3138
▁thừa	-10.3139
▁đựng	-10.3153
▁fund	-10.3166
▁tool	-10.3179
▁plastic	-10.318
▁further	-10.3181
▁revolution	-10.3199
▁national	-10.321
ur	-10.3216
▁đoàn	-10.3223
▁Canada	-10.3225
▁spread	-10.3226
▁trial	-10.323
▁wear	-10.3248
▁Theo	-10.3249
eo	-10.3257
▁lt	-10.3276
▁extraordinar	-10.3309
▁remain	-10.3309
▁GDP	-10.3309
▁role	-10.3311
tic	-10.3311
ống	-10.3312
▁violence	-10.3314
hiếc	-10.3319
▁leaders	-10.3332
▁quality	-10.3338
▁Whi	-10.3341
how	-10.3351
▁blog	-10.3353
▁nhuận	-10.3354
▁predict	-10.3361
▁xứ	-10.3365
▁North	-10.3366
▁communities	-10.3396
▁faster	-10.3402
li	-10.3413
▁African	-10.3431
▁đắ	-10.3433
▁Kenya	-10.3437
▁appear	-10.3439
▁đạp	-10.344
▁count	-10.3442
the	-10.3445
▁thang	-10.3451
rước	-10.3456
ley	-10.347
▁finding	-10.347
▁stick	-10.3471
▁adult	-10.3483
▁treatment	-10.3485
▁dị	-10.3493
▁positive	-10.3494
▁Cậ	-10.3502
ua	-10.3516
▁ready	-10.3517
▁expert	-10.3527
▁worse	-10.3528
▁indeed	-10.3528
▁screen	-10.353
▁mass	-10.3531
▁fine	-10.3532
▁lược	-10.3532
▁Đức	-10.3533
▁led	-10.3535
▁mine	-10.3535
▁cross	-10.3538
▁finish	-10.3541
▁engineer	-10.3554
▁surprising	-10.3572
▁hot	-10.3576
▁ko	-10.3591
▁male	-10.3598
▁several	-10.3616
▁cãi	-10.3616
▁nhựa	-10.3616
▁solar	-10.3616
▁Dan	-10.3628
▁visual	-10.3632
▁chặn	-10.3638
▁traditional	-10.3644
▁Who	-10.3657
▁tật	-10.3661
▁chemical	-10.3661
▁Re	-10.3663
▁Nào	-10.3675
▁skin	-10.3676
▁mả	-10.3676
▁Dù	-10.369
v	-10.3695
▁đói	-10.3699
ặp	-10.37
▁đò	-10.3708
▁forest	-10.3708
▁khấu	-10.3712
▁giảng	-10.3714
▁Nh	-10.3715
ịch	-10.3719
▁income	-10.372
▁Twitter	-10.3751
▁ngoái	-10.3751
▁hè	-10.3751
▁price	-10.3761
ually	-10.3766
low	-10.3771
ét	-10.3781
da	-10.3781
▁decisions	-10.3786
▁mừng	-10.3807
▁connected	-10.3819
▁Most	-10.3821
▁bó	-10.3825
▁thai	-10.3829
▁context	-10.3832
▁ngang	-10.3842
▁peace	-10.3843
êm	-10.3853
ối	-10.3858
▁nhạ	-10.3861
se	-10.3865
▁vú	-10.3888
▁yên	-10.389
▁deliver	-10.3892
▁huố	-10.3893
▁decision	-10.3897
am	-10.3899
▁drugs	-10.3907
▁tràn	-10.3911
▁immediate	-10.3933
▁computers	-10.3934
▁mại	-10.3941
▁thao	-10.3941
▁Phả	-10.3942
▁letter	-10.3943
▁link	-10.3943
▁includ	-10.3958
▁xoá	-10.398
▁carry	-10.3983
▁diệt	-10.3985
▁famous	-10.3985
▁square	-10.3985
▁hương	-10.3986
▁training	-10.4005
3	-10.4009
▁2000	-10.4015
▁sổ	-10.4026
▁mây	-10.4028
▁task	-10.4029
ck	-10.4031
▁sốt	-10.4031
▁critical	-10.4036
▁publish	-10.4047
▁clean	-10.4051
▁hang	-10.4051
▁mộ	-10.4064
▁perspective	-10.4072
▁tỏ	-10.408
▁involve	-10.408
▁chép	-10.4081
▁rise	-10.4082
▁lesson	-10.4085
▁version	-10.4092
ình	-10.4101
▁Einstein	-10.4119
▁vong	-10.412
▁Pa	-10.4123
▁math	-10.4127
ói	-10.4128
ỡ	-10.4139
▁400	-10.4139
O	-10.416
▁genetic	-10.4161
▁đùa	-10.4167
▁lành	-10.4176
ood	-10.4176
▁oh	-10.4203
▁minute	-10.4205
odies	-10.4212
▁college	-10.4213
▁hour	-10.4217
R	-10.4222
▁Dr	-10.4226
▁standard	-10.4227
▁door	-10.4242
▁thận	-10.4243
▁mo	-10.4248
▁bank	-10.4251
▁foot	-10.4255
ê	-10.4257
▁freedom	-10.426
ized	-10.4261
▁direction	-10.4269
▁Lú	-10.4271
▁CO	-10.4283
▁ám	-10.4285
▁shift	-10.429
ặc	-10.4293
▁prevent	-10.4308
▁compassion	-10.4308
▁bom	-10.4322
▁improve	-10.4323
▁mập	-10.4325
▁depend	-10.4334
▁bacteria	-10.4344
▁poverty	-10.4356
▁crisis	-10.4356
▁wife	-10.4359
▁fit	-10.436
rên	-10.4365
▁nhằ	-10.4376
▁ngu	-10.438
▁bus	-10.439
▁super	-10.4402
▁agree	-10.4403
▁eventual	-10.4404
▁mực	-10.4408
▁warm	-10.4412
▁mom	-10.4432
▁bắn	-10.4452
▁ADN	-10.4452
▁súng	-10.4457
▁haven	-10.4475
▁conflict	-10.4487
▁Washington	-10.45
▁hiếm	-10.4501
▁supposed	-10.4507
▁excited	-10.4508
▁trào	-10.452
hiến	-10.4528
ier	-10.4533
kept	-10.4536
hiều	-10.4542
▁thổ	-10.4547
▁wind	-10.4549
▁tiêm	-10.4551
▁speed	-10.4561
▁politic	-10.4562
▁aren	-10.4577
▁reading	-10.4593
▁effort	-10.4598
▁respond	-10.4598
de	-10.461
▁chán	-10.4617
▁path	-10.4621
▁cứng	-10.4633
▁secret	-10.4641
▁accept	-10.4648
▁ngọn	-10.4648
▁board	-10.4648
▁Like	-10.4648
▁Mẹ	-10.4648
▁móc	-10.4652
▁lower	-10.4658
▁alive	-10.4661
▁Sa	-10.4665
▁Đố	-10.4686
▁exciting	-10.4697
▁lừa	-10.4698
▁amp	-10.4706
▁remarkabl	-10.4734
▁visit	-10.474
▁interact	-10.4744
▁possibilit	-10.4747
▁earlie	-10.4747
▁liền	-10.4747
▁Pháp	-10.4749
▁kí	-10.4749
▁Charles	-10.4757
▁che	-10.4763
▁cát	-10.4771
▁gas	-10.4772
▁meant	-10.478
▁óc	-10.4785
▁religion	-10.4797
▁societies	-10.4807
▁skills	-10.4808
▁Bằng	-10.481
▁serie	-10.4811
▁fill	-10.4812
▁Universit	-10.4817
▁higher	-10.4819
w	-10.4826
magine	-10.4828
▁enjoy	-10.4847
▁target	-10.4847
▁above	-10.4847
▁dối	-10.4849
▁đua	-10.4853
▁thờ	-10.4857
▁béo	-10.4869
ak	-10.4873
uỳ	-10.4894
▁argument	-10.4898
▁gỗ	-10.4899
▁financial	-10.49
▁products	-10.4904
▁flow	-10.4907
▁cú	-10.491
oặc	-10.4912
.000	-10.4915
▁150	-10.4916
▁institution	-10.4921
▁pin	-10.4929
▁solutions	-10.4938
▁weight	-10.4942
▁progress	-10.4946
▁famili	-10.4948
▁daughter	-10.4948
▁expensive	-10.4948
▁typical	-10.4951
▁Big	-10.4952
▁purpose	-10.4953
▁Your	-10.4955
▁afford	-10.4956
▁cam	-10.496
▁khung	-10.4978
▁explore	-10.4993
▁blind	-10.4998
▁police	-10.4999
▁thầy	-10.4999
▁smell	-10.4999
▁bunch	-10.5001
▁evolution	-10.5004
▁please	-10.5006
ồng	-10.5008
▁căng	-10.5022
▁impossibl	-10.5023
▁Joe	-10.5026
ron	-10.503
▁hoàng	-10.5038
▁Liê	-10.5039
▁mạc	-10.5047
▁bậc	-10.5051
▁policy	-10.5051
▁lũ	-10.5068
▁Thái	-10.5072
▁dư	-10.5076
gen	-10.5082
▁perform	-10.5084
▁ạ	-10.5086
▁hối	-10.5089
▁concern	-10.5102
▁ngưỡng	-10.5102
▁slight	-10.5104
▁medicine	-10.5105
P	-10.5107
▁anywhere	-10.5113
▁massive	-10.5116
ver	-10.5118
▁bar	-10.5118
▁prison	-10.5119
▁cap	-10.5129
ỷ	-10.5144
▁Adam	-10.5154
▁MIT	-10.5154
▁familiar	-10.5162
▁pro	-10.5163
▁cỏ	-10.5165
▁neurons	-10.5175
▁triế	-10.5177
▁thuậ	-10.5185
xoay	-10.5199
▁ác	-10.52
▁method	-10.52
▁magic	-10.5208
▁sent	-10.5208
▁bã	-10.5213
▁mai	-10.5218
▁colleague	-10.5258
▁straight	-10.5258
▁window	-10.5259
▁funny	-10.5259
▁Hô	-10.5264
▁tu	-10.5266
▁thuyền	-10.5266
▁Man	-10.527
▁teaching	-10.5278
▁race	-10.528
▁mét	-10.5283
▁sexual	-10.5291
▁robots	-10.5294
ẩu	-10.5295
ri	-10.5298
▁táo	-10.5301
▁larger	-10.5321
▁reduce	-10.5335
ởi	-10.5342
▁site	-10.5344
▁Toda	-10.5348
▁strange	-10.536
▁rượu	-10.5364
▁unique	-10.5364
▁nhũng	-10.5365
▁2008	-10.537
▁decide	-10.5396
▁brains	-10.54
▁City	-10.5406
refore	-10.5421
▁hỗn	-10.5434
▁usual	-10.5438
▁Cha	-10.5439
like	-10.545
▁Michael	-10.5471
▁constant	-10.5471
▁dangerous	-10.5471
▁interaction	-10.5474
▁vâng	-10.5475
ial	-10.548
▁win	-10.5487
▁writ	-10.5487
ấm	-10.5492
▁mì	-10.5515
▁involv	-10.5516
H	-10.5521
▁element	-10.5524
▁temperature	-10.5524
▁launch	-10.5525
▁address	-10.5528
ir	-10.5562
▁career	-10.5563
▁ti	-10.5583
lo	-10.5584
▁original	-10.559
▁securit	-10.5593
▁saving	-10.5599
▁cold	-10.5612
▁côn	-10.5613
▁machines	-10.5619
ol	-10.5622
▁tissue	-10.5633
▁shark	-10.5634
▁signal	-10.5638
▁rủ	-10.5639
▁shot	-10.5641
▁check	-10.5643
▁thọ	-10.5649
▁gene	-10.565
▁sụ	-10.5655
hiếp	-10.5659
▁ngón	-10.5663
▁types	-10.5663
▁bọ	-10.5673
tally	-10.5675
▁tạ	-10.5678
▁beauty	-10.5687
▁complicated	-10.5687
▁nút	-10.5694
▁pha	-10.5697
▁Ho	-10.5709
▁smaller	-10.5712
ent	-10.5712
▁biệ	-10.5737
▁international	-10.5742
▁mồ	-10.5748
óm	-10.5755
▁luck	-10.5767
▁35	-10.5778
▁ức	-10.5784
ant	-10.5787
▁painting	-10.5789
▁hắn	-10.5798
▁German	-10.5798
▁increasing	-10.58
▁fuel	-10.5803
▁active	-10.5817
▁legs	-10.5819
▁gà	-10.582
▁à	-10.5824
tion	-10.5824
▁mò	-10.5825
▁communication	-10.5864
▁scar	-10.5864
▁brother	-10.5866
▁genes	-10.5869
▁tỉnh	-10.5877
▁serious	-10.588
▁shared	-10.589
ated	-10.5891
▁tò	-10.5893
ao	-10.5894
▁babies	-10.5909
▁gọn	-10.5909
▁bone	-10.5909
▁lù	-10.5909
▁Two	-10.591
▁bả	-10.5912
▁truy	-10.5913
▁Western	-10.5916
▁performance	-10.5916
00	-10.592
▁Los	-10.5941
▁trade	-10.5946
▁release	-10.5962
▁card	-10.5965
▁fantastic	-10.5965
▁dance	-10.5965
▁De	-10.5967
▁Nhì	-10.5971
and	-10.5972
▁heat	-10.5972
▁mạo	-10.5972
▁hồn	-10.5973
▁túc	-10.5976
▁humanity	-10.5984
▁thiểu	-10.599
▁vote	-10.5991
▁press	-10.5995
ưởng	-10.6007
ười	-10.6015
at	-10.6017
▁su	-10.6018
▁television	-10.6022
▁terribl	-10.6022
▁Richard	-10.6022
▁45	-10.6023
▁architecture	-10.6025
0,000	-10.6031
▁mũi	-10.605
▁total	-10.6052
▁stopp	-10.6058
omas	-10.6064
▁report	-10.6065
▁lụ	-10.6075
▁GPS	-10.6079
▁extra	-10.6079
▁trứng	-10.6079
▁cỗ	-10.6091
▁decades	-10.6104
▁random	-10.6106
▁engine	-10.611
ought	-10.6113
▁Ng	-10.612
▁wild	-10.6131
▁roll	-10.6134
ily	-10.6135
▁micro	-10.6135
▁ultimate	-10.6136
▁Talk	-10.6136
▁faci	-10.6136
▁speech	-10.6136
▁birth	-10.6141
▁thạch	-10.6143
▁im	-10.6143
▁significant	-10.6146
▁giận	-10.6152
▁paint	-10.616
ber	-10.6163
▁phán	-10.617
▁influence	-10.6175
E	-10.6177
▁Cơ	-10.6192
▁identit	-10.6193
▁principle	-10.6193
▁yeah	-10.6193
▁sing	-10.6194
▁PM	-10.6194
▁breath	-10.6201
▁researcher	-10.6212
▁Fe	-10.6218
▁chair	-10.622
▁achieve	-10.6238
ọc	-10.6245
▁forth	-10.625
▁survive	-10.6251
▁worker	-10.6251
▁dày	-10.6251
▁instance	-10.6251
▁interview	-10.6251
▁creativity	-10.6251
▁electricity	-10.6252
▁mention	-10.6252
▁From	-10.6253
▁mobile	-10.6254
▁surgery	-10.6264
▁khiếp	-10.6268
light	-10.6272
▁engineering	-10.6276
ính	-10.6281
▁đắn	-10.6303
▁creature	-10.6309
▁biology	-10.6309
▁separate	-10.631
▁private	-10.6311
▁production	-10.6312
▁xong	-10.6315
▁belief	-10.6316
▁brand	-10.6321
▁wide	-10.6325
▁thiệp	-10.6326
▁enter	-10.6328
▁respect	-10.6344
ah	-10.6347
▁environmental	-10.6347
▁invest	-10.636
ến	-10.6361
▁Hi	-10.6361
▁cản	-10.6362
▁summer	-10.6368
▁Haiti	-10.6369
▁hước	-10.6369
▁rồ	-10.637
ảy	-10.6372
▁relative	-10.6373
▁park	-10.6381
though	-10.6386
▁cột	-10.6392
▁Kế	-10.6401
▁Lan	-10.6404
▁photo	-10.6413
▁honest	-10.6427
▁Robert	-10.6428
▁Ban	-10.6439
▁Đế	-10.6445
▁phó	-10.645
ụ	-10.6454
▁thánh	-10.6455
▁lộn	-10.6463
▁cook	-10.6465
▁compare	-10.6471
ba	-10.6484
▁sand	-10.6485
▁truyện	-10.6486
▁tóc	-10.649
▁citizens	-10.6507
▁feed	-10.6517
▁propert	-10.6527
▁unit	-10.6541
▁Di	-10.6542
▁floor	-10.6545
▁failure	-10.6545
▁xưa	-10.6547
▁2010	-10.6552
▁useful	-10.6553
▁10,000	-10.656
9	-10.6563
▁detail	-10.6566
▁xạ	-10.6566
▁gain	-10.6575
▁underst	-10.6583
ical	-10.659
▁Đô	-10.6592
▁minds	-10.6599
▁convince	-10.6605
▁dọc	-10.6607
▁cụt	-10.6607
▁Nigeria	-10.6619
▁Co	-10.6619
▁apply	-10.6634
▁drop	-10.6636
▁emotional	-10.664
vi	-10.6643
▁etc	-10.6652
ời	-10.6658
ô	-10.6663
▁trouble	-10.6665
▁crime	-10.6665
▁rưỡi	-10.6665
▁military	-10.6669
▁demand	-10.6669
▁răng	-10.6669
▁đài	-10.667
▁bread	-10.6673
▁huyết	-10.6678
▁mát	-10.668
▁nơ	-10.6682
▁Green	-10.6689
▁May	-10.6691
▁Mark	-10.6696
▁ngự	-10.6702
▁rock	-10.6704
5	-10.6706
▁bạc	-10.6721
fi	-10.6724
▁star	-10.6725
▁miền	-10.6726
▁popular	-10.6728
▁walked	-10.6728
▁willing	-10.6728
▁vả	-10.6732
▁rule	-10.6747
▁sat	-10.6767
ling	-10.6781
▁communicate	-10.6787
▁vehicle	-10.6787
▁intelligence	-10.6787
▁Jame	-10.6787
▁passion	-10.6791
iết	-10.6804
▁text	-10.6809
▁huy	-10.6831
L	-10.6842
▁except	-10.6845
▁dad	-10.6847
▁tặng	-10.6848
▁neighborhood	-10.6848
▁classroom	-10.6848
▁đĩa	-10.6849
4	-10.6855
▁dai	-10.6857
▁gương	-10.6865
▁range	-10.6869
▁recent	-10.6881
▁Arab	-10.6901
▁technique	-10.691
▁vườn	-10.691
▁ngài	-10.6915
▁click	-10.6918
▁vaccine	-10.6939
▁twi	-10.6941
▁fold	-10.696
▁meeting	-10.6962
▁iPhone	-10.6972
▁trộn	-10.6972
▁landscape	-10.6972
▁nhỉ	-10.6972
▁National	-10.6973
▁forget	-10.698
▁Pakistan	-10.6989
▁quê	-10.699
▁Bang	-10.7014
▁hư	-10.7015
uỷ	-10.7019
▁ổ	-10.7023
▁speaking	-10.7033
▁ấm	-10.7034
▁physics	-10.7035
▁wealth	-10.7035
tia	-10.7035
▁Tổ	-10.7036
▁aware	-10.7038
▁Me	-10.7039
▁lẻ	-10.7043
▁sample	-10.7062
op	-10.7063
▁bổ	-10.7063
▁gay	-10.7065
▁khóc	-10.7077
▁lô	-10.7081
lin	-10.7082
ong	-10.7086
▁75	-10.7092
▁destroy	-10.7097
▁Harvard	-10.7097
▁complexity	-10.7102
hand	-10.7103
▁drawing	-10.7106
▁spot	-10.7115
huyện	-10.7116
▁Many	-10.7138
▁zero	-10.7161
▁station	-10.7161
▁conference	-10.7163
▁Bố	-10.7175
▁Na	-10.7177
▁ho	-10.7177
▁jump	-10.7178
uyển	-10.7187
eath	-10.7191
▁cloud	-10.7196
▁decade	-10.7199
▁mãn	-10.7203
▁hố	-10.7208
▁Indian	-10.7221
▁coffee	-10.7224
▁miệng	-10.7224
▁nuclear	-10.7225
▁collective	-10.7225
▁dính	-10.7227
▁va	-10.724
▁document	-10.7243
▁Gia	-10.726
▁highly	-10.7262
▁cultural	-10.7271
older	-10.7277
▁charge	-10.7277
▁glass	-10.7286
ble	-10.7287
▁tuệ	-10.7289
▁drink	-10.7289
▁đớn	-10.7289
▁campaign	-10.7289
▁central	-10.7291
▁edge	-10.7308
▁tí	-10.7309
igger	-10.7311
▁election	-10.7316
▁pop	-10.732
▁poet	-10.7327
ture	-10.7346
▁Mr	-10.7347
▁profound	-10.7353
▁reward	-10.7353
J	-10.7357
▁professional	-10.7358
▁meter	-10.7359
ạo	-10.7381
▁bắc	-10.7382
▁kiên	-10.74
▁Her	-10.7402
▁introduce	-10.7404
▁His	-10.7411
▁afr	-10.7418
▁lỏng	-10.7421
hiệp	-10.7426
▁ngầm	-10.7429
ếu	-10.743
▁hẹn	-10.7432
▁define	-10.7434
▁chai	-10.7439
▁tươ	-10.7443
ice	-10.7451
▁bear	-10.7454
▁hu	-10.7467
▁lay	-10.7468
▁cycle	-10.7469
▁birds	-10.7473
▁Great	-10.7483
▁worst	-10.7483
▁virtual	-10.7483
▁Middle	-10.7483
▁driving	-10.7484
▁Giáo	-10.7491
▁Ben	-10.7499
way	-10.75
▁Dere	-10.7502
▁serve	-10.7508
▁sub	-10.7524
rào	-10.7527
▁sentence	-10.753
▁fix	-10.7531
binh	-10.7544
hâm	-10.7545
▁universit	-10.7549
▁password	-10.7549
▁various	-10.7549
▁option	-10.755
▁sister	-10.755
▁vuông	-10.7551
▁phổi	-10.7551
▁dying	-10.7552
▁Chà	-10.7556
▁inspired	-10.7558
▁kho	-10.7562
na	-10.7563
ray	-10.7563
▁catch	-10.7566
▁laugh	-10.7583
▁argue	-10.7583
▁cốc	-10.7585
▁scientist	-10.7595
▁bù	-10.7603
ship	-10.7605
▁nobod	-10.7611
▁enormous	-10.7615
▁husband	-10.7615
▁đậu	-10.7615
▁insect	-10.7619
der	-10.7622
▁bạch	-10.7628
▁bed	-10.7632
▁networks	-10.764
▁Su	-10.7647
ide	-10.7651
▁stars	-10.7651
▁lão	-10.767
▁rain	-10.7673
▁Obama	-10.7682
▁Take	-10.7684
▁expression	-10.7688
▁apart	-10.7695
▁cường	-10.7695
▁23	-10.7702
wise	-10.7712
▁chợ	-10.7713
oá	-10.7723
▁town	-10.7729
▁thoảng	-10.773
▁double	-10.7741
▁rô	-10.7742
▁tuy	-10.7747
▁remind	-10.7747
▁disappear	-10.7749
▁2007	-10.7753
▁Cực	-10.7755
▁vast	-10.7756
▁bridge	-10.7758
▁realiz	-10.7765
▁hạng	-10.7784
hỉnh	-10.7793
▁li	-10.7802
▁Times	-10.7802
ities	-10.7805
▁laptop	-10.7817
▁weapon	-10.7817
▁genome	-10.7817
▁Think	-10.7817
▁radical	-10.782
bas	-10.7821
▁Mĩ	-10.7835
▁Bos	-10.785
tor	-10.7863
▁graph	-10.7872
▁tây	-10.7874
▁buôn	-10.7884
▁shar	-10.7885
▁root	-10.7885
▁Ver	-10.7886
▁hằng	-10.7887
▁basi	-10.7889
▁capacity	-10.789
od	-10.7896
▁careful	-10.7896
▁flying	-10.7907
▁artists	-10.7909
▁print	-10.7913
úc	-10.7915
▁Ne	-10.7922
▁accident	-10.7924
▁streets	-10.7925
▁balance	-10.7928
bility	-10.7948
▁NASA	-10.7953
▁investment	-10.7954
▁aid	-10.7955
▁nướng	-10.7957
▁ngã	-10.7958
▁leo	-10.7959
▁avoid	-10.7964
▁Steve	-10.7978
ha	-10.7994
▁missing	-10.7997
▁gã	-10.8012
co	-10.8014
▁threat	-10.8017
▁galax	-10.8022
▁sector	-10.8022
▁supply	-10.8022
▁Paris	-10.8022
▁leadership	-10.8023
▁hứa	-10.8023
▁party	-10.8023
▁đảng	-10.8027
▁Have	-10.8027
▁Jer	-10.8038
▁rid	-10.804
▁van	-10.8041
ite	-10.8048
▁cong	-10.8059
▁evolve	-10.8074
▁possibl	-10.8082
▁match	-10.8088
▁breast	-10.8092
▁component	-10.8092
▁Martin	-10.8092
▁dramatic	-10.8092
▁chip	-10.8092
▁0	-10.8095
▁fashion	-10.8105
▁dollar	-10.8114
▁hate	-10.8129
huỷ	-10.8141
▁damage	-10.8157
▁Wikipedia	-10.8162
▁gift	-10.8162
▁imagination	-10.8162
▁Kinh	-10.8164
▁distance	-10.8168
▁states	-10.8177
▁chăng	-10.8187
▁generate	-10.8188
▁hoại	-10.8189
▁St	-10.8189
▁mission	-10.8203
▁Hy	-10.8206
▁bớ	-10.8216
▁nét	-10.8216
▁dimension	-10.8217
▁multi	-10.8229
▁autism	-10.8232
ible	-10.8232
▁bột	-10.8236
▁lưng	-10.8236
▁plann	-10.824
▁xí	-10.8247
▁flu	-10.8272
▁responsibilit	-10.8303
▁expand	-10.8303
▁tuyết	-10.8303
▁corruption	-10.8304
▁river	-10.8304
▁lack	-10.8305
▁quà	-10.8308
▁dog	-10.8317
▁mẻ	-10.8322
▁desire	-10.8325
▁vắc	-10.8328
▁trú	-10.8329
ỗ	-10.8334
òng	-10.835
▁giày	-10.8359
▁Da	-10.8366
▁opportunit	-10.8371
▁Hộ	-10.8374
▁Second	-10.8374
▁Francisco	-10.8374
▁airplane	-10.8377
▁Sam	-10.8377
▁wave	-10.8385
▁layer	-10.8405
▁ư	-10.8429
▁express	-10.8443
▁neighbor	-10.8446
▁tĩnh	-10.8446
▁Would	-10.8446
▁opposite	-10.8446
▁mèo	-10.845
▁pressure	-10.8451
▁kèm	-10.8452
▁advance	-10.8457
▁trà	-10.8467
G	-10.8475
he	-10.8478
▁Did	-10.8481
line	-10.8486
▁note	-10.8487
▁El	-10.8503
▁traffic	-10.8507
ực	-10.8515
▁article	-10.8519
▁Peter	-10.8519
ey	-10.8531
▁bubble	-10.8533
▁trăng	-10.8534
▁Per	-10.8535
▁dán	-10.8538
▁loss	-10.8539
▁Khán	-10.854
▁net	-10.8541
▁hearing	-10.8549
▁sky	-10.855
▁gap	-10.8551
ninh	-10.8569
rs	-10.8573
▁circle	-10.8576
▁legal	-10.8581
▁instrument	-10.8589
▁universal	-10.8592
▁Again	-10.8592
▁British	-10.8592
,	-10.8592
▁gói	-10.8596
▁Nhân	-10.8597
▁European	-10.8597
▁anyway	-10.8597
▁ship	-10.8603
▁miss	-10.8605
▁nho	-10.8607
▁none	-10.8611
▁lung	-10.8616
▁bụng	-10.8631
▁urban	-10.8634
▁phì	-10.865
▁lõ	-10.8651
▁Web	-10.8653
▁receive	-10.8654
▁clip	-10.8664
▁Street	-10.8665
▁YouTube	-10.8665
▁consequence	-10.8665
▁reveal	-10.8665
▁studio	-10.8665
▁application	-10.8665
▁stem	-10.8665
▁oxygen	-10.8665
▁Nobel	-10.8665
▁infrastructure	-10.8666
ex	-10.8669
▁divide	-10.8675
▁lăn	-10.8679
▁algorithm	-10.8683
▁chừ	-10.8686
▁Tom	-10.8708
▁22	-10.8708
▁quái	-10.8713
▁lậ	-10.8721
▁tough	-10.8724
▁san	-10.8728
▁invite	-10.8729
▁members	-10.873
▁consciousness	-10.874
▁Free	-10.8742
▁Khoản	-10.8748
▁insight	-10.8754
▁core	-10.8756
▁equip	-10.8757
▁tám	-10.8782
▁corner	-10.8789
▁engage	-10.8795
▁tha	-10.8802
▁capture	-10.8803
ghệ	-10.881
▁French	-10.8814
▁bottle	-10.8814
▁tiệc	-10.8814
▁civilization	-10.8814
▁Art	-10.8814
▁Over	-10.8815
▁quán	-10.882
▁definition	-10.882
▁Giá	-10.8823
▁Mars	-10.8826
▁trần	-10.8832
▁cự	-10.8835
▁reflect	-10.8836
▁mờ	-10.8847
▁quote	-10.8849
▁Số	-10.8855
▁sàn	-10.8855
▁contain	-10.8873
tuck	-10.8873
▁struggle	-10.8874
▁Eric	-10.8883
▁mouth	-10.8902
▁lề	-10.8905
▁Any	-10.8925
go	-10.8927
ize	-10.8929
▁Sun	-10.8932
▁hỏng	-10.8937
▁Po	-10.8951
▁Smith	-10.8965
▁responsibl	-10.8965
▁tremendous	-10.8965
▁advantage	-10.8965
▁dứt	-10.8965
▁atmosphere	-10.8966
ùa	-10.8966
▁giấu	-10.8967
▁marrie	-10.8969
▁organism	-10.8974
▁civil	-10.8974
▁ball	-10.8986
▁Cứ	-10.8994
▁xô	-10.8994
▁King	-10.8998
▁combine	-10.9
▁lệnh	-10.9002
huyền	-10.901
▁hair	-10.9018
▁produc	-10.9029
▁wisdom	-10.9041
▁patent	-10.9041
▁scene	-10.9041
▁toilet	-10.9042
▁reaction	-10.9043
▁dynamic	-10.9048
W	-10.905
▁chìm	-10.9052
▁grade	-10.9057
▁Sea	-10.9064
king	-10.9065
▁beat	-10.9066
hời	-10.9066
▁ngon	-10.9068
▁kẹ	-10.9072
▁broken	-10.9073
▁sứ	-10.9077
▁Jan	-10.908
▁bụ	-10.9086
ạch	-10.9093
▁trick	-10.91
night	-10.9101
▁Car	-10.9101
bi	-10.9112
▁lặn	-10.9116
▁Audience	-10.9118
▁Manhattan	-10.9118
▁ancient	-10.9118
▁magazine	-10.9118
▁1990	-10.9118
▁tube	-10.9119
▁Angeles	-10.912
▁background	-10.912
▁museum	-10.9121
▁architect	-10.9128
▁capital	-10.9128
▁bão	-10.9131
▁II	-10.9133
▁photos	-10.9143
▁mountain	-10.9152
▁sustainabl	-10.916
ium	-10.9161
▁tị	-10.9164
▁date	-10.9167
▁tung	-10.9176
▁surviv	-10.9188
▁forever	-10.9192
▁trốn	-10.9194
▁Darwin	-10.9195
▁outcome	-10.9196
▁phiền	-10.9198
▁giơ	-10.9199
▁golf	-10.9201
ster	-10.9204
▁consumer	-10.9207
▁1,000	-10.9216
▁Giả	-10.9217
▁thoá	-10.9221
▁worry	-10.9227
▁shock	-10.9227
▁promise	-10.9229
ứa	-10.9236
▁talks	-10.924
▁cụm	-10.9266
▁cheap	-10.9269
▁Dự	-10.9273
▁president	-10.9274
▁Amazon	-10.9274
▁ngọt	-10.9274
▁Muslim	-10.9281
▁commercial	-10.9283
▁cry	-10.9291
▁More	-10.9292
▁evolv	-10.93
▁statistics	-10.9309
▁fully	-10.9312
▁crowd	-10.9312
▁chẩ	-10.9314
ac	-10.9328
term	-10.9336
▁stream	-10.9336
▁rough	-10.9337
▁encourage	-10.9351
▁Japan	-10.9352
▁Alzheimer	-10.9353
▁ecosystem	-10.9353
▁newspaper	-10.9353
▁perception	-10.9353
▁hurt	-10.9353
▁rapid	-10.9353
▁Latin	-10.9353
▁lunch	-10.9353
▁pair	-10.9353
▁2005	-10.9354
▁unlike	-10.9354
▁operation	-10.9355
▁quí	-10.9356
▁mệnh	-10.9357
▁deeply	-10.9361
▁location	-10.9364
▁operate	-10.9364
▁Điển	-10.9381
▁mix	-10.9388
thing	-10.9393
ab	-10.9396
▁suffering	-10.9397
ram	-10.9405
quang	-10.9406
▁See	-10.9409
▁heo	-10.9412
ball	-10.9416
diversity	-10.9416
▁notion	-10.9421
▁creation	-10.9432
▁oxytocin	-10.9432
▁recover	-10.9432
▁sick	-10.9433
▁Sometime	-10.9433
▁thuế	-10.9433
▁Trường	-10.9436
men	-10.9439
▁farm	-10.9454
ới	-10.9469
▁vò	-10.9474
▁cúm	-10.9475
▁prove	-10.948
▁Frank	-10.9481
▁foreign	-10.9486
▁emerg	-10.95
▁spaces	-10.951
▁School	-10.9512
▁Good	-10.9515
▁claim	-10.9519
▁trưa	-10.9522
▁sad	-10.9525
▁noise	-10.9527
▁topic	-10.9532
▁colon	-10.954
▁fascinating	-10.9542
ember	-10.9547
▁parent	-10.9547
▁hàm	-10.9565
▁hop	-10.9575
▁strength	-10.9588
▁Rwanda	-10.9593
▁identify	-10.9593
▁flight	-10.9593
▁contact	-10.9596
▁sữa	-10.9601
huê	-10.9629
▁dáng	-10.9629
▁character	-10.9634
▁laws	-10.9635
fer	-10.9669
▁error	-10.9674
▁Japanese	-10.9674
▁joy	-10.9674
▁despi	-10.9674
▁dinner	-10.9674
▁illness	-10.9674
▁labor	-10.9677
▁Once	-10.9679
▁Rập	-10.9682
▁foundation	-10.9684
▁justice	-10.9686
▁logic	-10.9704
▁tradition	-10.9704
▁Australia	-10.9709
▁scan	-10.971
▁Asia	-10.9712
▁diet	-10.9722
▁shoes	-10.9723
▁Hans	-10.9729
▁tủ	-10.9734
ướng	-10.9734
me	-10.9737
▁Chicago	-10.9756
▁regular	-10.9756
▁strategy	-10.9756
▁tuý	-10.9756
▁negative	-10.9762
▁graduate	-10.9765
▁tân	-10.977
dimensional	-10.9773
▁khỉ	-10.9786
▁copy	-10.9787
▁plane	-10.9791
ph	-10.9794
ors	-10.9807
▁controll	-10.9829
▁Tiếp	-10.9838
▁1970	-10.9839
▁smile	-10.9839
▁rét	-10.9841
U	-10.9841
▁transformation	-10.9841
▁moon	-10.9844
▁cấm	-10.9845
▁Gab	-10.9849
▁suffer	-10.9875
ga	-10.9876
▁enable	-10.9878
of	-10.9901
▁puzzle	-10.9918
▁happi	-10.9921
▁users	-10.9921
▁marketing	-10.9922
▁Higg	-10.9922
▁attempt	-10.9922
▁unfortunate	-10.9922
▁MRI	-10.9922
▁Apple	-10.9922
▁politician	-10.9922
▁childhood	-10.9923
▁marriage	-10.9925
▁Lầ	-10.9926
▁ngắm	-10.9929
▁collapse	-10.9934
do	-10.9941
▁27	-10.9948
art	-10.9954
▁litera	-10.9956
▁chose	-10.9956
▁due	-10.9973
▁spin	-10.9978
▁99	-10.9982
▁khoan	-10.999
▁spirit	-10.9999
▁injur	-11.0001
▁Van	-11.0004
▁economist	-11.0006
▁yellow	-11.0006
▁proud	-11.0006
▁sugar	-11.0006
▁Bo	-11.0011
▁feature	-11.0018
▁seat	-11.0049
▁shop	-11.006
▁Mi	-11.0065
▁kị	-11.009
▁Cộ	-11.0091
▁volunteer	-11.0091
▁interface	-11.0091
▁internet	-11.0091
▁particle	-11.0091
▁competition	-11.0091
▁employee	-11.0091
versus	-11.0091
▁technical	-11.0091
▁cave	-11.0093
▁Wow	-11.0093
▁correct	-11.0093
▁Tony	-11.0093
ul	-11.0095
▁faith	-11.0095
▁muỗi	-11.0106
▁Ok	-11.0127
▁cưới	-11.0129
▁bá	-11.0143
▁mư	-11.0145
▁biological	-11.0147
▁lang	-11.0148
▁metal	-11.0159
▁display	-11.0176
▁Gates	-11.0176
▁talent	-11.0176
▁lướt	-11.0177
▁tháp	-11.0178
▁narrative	-11.0183
▁farmers	-11.0185
▁mess	-11.0186
▁include	-11.0186
▁killing	-11.0187
▁speaker	-11.0188
▁anti	-11.0198
▁dis	-11.02
▁rãi	-11.0202
▁Chủ	-11.0204
▁knowing	-11.0206
▁Chiế	-11.0211
▁Hơ	-11.0222
▁effects	-11.0223
é	-11.0225
▁ngư	-11.0237
▁related	-11.0239
▁arrive	-11.0244
▁gián	-11.0249
ise	-11.0249
ists	-11.0252
▁truck	-11.0254
ạn	-11.0258
▁Am	-11.026
▁blow	-11.0261
▁nhẫn	-11.0262
▁honor	-11.0263
▁motor	-11.0263
▁cognitive	-11.0263
▁agenc	-11.0264
▁trượt	-11.0264
▁brilliant	-11.0269
▁Nha	-11.027
▁round	-11.0271
▁aspect	-11.0272
▁nở	-11.0272
▁app	-11.0276
▁sequence	-11.0281
▁phú	-11.0286
▁feels	-11.0288
▁Jim	-11.0289
ách	-11.0317
▁sơn	-11.0324
▁cuộ	-11.034
▁thám	-11.035
▁sensor	-11.0352
▁khôn	-11.0353
▁ngập	-11.0358
▁gold	-11.036
▁electrical	-11.0374
▁efficient	-11.0375
▁limited	-11.0386
▁chúa	-11.0387
▁invisible	-11.0388
▁Tin	-11.0402
▁writer	-11.0403
ler	-11.0416
▁kín	-11.0423
▁sung	-11.0424
▁mechanism	-11.0437
▁budget	-11.0437
▁England	-11.0437
▁hidden	-11.0437
▁weird	-11.0437
▁artificial	-11.0439
▁nàng	-11.0441
▁Se	-11.0442
▁châm	-11.0442
▁matters	-11.0444
▁ngốc	-11.0444
▁tướng	-11.0448
▁trip	-11.0452
nstead	-11.0456
▁profit	-11.047
▁Thiên	-11.0474
round	-11.048
▁thính	-11.0483
j	-11.0501
▁leader	-11.0503
▁solv	-11.0506
▁island	-11.0506
▁fresh	-11.0525
▁feedback	-11.0526
▁official	-11.0526
▁finger	-11.0526
▁passionate	-11.0526
▁nốt	-11.0529
▁pack	-11.0533
▁100,000	-11.0534
▁designer	-11.0536
▁xóm	-11.0539
ge	-11.0542
▁meat	-11.0545
ization	-11.0549
▁Come	-11.0549
▁đâ	-11.0551
right	-11.0561
▁practical	-11.0563
▁Bao	-11.0566
▁lò	-11.0577
▁Does	-11.0587
▁khớp	-11.0615
▁opinion	-11.0615
▁succeed	-11.0615
▁construction	-11.0616
▁Congo	-11.0616
▁depression	-11.0616
▁ham	-11.0617
▁collection	-11.0619
▁infect	-11.0626
▁Ah	-11.064
▁dá	-11.0654
▁hopeful	-11.0662
▁voices	-11.0667
▁Nà	-11.0669
▁thua	-11.0669
▁bơ	-11.0674
▁Ca	-11.0683
▁discovery	-11.0691
▁nurse	-11.0694
▁score	-11.0703
▁leaving	-11.0705
▁drone	-11.0705
▁mouse	-11.0705
▁1960	-11.0705
▁tumor	-11.0707
▁2,000	-11.0713
state	-11.0714
▁vở	-11.0721
▁proper	-11.0734
▁ideal	-11.0741
▁Hệ	-11.0742
ff	-11.0755
▁Ka	-11.0762
▁grown	-11.0775
▁authorit	-11.0779
▁estimate	-11.0785
▁củ	-11.0785
▁ex	-11.079
▁kha	-11.0791
09	-11.0795
▁phạt	-11.0796
▁Could	-11.0797
▁disaster	-11.0798
▁laser	-11.0798
▁tháo	-11.08
▁95	-11.0809
▁nhãn	-11.081
▁fan	-11.0812
▁bag	-11.0818
▁compar	-11.0824
V	-11.0824
▁switch	-11.0841
ơ	-11.0846
▁wire	-11.0853
▁TEDx	-11.0864
▁remove	-11.0873
▁leg	-11.0883
▁discuss	-11.0885
▁piano	-11.0887
▁platform	-11.0887
▁satellite	-11.0887
▁Nghĩ	-11.0887
▁awesome	-11.0887
▁entertain	-11.0888
▁earth	-11.0888
▁grandmother	-11.089
▁lông	-11.089
▁pleasure	-11.089
▁precise	-11.0893
▁hầm	-11.0894
▁mạn	-11.09
▁Henr	-11.0902
▁battle	-11.0904
▁toả	-11.0908
▁nọ	-11.0913
▁industrial	-11.0914
▁analys	-11.0915
▁sold	-11.0928
▁hell	-11.0944
▁era	-11.0964
▁nhắ	-11.0965
▁metaphor	-11.0966
▁wood	-11.0968
▁theater	-11.0981
▁Khoa	-11.0983
▁odd	-11.0983
▁highest	-11.0991
▁exercise	-11.0998
▁600	-11.0999
rry	-11.1
▁Thông	-11.1002
▁đự	-11.1014
▁vu	-11.1028
berg	-11.1036
led	-11.1041
▁mũ	-11.1041
▁thô	-11.1042
▁Le	-11.1043
▁Gầ	-11.105
▁sustain	-11.105
▁Tự	-11.1058
▁chả	-11.1061
▁nắng	-11.1073
▁ordinar	-11.1073
▁origami	-11.1074
▁2004	-11.1075
▁musician	-11.1076
▁accurate	-11.1076
▁adapt	-11.1078
▁invention	-11.1078
▁Lo	-11.1079
▁boat	-11.1084
▁determine	-11.1086
▁camp	-11.1086
SW	-11.1087
▁Quá	-11.1104
▁cưỡ	-11.1105
▁gố	-11.1114
▁surround	-11.1121
▁independent	-11.1125
▁rare	-11.1129
▁symbol	-11.113
▁bốt	-11.1131
▁swim	-11.114
▁dạ	-11.1141
▁losing	-11.1143
▁phenomen	-11.115
▁Wi	-11.1152
▁Fa	-11.1154
▁frame	-11.1158
▁channel	-11.1167
▁thuẫn	-11.1168
▁string	-11.1168
▁rural	-11.1168
▁đuôi	-11.1168
▁nhở	-11.1169
▁Yet	-11.1169
▁worldwide	-11.1169
▁2006	-11.1175
▁Khá	-11.1188
▁Bu	-11.1204
▁detect	-11.1218
▁clinical	-11.1229
ốt	-11.123
aught	-11.1242
ko	-11.1248
▁Đa	-11.125
▁giant	-11.1256
▁demo	-11.1257
▁novel	-11.1259
▁distribution	-11.1264
▁Rio	-11.1264
▁pocket	-11.1267
▁quạ	-11.1268
▁translate	-11.1271
Women	-11.1271
▁wheel	-11.1282
▁Dương	-11.1283
▁Má	-11.1288
▁Tra	-11.1294
▁organic	-11.1311
ner	-11.1312
▁hoả	-11.1321
▁debate	-11.1329
▁phái	-11.1336
▁bike	-11.1347
▁1000	-11.1348
▁alternative	-11.1359
▁garden	-11.1359
▁dozen	-11.1359
▁discussion	-11.1362
▁conscious	-11.1363
▁Đồ	-11.1365
▁dry	-11.1368
▁mid	-11.1374
▁bright	-11.1383
▁phô	-11.1384
▁Quan	-11.1385
▁soil	-11.1389
▁Mo	-11.14
hải	-11.1406
ow	-11.141
hi	-11.1414
▁replace	-11.1416
F	-11.1418
▁spoke	-11.1421
▁characters	-11.1427
▁lát	-11.1432
▁partner	-11.1434
con	-11.1435
▁therap	-11.1438
que	-11.1444
life	-11.1447
▁65	-11.1447
▁coast	-11.1457
▁mỹ	-11.1462
▁hòn	-11.1472
▁chemistr	-11.1487
▁row	-11.1496
▁Ju	-11.1496
▁harder	-11.1498
▁pounds	-11.1505
▁quát	-11.1509
▁tens	-11.151
▁select	-11.1528
▁lock	-11.1532
▁sp	-11.1548
▁atom	-11.1549
▁multiple	-11.1554
▁muộn	-11.1554
▁awful	-11.1554
▁Koran	-11.1554
▁Hoả	-11.1555
▁peak	-11.1555
▁Lego	-11.1556
▁chicken	-11.1556
▁Phụ	-11.1559
▁phẳng	-11.1563
▁Loạ	-11.1564
▁bút	-11.1571
▁ngực	-11.1572
▁rung	-11.1583
▁robotic	-11.1587
▁organ	-11.1588
▁ồn	-11.1588
▁poster	-11.16
ài	-11.1601
▁thôn	-11.1601
▁operati	-11.1607
▁organize	-11.1615
▁250	-11.1623
▁đỗ	-11.1624
▁horse	-11.163
izing	-11.1648
▁fat	-11.1651
▁Yemen	-11.1653
▁CEO	-11.1653
▁valuable	-11.1654
▁obes	-11.1654
▁malaria	-11.1654
▁fellow	-11.1655
▁ngoa	-11.1655
▁label	-11.1656
▁khúc	-11.1657
▁múa	-11.1657
▁nano	-11.1657
▁đới	-11.1657
tra	-11.1659
▁Wall	-11.166
▁fiction	-11.1662
▁gather	-11.1668
bo	-11.1668
▁trấn	-11.1672
▁organs	-11.1676
▁Day	-11.1687
▁tour	-11.169
▁Hàn	-11.1691
▁giam	-11.1695
▁hip	-11.1696
▁Cập	-11.17
chìa	-11.1701
▁categor	-11.1701
▁Pat	-11.1703
ca	-11.1712
▁vươn	-11.1713
▁mothers	-11.1716
▁Ngài	-11.1725
ious	-11.1726
▁trán	-11.1727
▁demonstrate	-11.1729
ết	-11.1742
ỏ	-11.1752
▁crack	-11.1753
▁unexpected	-11.1753
▁curious	-11.1753
▁illusion	-11.1753
▁desert	-11.1754
▁1980	-11.1754
▁reform	-11.1754
▁1950	-11.1754
▁weather	-11.1754
▁adopt	-11.1754
▁teenager	-11.1756
▁soldiers	-11.1756
ig	-11.1759
▁according	-11.176
▁kilometer	-11.1761
▁stoo	-11.1764
▁assume	-11.177
▁burn	-11.1776
▁nạ	-11.1784
▁bomb	-11.1787
▁planets	-11.1796
▁26	-11.181
▁bế	-11.1828
ệnh	-11.1839
ờ	-11.1846
iv	-11.1848
ory	-11.185
▁harm	-11.1851
▁sweet	-11.1854
▁incentive	-11.1854
▁mirror	-11.1854
▁empty	-11.1854
▁muscle	-11.1854
▁tomorrow	-11.1856
▁survey	-11.1861
▁dictionar	-11.1865
▁2011	-11.1866
▁applie	-11.1872
▁fell	-11.1886
▁aging	-11.1895
▁user	-11.1919
▁remote	-11.1927
▁taste	-11.1933
▁musical	-11.1935
▁chain	-11.1937
▁comfortabl	-11.1938
▁skill	-11.1948
▁participate	-11.1956
▁religious	-11.1956
▁variet	-11.1957
▁Brian	-11.1957
▁quiet	-11.1957
▁symptom	-11.1959
▁lift	-11.1964
▁Other	-11.1965
▁lifetime	-11.1967
▁grain	-11.1971
▁acid	-11.1975
▁ride	-11.1996
▁Brita	-11.2008
▁caus	-11.2013
uân	-11.2023
▁Jo	-11.2039
▁Ra	-11.204
off	-11.2041
▁receiv	-11.2044
ỹ	-11.205
▁qui	-11.2053
work	-11.2056
▁animation	-11.2059
▁continent	-11.2059
▁Life	-11.206
▁solid	-11.206
▁Bush	-11.206
▁nghiện	-11.206
▁lawyer	-11.206
▁ráp	-11.206
▁shapes	-11.2061
▁intellectual	-11.2062
▁curve	-11.2064
▁28	-11.2064
▁customer	-11.2072
ồi	-11.2081
▁Mar	-11.2085
▁mỏi	-11.209
▁resistan	-11.2098
nce	-11.2108
▁seriously	-11.2114
ria	-11.2121
▁Tiến	-11.2122
▁details	-11.2129
▁ha	-11.2129
▁measur	-11.2132
table	-11.2149
▁professor	-11.2151
▁judge	-11.216
▁extract	-11.2162
▁Ghana	-11.2164
▁Uganda	-11.2164
▁evil	-11.2164
▁mosquito	-11.2164
▁ngộ	-11.2164
▁nhặt	-11.2164
▁stupid	-11.2164
▁Thổ	-11.2165
▁Hình	-11.2168
▁danger	-11.2169
▁cutting	-11.217
▁opening	-11.2174
▁Bình	-11.2175
▁pig	-11.2179
▁dả	-11.2179
om	-11.2181
▁lưỡng	-11.2188
▁broad	-11.2189
▁hưu	-11.219
▁actor	-11.2191
ke	-11.2197
end	-11.2199
▁sight	-11.2203
▁Long	-11.2209
▁master	-11.2219
fa	-11.2221
▁electron	-11.2233
▁historical	-11.2251
▁habit	-11.2256
▁govern	-11.2263
▁MT	-11.2265
▁grand	-11.2267
▁equivalent	-11.2269
▁democratic	-11.2269
▁Cambridge	-11.2269
▁jazz	-11.2269
▁Stanford	-11.2269
board	-11.2269
▁humor	-11.2269
▁combination	-11.2269
▁convert	-11.2269
▁transition	-11.2269
▁cuồng	-11.2273
▁Tốt	-11.2275
▁hormone	-11.2281
▁setting	-11.2283
lic	-11.2291
▁vây	-11.2295
▁Their	-11.2301
0.000	-11.2325
▁journalist	-11.2327
▁rational	-11.2347
▁hồng	-11.2363
▁penguins	-11.2371
har	-11.2373
▁hacker	-11.2374
▁Oxford	-11.2375
▁intelligent	-11.2375
▁regret	-11.2375
▁rắn	-11.2375
▁High	-11.2375
▁hẹp	-11.2376
▁Nghe	-11.2376
▁crop	-11.2376
▁32	-11.2378
▁appropriate	-11.2379
rễ	-11.2383
▁moves	-11.2387
ative	-11.2396
▁continu	-11.2398
▁closed	-11.24
▁charit	-11.2402
▁Will	-11.2412
ỗng	-11.2413
ru	-11.2414
▁vá	-11.2414
▁Ford	-11.2417
we	-11.2418
well	-11.243
▁sốc	-11.2437
▁associate	-11.2456
▁Ven	-11.2466
▁lie	-11.2476
▁chart	-11.2482
▁ingredient	-11.2483
▁liquid	-11.2483
▁pizza	-11.2483
▁empathy	-11.2483
▁LED	-11.2484
▁gender	-11.2484
▁apartment	-11.2485
▁diagnose	-11.2486
▁Bank	-11.2486
▁gun	-11.2488
▁driver	-11.2488
▁plate	-11.249
▁Jona	-11.2493
▁Lạ	-11.2494
▁analog	-11.2498
ating	-11.251
▁pho	-11.2527
▁cup	-11.2528
▁vé	-11.2532
▁criminal	-11.2535
▁molecul	-11.2535
let	-11.2541
hai	-11.2545
▁facilit	-11.2557
▁Lu	-11.2558
org	-11.2562
▁react	-11.2564
▁đồi	-11.2575
▁inner	-11.2579
den	-11.2582
▁nervous	-11.2592
▁telescope	-11.2592
▁joke	-11.2592
▁knee	-11.2592
▁Ji	-11.2592
▁Three	-11.2592
▁maintain	-11.2592
▁review	-11.2592
▁Microsoft	-11.2593
▁motion	-11.2593
▁Center	-11.2593
▁pure	-11.2596
▁shame	-11.2596
▁doubt	-11.2598
▁protection	-11.2598
▁battery	-11.2599
▁sheet	-11.2604
▁fourth	-11.2607
▁soul	-11.2608
▁tail	-11.2621
▁author	-11.2621
▁bill	-11.2632
▁band	-11.2634
ivity	-11.2644
▁lọ	-11.2644
▁comment	-11.2647
▁Swede	-11.265
▁ring	-11.266
uel	-11.2675
ử	-11.2682
▁seek	-11.2684
▁equation	-11.2701
▁vessel	-11.2701
▁Pleas	-11.2701
▁silence	-11.2702
▁FG	-11.2702
▁grandfather	-11.2704
▁cừu	-11.2705
▁đoan	-11.2706
▁grid	-11.2718
▁extend	-11.2721
▁đáo	-11.2723
▁3,000	-11.2727
▁gan	-11.2731
Q	-11.274
▁nose	-11.2742
▁cướ	-11.2759
hử	-11.2764
▁prototype	-11.2765
▁climb	-11.2766
▁120	-11.2776
▁Ga	-11.2779
ify	-11.2781
▁suit	-11.2781
mer	-11.2795
hủ	-11.2811
▁cạn	-11.2812
Y	-11.2812
▁psychology	-11.2813
▁monkey	-11.2813
▁enem	-11.2813
▁Olympic	-11.2813
▁Josh	-11.2813
▁Taliban	-11.2813
▁rửa	-11.2813
▁severe	-11.2813
▁brief	-11.2814
▁giã	-11.2815
▁đạn	-11.2817
▁loud	-11.282
▁sorr	-11.2824
▁memori	-11.283
les	-11.2832
▁ignore	-11.2835
ina	-11.2837
▁Tim	-11.2837
▁gentlem	-11.2842
▁occurr	-11.2842
cious	-11.2853
▁manh	-11.2854
▁Ha	-11.288
▁tần	-11.2882
▁printing	-11.2889
▁relate	-11.2897
▁steps	-11.2909
▁meal	-11.291
▁Jack	-11.2925
▁circumstance	-11.2925
▁dâm	-11.2925
▁entropy	-11.2925
▁false	-11.2925
▁staff	-11.2925
▁chocolate	-11.2925
▁definite	-11.2925
▁department	-11.2926
▁Flori	-11.2926
▁sạn	-11.2928
▁epidemic	-11.2929
▁birthday	-11.293
▁dogs	-11.2942
▁reverse	-11.2942
▁emissions	-11.2949
▁credit	-11.2957
▁homes	-11.2957
▁undern	-11.2971
▁Give	-11.2977
▁ran	-11.2987
ping	-11.3004
▁players	-11.3023
ó	-11.3038
▁flash	-11.3038
▁TEDTalk	-11.3039
▁phrase	-11.3039
▁vulnerabl	-11.3039
▁fake	-11.3039
▁Amy	-11.3042
▁loop	-11.3043
▁vẹn	-11.3045
▁meaningful	-11.3045
▁consumption	-11.3049
▁soft	-11.3049
▁2001	-11.3051
▁Scott	-11.3053
▁lệch	-11.3061
▁section	-11.3065
▁contribute	-11.3072
uấn	-11.3083
▁lận	-11.3083
▁hung	-11.3089
▁Hill	-11.3091
▁rì	-11.3092
▁consume	-11.3106
▁exchange	-11.3109
éo	-11.3111
ortality	-11.3111
▁addition	-11.3116
▁cacbon	-11.3117
▁tape	-11.3121
▁Child	-11.3135
▁Science	-11.3153
▁dẻo	-11.3153
▁dolphin	-11.3154
▁lợn	-11.3154
▁court	-11.3154
▁attract	-11.3154
▁status	-11.3154
▁đạc	-11.3154
source	-11.3155
ai	-11.3157
▁heads	-11.3158
▁inspiration	-11.3159
rtex	-11.3159
▁Kh	-11.3163
▁victims	-11.3164
▁restaurant	-11.3164
▁calculate	-11.3164
▁sculpture	-11.3165
▁dạo	-11.3167
col	-11.3171
ẳng	-11.3172
▁Ko	-11.3174
▁xoa	-11.3175
▁Thá	-11.3176
being	-11.3177
over	-11.3178
▁polle	-11.3191
▁wine	-11.3197
▁folks	-11.3199
▁button	-11.3207
▁na	-11.321
▁cultures	-11.3221
▁lờ	-11.3227
▁carrie	-11.3242
▁whom	-11.3244
▁belong	-11.3244
▁provid	-11.3259
▁embrace	-11.3262
▁hack	-11.3264
▁hò	-11.3267
▁Abraham	-11.327
▁Aristotle	-11.327
▁lecture	-11.327
▁relevant	-11.327
▁poem	-11.327
▁elder	-11.327
▁heavy	-11.327
▁Since	-11.327
▁Christian	-11.327
▁shadow	-11.327
▁Coca	-11.327
▁wake	-11.327
▁dọn	-11.327
▁roof	-11.327
▁zone	-11.3271
▁conclusion	-11.3273
▁melt	-11.3273
▁bio	-11.3277
foot	-11.3281
▁Un	-11.3282
▁Wolf	-11.3289
▁33	-11.3294
▁Nghiê	-11.3295
▁member	-11.3296
▁bias	-11.3296
▁khói	-11.3297
▁hide	-11.33
▁Ngô	-11.3301
▁kiệ	-11.3309
▁lu	-11.3313
▁clos	-11.3315
▁clinic	-11.3316
▁dense	-11.3327
ị	-11.3332
red	-11.3338
▁inch	-11.3341
▁manager	-11.3341
▁engaged	-11.3346
▁electric	-11.3351
▁mini	-11.3362
▁kiê	-11.3364
▁Thanks	-11.3369
▁rạ	-11.3375
▁sum	-11.3379
▁Charlie	-11.3387
▁Congress	-11.3387
▁Texas	-11.3387
▁buýt	-11.3387
▁encounter	-11.3387
▁vặ	-11.3387
▁desk	-11.3388
▁Daniel	-11.3388
▁file	-11.3388
▁drill	-11.3389
▁advertis	-11.3389
▁lady	-11.339
▁expectation	-11.3392
▁William	-11.3397
▁kẹo	-11.34
▁Hả	-11.3405
▁importan	-11.3411
ran	-11.3411
▁flower	-11.3418
▁inter	-11.343
20	-11.3431
▁khuy	-11.344
▁cure	-11.3456
▁mistakes	-11.3458
▁designers	-11.346
▁bia	-11.3472
wa	-11.348
▁Eve	-11.3481
▁philosoph	-11.3481
istic	-11.3482
▁bắp	-11.3497
▁quad	-11.3498
▁cheat	-11.3505
▁grateful	-11.3506
▁float	-11.3506
▁repair	-11.3506
▁spectrum	-11.3507
▁jail	-11.3507
▁implication	-11.3507
▁medium	-11.3507
▁empower	-11.3508
ệ	-11.3512
▁percentage	-11.3518
▁refugee	-11.3519
▁85	-11.3522
▁mis	-11.3524
▁bird	-11.3525
ure	-11.3529
▁Last	-11.3533
▁apple	-11.3534
uồng	-11.3537
▁Mos	-11.3545
▁tea	-11.3548
▁khé	-11.355
ụt	-11.3552
▁Ja	-11.3556
av	-11.3558
▁manufactur	-11.3559
▁sh	-11.3561
▁Gar	-11.3562
▁Edi	-11.3574
▁load	-11.3581
▁occur	-11.3595
▁Ken	-11.3604
▁mòn	-11.3606
▁celebrate	-11.3607
▁sophisticat	-11.3627
▁title	-11.3627
▁hydrogen	-11.3627
▁initial	-11.3628
ỳ	-11.3629
▁height	-11.363
▁academic	-11.3631
▁volume	-11.3631
▁Pe	-11.3634
▁Chú	-11.3636
ware	-11.3637
▁prediction	-11.3638
▁threaten	-11.3647
▁angle	-11.3657
lan	-11.3659
▁graphic	-11.3661
▁Ngâ	-11.3666
▁phase	-11.3673
▁Qua	-11.3686
ee	-11.3695
▁Sahara	-11.37
▁former	-11.3704
dom	-11.3709
▁rau	-11.3721
gi	-11.3731
▁Mac	-11.3733
▁challeng	-11.3743
▁contract	-11.3744
▁devil	-11.3749
▁elephant	-11.3749
▁implant	-11.3749
▁unusual	-11.3749
▁assumption	-11.3749
▁forgot	-11.3749
▁instruction	-11.3749
▁lifestyle	-11.375
▁Gulf	-11.3752
▁rập	-11.3757
per	-11.3762
àng	-11.3765
▁xám	-11.3772
▁Alex	-11.3789
oc	-11.3804
uck	-11.3809
▁chiê	-11.381
▁Red	-11.3813
▁Ya	-11.3818
▁chín	-11.382
▁fascinat	-11.3826
▁nhó	-11.3832
ụp	-11.3836
▁đợ	-11.3838
▁conduct	-11.3841
▁emerge	-11.3842
▁Pro	-11.3843
▁lũng	-11.385
tro	-11.3853
▁hall	-11.3854
▁dealing	-11.3856
▁Cyr	-11.386
▁transport	-11.3871
▁librar	-11.3872
▁grab	-11.3872
▁advice	-11.3872
▁physicist	-11.3872
▁steal	-11.3872
▁mushroom	-11.3872
▁regard	-11.3872
▁framework	-11.3872
▁dở	-11.3878
wood	-11.3884
scale	-11.3897
▁director	-11.3898
van	-11.3902
ap	-11.3918
▁vay	-11.3919
▁chăn	-11.392
▁cương	-11.3921
è	-11.3923
hờ	-11.3936
▁lơ	-11.3945
▁nế	-11.3955
▁cat	-11.3979
cal	-11.3982
▁Brown	-11.3988
03	-11.3988
▁cents	-11.3995
▁shut	-11.3997
▁admit	-11.3997
▁illegal	-11.3997
▁mathematics	-11.3997
▁polio	-11.3997
▁ruộ	-11.3997
▁intervention	-11.3997
▁host	-11.3998
▁reference	-11.3998
▁winter	-11.3998
▁2050	-11.3999
▁Boy	-11.4
▁Tuyệt	-11.4
stan	-11.4001
▁Girl	-11.4002
▁Mike	-11.4004
▁Lạp	-11.4005
▁dốc	-11.4008
▁xà	-11.4014
▁dồ	-11.4032
▁handle	-11.4033
gie	-11.4044
▁ngừa	-11.4052
▁mechanical	-11.4053
▁đai	-11.406
▁Real	-11.4062
▁Marc	-11.4073
▁Yorker	-11.4094
▁illustrate	-11.4108
èo	-11.4112
▁player	-11.4117
▁south	-11.4121
▁flat	-11.4123
▁Rosling	-11.4124
▁milk	-11.4124
▁innovative	-11.4124
▁gravity	-11.4124
▁Norden	-11.4124
▁collaboration	-11.4124
▁Mandela	-11.4125
▁dirt	-11.4126
▁pour	-11.4126
▁orbit	-11.4131
▁Time	-11.4135
▁peer	-11.4138
▁awareness	-11.414
▁Điể	-11.4152
▁item	-11.4152
▁lượt	-11.4156
▁ố	-11.4166
▁emergenc	-11.4175
▁sôi	-11.4176
than	-11.4185
▁xé	-11.4194
ttle	-11.42
visible	-11.4203
▁Bác	-11.4205
len	-11.4208
đ	-11.421
▁Pho	-11.4228
▁nhầ	-11.425
▁concrete	-11.4252
▁economies	-11.4252
▁harvest	-11.4252
▁length	-11.4252
▁rescue	-11.4252
▁earthquake	-11.4252
▁ritual	-11.4252
▁judgment	-11.4252
▁primary	-11.4252
▁witness	-11.4252
ile	-11.4253
▁clever	-11.4253
▁yester	-11.4254
▁nản	-11.4254
▁Park	-11.4254
▁Lad	-11.4258
▁Hollywo	-11.4263
▁swimm	-11.4265
▁rush	-11.4265
▁intense	-11.4267
▁productive	-11.4267
▁vang	-11.4268
▁nát	-11.4291
▁mỉ	-11.4292
▁Đá	-11.4301
▁perceive	-11.4303
▁stone	-11.4319
▁vượng	-11.4319
▁Bob	-11.432
▁Te	-11.4325
tum	-11.4337
ari	-11.434
▁filter	-11.434
nna	-11.4348
gram	-11.4358
▁ồ	-11.4369
ox	-11.437
▁phác	-11.4372
▁license	-11.438
▁Detroit	-11.4382
▁Indonesia	-11.4382
▁Watson	-11.4382
▁client	-11.4382
▁vegetable	-11.4382
▁pump	-11.4382
▁insulin	-11.4382
▁characteristic	-11.4382
ranscript	-11.4382
▁panel	-11.4382
▁privilege	-11.4384
▁sports	-11.4385
▁Sinh	-11.4386
▁appreciate	-11.4387
▁agent	-11.4392
▁Andrew	-11.4392
▁finance	-11.4398
va	-11.4402
▁confidence	-11.4405
6	-11.4423
surance	-11.4436
▁Luậ	-11.4444
▁ten	-11.4444
▁clock	-11.4449
▁29	-11.4451
▁origin	-11.4451
▁Syria	-11.4451
▁broke	-11.4468
▁behavioral	-11.4469
▁Toà	-11.4477
á	-11.4489
ick	-11.449
ơn	-11.449
bu	-11.4491
▁attach	-11.4513
Arthur	-11.4513
▁fortunate	-11.4514
▁mathematical	-11.4514
▁Institute	-11.4514
▁barrier	-11.4514
▁centuries	-11.4514
▁dội	-11.4514
▁inevitabl	-11.4514
▁Foundation	-11.4514
▁rocket	-11.4514
▁abuse	-11.4514
eeth	-11.4515
▁Steph	-11.4515
▁improvement	-11.4516
▁coral	-11.4517
▁pile	-11.4518
▁statement	-11.4521
▁hydro	-11.4524
▁activist	-11.4525
▁boom	-11.4526
▁pilot	-11.4527
▁ear	-11.4528
▁needle	-11.4528
▁mọc	-11.4529
▁Quả	-11.4534
stream	-11.4541
▁mượ	-11.4542
▁Star	-11.4551
▁sites	-11.4559
▁bor	-11.4562
▁arts	-11.4565
car	-11.4567
▁videos	-11.4575
▁bách	-11.4583
ịnh	-11.4586
▁shoot	-11.4586
▁internal	-11.46
▁Russia	-11.4601
▁danc	-11.4606
▁programm	-11.4608
▁improv	-11.4608
gác	-11.461
▁Ray	-11.462
ose	-11.4621
▁lies	-11.463
Cola	-11.4633
▁Blue	-11.4647
▁Singapore	-11.4647
▁contrast	-11.4647
▁dinosaur	-11.4647
▁steel	-11.4647
▁candidate	-11.4647
▁Iceland	-11.4647
▁split	-11.4647
▁Gandhi	-11.4647
▁transportation	-11.4648
▁nghiệt	-11.4651
▁võ	-11.4652
our	-11.4652
▁xăng	-11.4652
▁đẽ	-11.466
▁behave	-11.4666
▁Jane	-11.467
▁loa	-11.4677
jo	-11.4678
BC	-11.4683
▁comfort	-11.4683
▁opera	-11.4686
▁Lee	-11.469
▁suck	-11.4696
▁stock	-11.4703
▁mountains	-11.4722
▁Yo	-11.4731
▁tiễn	-11.4746
▁previous	-11.4753
▁Matt	-11.476
▁destructi	-11.4773
úp	-11.4775
▁bug	-11.4779
▁transplant	-11.4781
▁agricultur	-11.4782
▁fabric	-11.4782
▁President	-11.4782
▁clue	-11.4782
▁computing	-11.4782
▁physician	-11.4782
▁muối	-11.4782
▁France	-11.4782
▁observation	-11.4783
▁tank	-11.4785
▁Project	-11.4787
▁bìa	-11.4787
▁attitude	-11.4789
▁painful	-11.479
▁hunger	-11.479
▁wise	-11.4792
▁Chá	-11.4794
▁31	-11.4794
▁coal	-11.4796
ions	-11.4796
▁Ki	-11.4807
ji	-11.481
▁vắ	-11.481
▁node	-11.4819
▁prepared	-11.4829
▁50,000	-11.4831
▁Gu	-11.4833
▁circuit	-11.4835
een	-11.486
hăng	-11.4866
▁quặ	-11.487
▁season	-11.4873
▁thẳ	-11.4881
▁xướ	-11.4888
use	-11.4894
▁north	-11.4895
▁bees	-11.4904
▁mad	-11.4906
▁prefer	-11.4919
ubtitle	-11.4919
▁DVD	-11.4919
▁explanation	-11.4919
▁giặ	-11.4919
▁identical	-11.4919
▁polici	-11.4919
▁procedure	-11.4919
▁ruồi	-11.4919
ealand	-11.4919
▁frank	-11.4919
▁kitchen	-11.4919
▁input	-11.4919
▁nerve	-11.4919
▁interactive	-11.492
▁Islamic	-11.492
▁hotel	-11.4921
▁kick	-11.4922
▁eggs	-11.4922
▁Prize	-11.4924
▁ngẩn	-11.4927
▁church	-11.4927
▁mistake	-11.4929
▁Lin	-11.4931
▁bold	-11.4935
▁White	-11.4935
▁quarter	-11.4941
what	-11.4952
▁hunt	-11.4953
▁fields	-11.4954
ring	-11.4956
▁plus	-11.4969
▁shoulder	-11.497
anh	-11.4975
▁ngợ	-11.4981
▁Island	-11.4983
▁hat	-11.4985
▁Mc	-11.499
▁vaccines	-11.4993
▁entrepreneurs	-11.4997
ica	-11.4998
▁Bell	-11.5002
▁iron	-11.5002
▁lắc	-11.5004
▁protest	-11.5007
ft	-11.5013
min	-11.5028
▁sọ	-11.5032
▁ngụ	-11.5033
▁Vi	-11.5034
▁breathe	-11.5037
kin	-11.504
uỹ	-11.5046
▁depress	-11.5057
▁Bronx	-11.5058
▁Shakespeare	-11.5058
▁Stewart	-11.5058
▁implement	-11.5058
▁lúa	-11.5058
▁motivation	-11.5058
▁trộm	-11.5058
▁biologist	-11.5058
▁revenue	-11.5058
▁radiation	-11.5058
▁sustainability	-11.5059
▁River	-11.5059
▁Chile	-11.5059
efore	-11.5059
▁afterward	-11.506
▁hóc	-11.506
▁Carolina	-11.5061
▁Kim	-11.5062
▁obsess	-11.5063
▁Ro	-11.5064
▁dũ	-11.507
▁Valle	-11.5076
▁Pole	-11.5082
▁philosopher	-11.5083
power	-11.509
▁sides	-11.509
water	-11.5092
▁entrepreneur	-11.5103
▁Health	-11.5115
▁Simon	-11.512
▁automatic	-11.5121
▁ski	-11.5127
▁Mur	-11.5128
▁border	-11.5137
umber	-11.5152
nda	-11.5157
▁tax	-11.5159
hận	-11.5167
▁parking	-11.5169
▁mộng	-11.5174
▁ought	-11.5184
ngry	-11.5186
ái	-11.5187
▁800	-11.5191
▁Ru	-11.5195
▁Uni	-11.5195
▁Fellow	-11.5199
▁deserve	-11.5199
▁existence	-11.5199
▁flag	-11.5199
▁trillion	-11.5199
▁Christmas	-11.5199
▁plent	-11.5199
▁globe	-11.5199
▁gũi	-11.5199
▁Joseph	-11.5199
▁apparent	-11.5199
▁footprint	-11.5199
▁ladies	-11.5199
▁greenhouse	-11.5199
▁commitment	-11.5199
▁earn	-11.5202
▁rũ	-11.5203
▁xích	-11.5203
▁mươi	-11.5204
▁authentic	-11.5206
▁logo	-11.5206
▁asset	-11.5209
▁activate	-11.521
▁Phá	-11.5214
▁55	-11.5222
▁laboratory	-11.5227
▁bin	-11.523
▁nhá	-11.5234
▁wi	-11.5242
erson	-11.5248
▁tím	-11.5259
▁spring	-11.5264
▁burning	-11.5264
▁Basic	-11.5269
▁Ed	-11.527
q	-11.5275
▁sil	-11.5298
▁Sal	-11.5309
wan	-11.5316
aking	-11.5322
useum	-11.5337
▁arrest	-11.5342
▁frog	-11.5342
▁immune	-11.5342
▁snow	-11.5342
▁Montana	-11.5342
▁wars	-11.5342
▁Giọ	-11.5342
▁trend	-11.5342
▁1930	-11.5342
▁horrible	-11.5342
▁unknown	-11.5342
▁Abou	-11.5343
▁minister	-11.5343
▁download	-11.5343
▁Albert	-11.5344
▁2002	-11.5347
▁stroke	-11.5352
▁violent	-11.5359
▁chẽ	-11.5366
▁oceans	-11.5369
▁dỗ	-11.5371
▁tráng	-11.5373
BM	-11.5381
▁trace	-11.539
raising	-11.5394
▁hét	-11.5394
tech	-11.5395
▁Nel	-11.5396
▁36	-11.5401
▁Sh	-11.5403
▁cartoon	-11.5408
▁ếch	-11.5409
▁xá	-11.5411
▁ván	-11.5415
▁imp	-11.542
▁borders	-11.5423
▁Quy	-11.5428
▁37	-11.5431
▁Sch	-11.5433
▁ngẫm	-11.5438
▁repeat	-11.544
óc	-11.5442
ically	-11.5444
▁mail	-11.5469
▁pan	-11.5469
▁Men	-11.547
▁abstract	-11.5483
▁Four	-11.5486
▁liberal	-11.5487
▁wheelchair	-11.5487
▁Revolution	-11.5487
▁silent	-11.5487
▁Jesu	-11.5487
▁frighten	-11.5487
▁technological	-11.5487
▁narrow	-11.5488
▁headline	-11.5488
▁engagement	-11.5489
▁confront	-11.5489
▁establish	-11.5489
▁overall	-11.549
▁Kev	-11.549
▁đệ	-11.549
▁Ever	-11.5491
▁psychologist	-11.5492
▁Laden	-11.5492
▁zoom	-11.5496
▁Whe	-11.5496
ham	-11.5497
point	-11.5501
▁pitch	-11.5501
▁xỉ	-11.5502
át	-11.5507
▁sensitive	-11.5511
▁conventional	-11.5516
▁bẩn	-11.5522
hour	-11.5536
▁liver	-11.5545
ped	-11.5548
▁shell	-11.555
▁Sep	-11.5559
etic	-11.5565
ike	-11.5569
▁Get	-11.5576
▁capabilit	-11.5582
▁Alexand	-11.5586
uốt	-11.5587
▁pound	-11.5603
▁myth	-11.561
▁flowers	-11.5614
▁propose	-11.5614
▁bare	-11.5618
▁favor	-11.5623
▁Win	-11.5625
▁guide	-11.5625
▁cọ	-11.5627
▁lion	-11.5628
▁Islam	-11.5631
▁construct	-11.5631
▁Egypt	-11.5633
▁knock	-11.5634
▁computation	-11.5634
▁miracle	-11.5634
▁explor	-11.5634
▁healthcare	-11.5634
▁Chị	-11.5634
▁Israeli	-11.5634
▁underwater	-11.5635
▁Điện	-11.5636
▁1900	-11.5636
hạch	-11.5637
▁nhường	-11.5637
▁stretch	-11.5639
▁presentation	-11.564
▁Newton	-11.5645
▁spreading	-11.5646
▁beach	-11.5647
ưới	-11.5648
điêu	-11.5649
▁motivate	-11.5649
▁mến	-11.5651
▁pool	-11.5651
▁decline	-11.5675
ground	-11.5675
truck	-11.5677
half	-11.5677
▁700	-11.5685
▁bám	-11.5685
▁rap	-11.5689
▁lân	-11.5693
▁clouds	-11.57
▁sô	-11.5703
▁argu	-11.5706
▁whale	-11.5709
long	-11.5713
▁rely	-11.5715
▁donor	-11.5724
▁pregnan	-11.5727
▁lánh	-11.5731
▁Li	-11.5738
down	-11.5739
▁shake	-11.5769
▁defin	-11.577
▁Mary	-11.5776
▁classic	-11.5776
▁courage	-11.5782
▁frequenc	-11.5783
▁cluster	-11.5783
▁session	-11.5783
▁balloon	-11.5783
▁Next	-11.5783
▁Anyway	-11.5783
▁pollution	-11.5783
▁icon	-11.5784
▁rỗng	-11.5784
▁inequalit	-11.5785
▁tall	-11.5786
▁Ron	-11.5787
▁sáo	-11.5787
▁astonishing	-11.5791
▁presence	-11.5792
▁upper	-11.5794
▁Lewi	-11.5795
▁condom	-11.5799
▁sắm	-11.5803
▁dropp	-11.5803
▁firm	-11.5803
stage	-11.5807
▁trait	-11.5817
▁limit	-11.5817
▁seal	-11.5822
▁cộ	-11.5833
▁Har	-11.5839
chi	-11.5842
▁Đả	-11.5844
▁Ten	-11.5849
▁Whil	-11.5855
▁phun	-11.5857
ka	-11.5858
CD	-11.5859
▁tribe	-11.5867
ev	-11.5877
▁Jay	-11.5884
lf	-11.5884
▁maps	-11.5884
ala	-11.5887
ris	-11.5895
▁organiz	-11.5897
▁Mô	-11.5903
▁restore	-11.5904
▁km	-11.5911
iness	-11.5916
▁processe	-11.5917
ki	-11.5918
▁hous	-11.5919
▁Silicon	-11.5934
▁froze	-11.5934
▁participant	-11.5934
▁permanent	-11.5934
▁chôn	-11.5934
▁bicycle	-11.5934
▁request	-11.5934
▁nhện	-11.5935
▁calculation	-11.5935
▁Nguyên	-11.5936
▁sphere	-11.5939
▁mổ	-11.5939
▁heroes	-11.5941
▁smoke	-11.5942
ese	-11.5962
▁vụn	-11.5975
▁bê	-11.5976
Toàn	-11.598
▁aim	-11.5984
▁younger	-11.5985
▁stands	-11.5998
▁exception	-11.5999
▁educational	-11.6012
▁gray	-11.6015
▁Roy	-11.6029
▁monitor	-11.6041
▁dress	-11.6042
ches	-11.6043
▁relations	-11.6043
▁raw	-11.605
▁Oo	-11.6052
fe	-11.6078
à	-11.6082
net	-11.6083
entral	-11.6084
▁frustrat	-11.6086
▁install	-11.6087
▁efficienc	-11.6088
▁spill	-11.6088
▁cousin	-11.6088
▁mystery	-11.6088
▁sheep	-11.6088
▁fluid	-11.6088
▁regime	-11.6089
▁systematic	-11.6089
▁wireless	-11.6089
▁vạch	-11.6092
▁inform	-11.6096
▁Đi	-11.6099
▁Bible	-11.61
▁cord	-11.6102
▁20,000	-11.6108
ending	-11.6113
▁Grand	-11.6113
oài	-11.6119
▁antibiotics	-11.6121
▁bond	-11.6139
ợp	-11.6139
▁king	-11.6144
▁Philip	-11.6147
▁nhạt	-11.6148
gar	-11.6149
▁Final	-11.6155
▁mere	-11.6156
ov	-11.6185
lam	-11.6186
ụng	-11.6192
qui	-11.6196
▁5,000	-11.6196
▁nor	-11.62
▁uncle	-11.62
▁limb	-11.6201
▁rã	-11.6206
▁giọ	-11.6207
▁neuron	-11.6208
▁strangers	-11.621
▁romantic	-11.6211
▁tune	-11.6216
ification	-11.6217
▁weak	-11.6224
▁thanks	-11.6226
▁Jun	-11.6236
▁Peace	-11.6244
▁afternoon	-11.6244
▁furniture	-11.6244
▁external	-11.6244
▁passenger	-11.6244
▁microscope	-11.6245
▁Delhi	-11.6245
▁pretend	-11.6245
▁beetle	-11.6245
▁1999	-11.6245
▁fl	-11.6245
▁Bắ	-11.6246
▁Five	-11.6247
▁clothes	-11.625
▁Dur	-11.6253
▁lỡ	-11.6254
▁rebuild	-11.6255
▁huynh	-11.6257
▁OE	-11.6261
▁sét	-11.6262
▁habitat	-11.6264
▁Love	-11.6271
▁struggl	-11.6275
▁Eastern	-11.6276
rising	-11.6291
▁Port	-11.6293
▁reduc	-11.6296
▁hero	-11.6305
▁committ	-11.6316
▁spoken	-11.6319
oto	-11.6321
▁spiritual	-11.6322
▁conflicts	-11.6326
▁Cor	-11.6332
ưu	-11.6342
▁counter	-11.6345
▁citizen	-11.6346
▁quyế	-11.6353
▁nhào	-11.6355
town	-11.6355
▁vờ	-11.6359
▁escape	-11.636
▁tip	-11.6362
▁Mother	-11.6362
▁fears	-11.6365
▁Cam	-11.6373
ark	-11.6376
▁cow	-11.6383
▁vứ	-11.6391
▁attend	-11.6393
▁Afghan	-11.6403
▁Disney	-11.6403
▁NGO	-11.6403
▁Tanzania	-11.6403
▁paradigm	-11.6403
▁heaven	-11.6403
▁optimistic	-11.6404
▁defense	-11.6404
▁agenda	-11.6404
▁scratch	-11.6404
▁Iranian	-11.6405
▁backward	-11.6407
▁prize	-11.6408
▁Palestine	-11.641
▁Che	-11.6411
▁léo	-11.6411
▁intuitive	-11.6414
▁elect	-11.6415
▁vulnerability	-11.6415
▁House	-11.6416
▁2012	-11.6418
▁puts	-11.6419
▁portrait	-11.6423
5,000	-11.6427
▁boxe	-11.6432
▁Hell	-11.6436
▁sacrifice	-11.6443
▁Carol	-11.6444
▁roads	-11.6444
▁Sĩ	-11.6447
ound	-11.6451
class	-11.6459
forward	-11.6459
▁adventure	-11.6462
▁mapp	-11.6467
GG	-11.6472
▁lam	-11.648
▁Mov	-11.6499
▁weigh	-11.6501
call	-11.6504
▁disorder	-11.6505
din	-11.6516
▁beside	-11.6517
▁flip	-11.6518
ade	-11.6521
▁hid	-11.6521
▁worri	-11.6525
▁hí	-11.653
▁Fo	-11.6532
▁analyze	-11.6534
flies	-11.6536
▁exten	-11.6538
▁ears	-11.6538
za	-11.6544
▁tê	-11.6548
ế	-11.6558
ward	-11.656
▁Hạ	-11.6562
ville	-11.6564
▁Antarctic	-11.6564
▁ancestor	-11.6564
▁club	-11.6564
▁ridiculous	-11.6564
▁Voice	-11.6564
▁fiber	-11.6564
▁Brooklyn	-11.6565
▁ticket	-11.6565
▁tivi	-11.6565
▁cafe	-11.6565
▁evolutionary	-11.6566
▁Rome	-11.6566
▁Sarah	-11.6569
▁densit	-11.6569
▁Rose	-11.657
▁marathon	-11.6571
▁telephone	-11.6572
▁Jordan	-11.6572
▁discipline	-11.6574
▁stack	-11.6574
▁chù	-11.6596
▁lăng	-11.6597
ero	-11.6603
▁imagin	-11.6605
▁hire	-11.6611
▁Tác	-11.6612
goài	-11.6617
ew	-11.6623
war	-11.6626
▁Part	-11.6628
▁dish	-11.6629
▁sandwich	-11.6634
alem	-11.6635
iệt	-11.6635
ax	-11.6651
bb	-11.6664
▁que	-11.6668
▁Ky	-11.6673
▁prisoner	-11.6675
▁rating	-11.6682
▁đoạ	-11.6683
▁pen	-11.6684
ư	-11.6696
top	-11.6697
▁senses	-11.671
▁Tư	-11.6713
plan	-11.6718
▁route	-11.6724
▁Black	-11.6725
ú	-11.6726
▁edit	-11.6727
▁Vietnam	-11.6728
▁appeal	-11.6728
▁chớp	-11.6728
▁district	-11.6728
▁guarantee	-11.6728
▁yield	-11.6728
▁depth	-11.6728
▁embedded	-11.6728
▁database	-11.6728
▁Scotland	-11.6729
▁Bosnia	-11.6729
▁flood	-11.6729
▁Nathan	-11.6729
▁airport	-11.6729
▁orange	-11.6729
▁ignorance	-11.6729
▁variation	-11.6729
▁wound	-11.6729
▁exploration	-11.673
▁sweat	-11.673
sey	-11.673
▁Wo	-11.673
▁pill	-11.6733
▁athlete	-11.6733
▁chuông	-11.6739
▁cheaper	-11.6739
▁trigger	-11.6739
▁ngớ	-11.6741
▁hill	-11.675
▁invit	-11.6752
▁Moor	-11.6754
▁tre	-11.6757
▁stor	-11.6759
▁worm	-11.6759
▁pose	-11.677
▁Air	-11.6777
▁Au	-11.6778
▁style	-11.6783
▁nhú	-11.679
▁lui	-11.6794
▁fossil	-11.6799
▁personalit	-11.6805
Lấy	-11.6807
án	-11.681
gh	-11.681
▁limits	-11.6811
▁Kenne	-11.6811
ister	-11.6815
▁Hoà	-11.682
▁vịnh	-11.6824
7	-11.6837
▁poll	-11.6841
▁surgeon	-11.6842
▁fixed	-11.6844
▁Carl	-11.685
▁lưỡ	-11.6857
▁feeding	-11.6858
▁refer	-11.6866
▁Thư	-11.6875
▁Ge	-11.6882
alo	-11.6885
zler	-11.689
▁Human	-11.6894
▁mammal	-11.6895
nfortunate	-11.6895
▁Parkinson	-11.6895
▁album	-11.6895
▁ensure	-11.6895
▁column	-11.6895
openha	-11.6895
▁demographic	-11.6895
▁compound	-11.6895
▁Virginia	-11.6895
▁dopamine	-11.6895
▁1984	-11.6895
▁nhiễu	-11.6895
▁senior	-11.6895
▁crucial	-11.6896
▁interpret	-11.6896
▁spell	-11.6896
▁2030	-11.6897
rctic	-11.6898
▁Johnny	-11.6898
▁figur	-11.6899
▁Jones	-11.69
▁ái	-11.6901
▁Fl	-11.6907
▁plug	-11.6907
▁48	-11.6907
▁Tes	-11.6909
▁Arm	-11.6914
▁Ham	-11.6915
▁gut	-11.6917
▁bribe	-11.6918
▁viewer	-11.6919
▁Tasmanian	-11.6923
▁tweet	-11.6925
fully	-11.6931
xi	-11.6939
▁partners	-11.6939
▁Hol	-11.694
▁pet	-11.6948
▁Russian	-11.6953
Global	-11.6958
▁Julian	-11.696
▁rè	-11.6966
▁bla	-11.6967
▁kìa	-11.6968
▁Has	-11.6968
▁tribes	-11.6971
▁wash	-11.6973
▁Sử	-11.6975
▁10-	-11.6978
▁abilit	-11.6993
ves	-11.6994
▁Up	-11.6995
▁engag	-11.6995
▁000	-11.6998
▁quậ	-11.6999
▁theme	-11.7003
▁seeds	-11.7006
rit	-11.7013
▁hả	-11.702
▁functional	-11.7027
▁observ	-11.7035
▁seed	-11.704
▁command	-11.7041
FO	-11.7047
▁Wa	-11.7053
▁strategi	-11.7055
▁Mon	-11.7056
▁optimis	-11.7064
oắn	-11.7065
▁Alpha	-11.7065
▁chromosome	-11.7065
▁corporate	-11.7065
▁gesture	-11.7065
▁iPod	-11.7065
▁jihad	-11.7065
▁combat	-11.7065
▁household	-11.7065
▁abandon	-11.7065
▁leap	-11.7065
▁participati	-11.7065
▁suspect	-11.7065
▁smartphone	-11.7065
▁leak	-11.7065
▁conservation	-11.7065
▁predator	-11.7066
▁hungry	-11.7066
▁ugl	-11.7066
▁compell	-11.7067
▁cake	-11.7068
▁Chưa	-11.7069
oxide	-11.7071
▁gear	-11.7073
▁educate	-11.7078
▁nei	-11.7081
▁mate	-11.7081
bar	-11.7082
▁triệ	-11.7088
000	-11.7089
standing	-11.7092
▁Đấ	-11.7096
uff	-11.71
▁Prince	-11.7104
▁bồi	-11.7122
▁projection	-11.7125
▁ngử	-11.7131
ota	-11.7134
▁nàn	-11.7136
iest	-11.7139
▁manag	-11.7167
▁imag	-11.7173
▁Dian	-11.7185
▁nha	-11.7206
▁crash	-11.7207
▁metaboli	-11.7212
▁Elizabeth	-11.7237
▁gậy	-11.7237
▁obstacle	-11.7237
▁psychological	-11.7237
▁strike	-11.7237
▁International	-11.7237
▁plain	-11.7237
▁debt	-11.7237
▁Sierra	-11.7237
▁đuối	-11.7237
▁hoãn	-11.7237
▁demonstration	-11.7238
▁translation	-11.7238
▁retina	-11.7239
▁suicide	-11.724
▁Wal	-11.7241
▁đôla	-11.7248
▁march	-11.7249
▁đúc	-11.7249
▁Show	-11.7252
▁classical	-11.7256
▁Si	-11.7257
▁anger	-11.7257
▁cart	-11.726
io	-11.7265
▁loan	-11.7268
▁Fra	-11.7268
▁quest	-11.727
▁Line	-11.7271
ềm	-11.7278
▁stepp	-11.728
xin	-11.7293
▁bồ	-11.7295
▁shopp	-11.7303
Sahara	-11.7306
▁promote	-11.7307
house	-11.7307
back	-11.7311
rid	-11.7315
▁walks	-11.7315
▁Palm	-11.7318
▁whales	-11.7321
▁nhàng	-11.7327
▁Khu	-11.7327
▁bể	-11.7337
▁ló	-11.7339
▁photography	-11.7343
▁Julia	-11.7345
▁Kid	-11.7348
▁confus	-11.735
▁gra	-11.7351
lock	-11.739
▁magical	-11.7407
ghê	-11.7409
▁extinct	-11.7411
▁Sylvi	-11.7412
▁prosthetic	-11.7412
▁tunnel	-11.7412
▁Qatar	-11.7412
▁concert	-11.7412
▁recipe	-11.7412
▁General	-11.7412
▁distant	-11.7412
▁genius	-11.7412
▁neuroscience	-11.7413
▁boss	-11.7413
▁dose	-11.7413
▁vitamin	-11.7413
▁Nature	-11.7413
▁shall	-11.7413
▁rỉ	-11.7413
▁desperate	-11.7415
▁kiss	-11.7415
▁objective	-11.7416
▁ron	-11.7417
▁conservative	-11.7417
▁grass	-11.7417
▁alter	-11.7417
▁fifth	-11.7419
▁mỡ	-11.7435
uch	-11.7436
ix	-11.7442
bru	-11.7443
▁electronic	-11.7443
▁proof	-11.7452
▁oxy	-11.7457
▁norm	-11.7457
▁kề	-11.7465
▁Ni	-11.7478
American	-11.7485
book	-11.7488
▁thick	-11.7495
▁surrounding	-11.75
▁Nation	-11.7503
▁Ted	-11.7505
▁Lang	-11.7506
▁award	-11.7508
kh	-11.7517
▁bell	-11.7534
▁giậ	-11.7539
▁Quay	-11.7539
ữ	-11.7549
▁Bar	-11.7552
▁secure	-11.7555
tive	-11.7568
verse	-11.7573
▁murder	-11.7573
▁subtle	-11.7581
▁isolat	-11.7582
▁hé	-11.7589
▁bow	-11.7589
▁reject	-11.7589
▁oppos	-11.7591
▁Muhammad	-11.7591
▁description	-11.7591
▁essence	-11.7591
▁intrigu	-11.7591
▁scenario	-11.7591
▁tiệm	-11.7591
▁vertical	-11.7591
▁Hawk	-11.7591
▁shelter	-11.7591
▁violin	-11.7591
▁elite	-11.7591
▁Edward	-11.7591
▁approv	-11.7591
▁privacy	-11.7591
▁rainforest	-11.7591
▁EDI	-11.7591
▁kidney	-11.7591
▁Clinton	-11.7591
▁representative	-11.7592
▁Ethiopia	-11.7592
▁drum	-11.7592
▁contribution	-11.7594
▁Nothing	-11.7594
▁Moon	-11.7597
▁Ross	-11.7597
▁resolve	-11.76
▁scanner	-11.7601
▁blame	-11.7604
▁Map	-11.761
▁specialize	-11.7611
▁winner	-11.7614
eographic	-11.7614
▁Q	-11.7616
▁anonymous	-11.7616
▁strip	-11.7616
▁instantly	-11.7616
▁recycl	-11.7618
ớt	-11.7619
▁ink	-11.7621
ải	-11.7626
ula	-11.763
ulu	-11.763
▁Ke	-11.7643
▁priorit	-11.7643
▁compete	-11.7652
▁Rememb	-11.7654
ọ	-11.767
▁photographer	-11.7673
▁recording	-11.7675
▁vital	-11.7677
▁độn	-11.7681
▁boundar	-11.7686
▁chest	-11.769
▁meetings	-11.7693
▁ill	-11.7693
▁Sp	-11.7693
▁197	-11.77
▁tap	-11.7705
▁Sant	-11.7705
▁phe	-11.7712
▁prime	-11.7712
olds	-11.7724
Something	-11.773
▁excite	-11.7745
▁dive	-11.7745
▁nhi	-11.7749
▁cloth	-11.7768
▁Julie	-11.7773
▁Roger	-11.7773
▁anxiety	-11.7773
▁complain	-11.7773
▁curiosity	-11.7773
▁nghẽn	-11.7773
▁pheromone	-11.7773
▁robust	-11.7773
▁substance	-11.7773
▁suspend	-11.7773
▁ultra	-11.7773
▁incident	-11.7773
cellular	-11.7773
cific	-11.7773
▁freak	-11.7773
▁northern	-11.7773
▁toxic	-11.7773
▁cooperation	-11.7773
▁nonprofit	-11.7773
▁Listen	-11.7773
▁Susan	-11.7774
▁huý	-11.7774
▁cheese	-11.7774
▁calorie	-11.7774
▁pause	-11.7774
▁vớ	-11.7774
▁coach	-11.7777
▁welcome	-11.7784
▁geo	-11.7785
▁inspiring	-11.7785
▁till	-11.7788
not	-11.7789
▁mile	-11.7793
▁granted	-11.7794
▁Space	-11.7795
pu	-11.7799
▁intention	-11.7799
mar	-11.78
▁expectanc	-11.7804
fusion	-11.7808
▁Lab	-11.7808
▁axis	-11.781
▁4,000	-11.7811
rous	-11.7821
88	-11.7822
▁US	-11.7824
cô	-11.785
worth	-11.7852
dependent	-11.7855
ươi	-11.7866
▁Nick	-11.7867
▁cartoons	-11.7869
▁ethical	-11.7895
▁Steven	-11.7895
bra	-11.7898
box	-11.791
èm	-11.792
▁Research	-11.7923
▁130	-11.7924
▁resist	-11.793
eating	-11.7937
▁evening	-11.7946
ility	-11.7946
▁sensory	-11.7956
▁recogni	-11.7957
▁pioneer	-11.7958
▁terrifi	-11.7958
▁silicon	-11.7958
▁tower	-11.7959
▁copyright	-11.7959
▁Leonardo	-11.7959
▁chaos	-11.7961
bit	-11.7962
▁absorb	-11.7963
▁identifie	-11.7965
▁38	-11.7968
▁Doug	-11.7968
▁tag	-11.7971
▁infinite	-11.7985
▁officer	-11.7986
▁gien	-11.7991
▁Super	-11.7992
▁1.5	-11.7998
▁gãy	-11.8005
sha	-11.8007
▁sauce	-11.8007
▁plot	-11.8009
ership	-11.8015
▁Sir	-11.802
▁trans	-11.8026
▁pr	-11.8032
uk	-11.8032
lly	-11.8043
▁pot	-11.8047
▁Count	-11.8047
▁mode	-11.805
▁CD	-11.805
lew	-11.8055
▁Was	-11.8065
▁shocking	-11.807
▁killer	-11.8093
▁Op	-11.8094
▁magnet	-11.8094
▁xó	-11.8097
▁ratio	-11.8097
▁Dea	-11.8098
▁defend	-11.8107
digit	-11.8109
▁nan	-11.811
▁hearts	-11.8113
▁breed	-11.8114
▁corn	-11.8114
▁Kar	-11.8117
▁Design	-11.8122
▁42	-11.813
▁pray	-11.8134
▁accomplish	-11.8146
▁observe	-11.8146
▁Through	-11.8147
▁adjust	-11.8147
imbabwe	-11.8147
▁Ushahidi	-11.8147
▁alcohol	-11.8147
▁hamburger	-11.8147
▁iPad	-11.8147
▁medication	-11.8147
empest	-11.8147
▁uncomfortabl	-11.8147
▁tattoo	-11.8147
▁reduction	-11.8147
▁46	-11.8148
▁Should	-11.8148
▁khoăn	-11.815
▁súp	-11.815
▁Leone	-11.8152
rick	-11.8155
ndeed	-11.8159
ana	-11.8161
▁dominant	-11.8163
▁vot	-11.8173
▁AK	-11.8175
ants	-11.8184
hoo	-11.8193
▁verb	-11.8195
▁lamp	-11.8198
▁Marco	-11.8198
▁inventor	-11.8203
▁None	-11.8214
▁Kì	-11.8219
▁Mom	-11.823
▁shipp	-11.8234
dor	-11.8235
ford	-11.824
▁soup	-11.8245
▁mầm	-11.8268
áo	-11.8269
oth	-11.827
born	-11.8283
ably	-11.8283
▁96	-11.8284
▁sales	-11.8288
ích	-11.8289
▁mớ	-11.8298
▁Dad	-11.8302
▁transfer	-11.8304
▁cats	-11.8309
RA	-11.831
▁Neanderthal	-11.8311
▁Phậ	-11.8313
▁reported	-11.8316
▁72	-11.832
▁Home	-11.8323
epartment	-11.8337
▁Apollo	-11.8339
▁August	-11.8339
▁concentration	-11.8339
▁intuition	-11.8339
▁reconstruct	-11.8339
▁temporar	-11.8339
▁ceiling	-11.8339
▁neural	-11.8339
▁drove	-11.8339
▁overcome	-11.8339
▁textbook	-11.8339
▁uy	-11.8339
▁regulation	-11.8339
▁salt	-11.834
▁football	-11.834
▁Out	-11.834
▁keyboard	-11.834
▁transparency	-11.8341
▁slice	-11.8341
rane	-11.8341
▁Somalia	-11.8342
▁mentor	-11.8343
▁dump	-11.8343
▁agricultural	-11.8343
▁representation	-11.8344
▁TEDster	-11.8344
▁parallel	-11.8344
▁Anas	-11.8344
▁pace	-11.8344
▁sướng	-11.8344
▁hook	-11.8347
▁trash	-11.8347
▁Cameron	-11.8347
▁gai	-11.8348
▁196	-11.8357
▁locate	-11.8364
▁hoan	-11.8369
▁mice	-11.837
▁conclude	-11.8371
▁integrate	-11.8373
aday	-11.8377
▁trá	-11.8379
▁printer	-11.8379
▁worrie	-11.8386
▁buồ	-11.8388
▁Hoàn	-11.839
▁craft	-11.8402
▁ní	-11.8403
▁mark	-11.8404
▁prepare	-11.8407
▁shooting	-11.8407
▁ethic	-11.8423
áp	-11.8427
century	-11.8429
▁shine	-11.8441
▁cast	-11.8442
▁trends	-11.8443
rd	-11.8448
▁ấu	-11.8454
▁preserve	-11.8477
orway	-11.8489
▁slides	-11.8498
▁attribute	-11.8504
▁employ	-11.8505
▁suppose	-11.8507
▁mimic	-11.8509
▁quit	-11.8511
▁mó	-11.8515
▁2.0	-11.8518
▁pie	-11.8522
▁Gold	-11.8526
▁rộn	-11.8533
▁Berkeley	-11.8535
▁Church	-11.8535
▁Philade	-11.8535
▁Square	-11.8535
▁chapter	-11.8535
▁mutation	-11.8535
▁protocell	-11.8535
▁civic	-11.8535
▁garage	-11.8535
▁brown	-11.8535
tlantic	-11.8535
▁bullet	-11.8535
▁coin	-11.8535
▁partnership	-11.8535
▁alien	-11.8536
▁paralyz	-11.8536
▁Carne	-11.8537
▁exhibition	-11.8537
▁ruin	-11.8538
cus	-11.8538
▁Columbia	-11.8539
▁compromise	-11.854
▁comic	-11.8542
▁capita	-11.8542
▁nutrient	-11.8545
▁wings	-11.8545
▁homeless	-11.855
▁uncertaint	-11.8553
▁peaceful	-11.8554
ryl	-11.8554
▁uốn	-11.8557
▁introduc	-11.8579
▁expos	-11.8579
▁hông	-11.8581
▁stair	-11.8587
▁port	-11.8597
level	-11.8619
▁Lớ	-11.8621
▁Dol	-11.8628
force	-11.8631
istan	-11.8632
▁băn	-11.8634
▁SS	-11.8635
gging	-11.8642
▁Us	-11.865
▁mixed	-11.8651
itude	-11.8654
two	-11.8655
▁Never	-11.8658
▁Nữ	-11.8663
made	-11.8664
▁Bolt	-11.8671
ủ	-11.868
▁Kal	-11.8685
▁Korea	-11.8689
▁fir	-11.8691
bro	-11.8692
ntil	-11.8696
▁tie	-11.8701
▁inspire	-11.8707
▁formula	-11.8707
bon	-11.8714
▁Khan	-11.8715
▁victim	-11.8717
ze	-11.8718
▁profession	-11.872
ale	-11.8722
all	-11.8726
▁tears	-11.873
ney	-11.8731
▁farmer	-11.8731
▁exhibit	-11.8733
▁thắn	-11.8733
▁Francis	-11.8735
▁Christoph	-11.8735
▁Copernic	-11.8735
▁Argentina	-11.8735
▁Bangladesh	-11.8735
▁Siberia	-11.8735
▁Soviet	-11.8735
▁Sputnik	-11.8735
▁Starbuck	-11.8735
▁Tokyo	-11.8735
▁aesthetic	-11.8735
▁concentrate	-11.8735
▁explosion	-11.8735
▁profile	-11.8735
▁spaghetti	-11.8735
▁unbelievabl	-11.8735
azeera	-11.8735
▁east	-11.8735
▁dialogue	-11.8735
▁probabilit	-11.8735
▁output	-11.8735
▁array	-11.8735
▁consistent	-11.8735
▁primate	-11.8735
▁ooh	-11.8736
▁resident	-11.8736
▁attractive	-11.8736
▁woke	-11.8736
▁Greek	-11.8736
▁variable	-11.8737
▁Não	-11.8738
▁Minister	-11.874
▁lake	-11.874
▁exploit	-11.8741
▁Third	-11.8742
▁measurement	-11.8742
▁upload	-11.8742
▁hyper	-11.8743
▁fortune	-11.8744
▁khùng	-11.8748
▁pulse	-11.8749
uring	-11.8751
▁vần	-11.8752
▁burst	-11.8762
eda	-11.8772
▁arriv	-11.8776
▁package	-11.8777
▁phế	-11.8786
▁utter	-11.8798
▁repeated	-11.8799
▁nest	-11.8816
▁Mạ	-11.8816
unk	-11.8825
ette	-11.8838
case	-11.8848
▁khan	-11.8849
▁resilienc	-11.8858
▁Bali	-11.8875
met	-11.8896
ison	-11.8904
mail	-11.8906
▁nhã	-11.891
▁khen	-11.8915
▁Tell	-11.8916
clear	-11.8919
▁fruit	-11.8923
▁j	-11.8924
▁3000	-11.8924
▁kệ	-11.8925
ổ	-11.8932
79	-11.8933
▁diabet	-11.8938
▁Make	-11.8938
▁Hawaii	-11.8938
▁instinct	-11.8939
▁Jeopa	-11.8939
▁burden	-11.8939
▁favela	-11.8939
▁guilt	-11.8939
▁helicopter	-11.8939
▁xộn	-11.8939
lphi	-11.8939
▁Colombia	-11.8939
▁diagram	-11.8939
▁schizophreni	-11.8939
▁hemisphere	-11.8939
▁borrow	-11.8939
▁tendenc	-11.8939
▁phosphorus	-11.8939
▁collaborative	-11.8939
atrix	-11.8939
▁comparison	-11.8939
ớ	-11.894
▁Coke	-11.894
stein	-11.8941
▁installation	-11.8941
▁limitation	-11.8941
▁Stage	-11.8941
rich	-11.8942
▁mindset	-11.8942
▁traged	-11.8942
▁Six	-11.8942
▁highlight	-11.8944
▁Luther	-11.8944
▁búa	-11.8945
▁pathway	-11.8945
▁darkness	-11.8945
▁Sunday	-11.8947
for	-11.8949
▁kem	-11.895
▁Jud	-11.8951
▁kẽ	-11.8951
▁imager	-11.8951
▁hackers	-11.8953
▁marker	-11.8956
▁format	-11.8965
▁ủi	-11.8969
▁Kelly	-11.8972
ries	-11.8972
▁Jenni	-11.8974
ery	-11.8974
▁mal	-11.8977
▁underly	-11.8978
▁tricks	-11.8979
hood	-11.898
ho	-11.8981
▁associat	-11.8988
▁electronics	-11.899
▁nutrition	-11.8991
▁intend	-11.8994
stone	-11.8995
▁magnetic	-11.8997
▁taxi	-11.9003
▁additional	-11.9007
▁chóc	-11.9012
▁AM	-11.9012
▁dancer	-11.9016
▁Pol	-11.9016
bul	-11.902
▁bend	-11.9026
eith	-11.9029
▁chày	-11.9035
▁grave	-11.9045
gged	-11.9046
▁Rock	-11.9063
hop	-11.9063
▁Global	-11.907
▁350	-11.9076
tta	-11.9089
iên	-11.9092
▁tech	-11.91
ories	-11.9105
▁Han	-11.9108
cent	-11.9117
▁instant	-11.9119
ừa	-11.9121
rdy	-11.9123
han	-11.9126
ash	-11.9132
▁smok	-11.9137
▁industri	-11.9139
▁urge	-11.914
▁strongly	-11.9145
▁chíp	-11.9147
▁Atlanta	-11.9147
▁awkward	-11.9147
▁frequent	-11.9147
▁leather	-11.9147
▁routine	-11.9147
▁Sáu	-11.9147
▁gạt	-11.9147
▁psychopath	-11.9147
▁Colleg	-11.9148
▁neat	-11.9148
▁choáng	-11.9148
▁electrode	-11.9148
▁Benjamin	-11.9148
▁Wait	-11.9148
▁Water	-11.9148
▁tired	-11.9148
▁brave	-11.9149
▁Evan	-11.9149
▁microbe	-11.9149
▁educat	-11.9149
▁Back	-11.915
▁2.5	-11.9151
▁achievement	-11.9151
▁rỡ	-11.9153
▁DJ	-11.9154
▁detector	-11.9156
▁personaliz	-11.9157
▁glow	-11.916
▁lau	-11.916
▁Mad	-11.9161
▁Robot	-11.9162
▁suggestion	-11.9163
▁fulfill	-11.9164
▁palm	-11.9167
burgh	-11.9171
▁acknowledge	-11.9173
▁investor	-11.9176
rap	-11.9189
▁achiev	-11.919
▁gradual	-11.9192
▁vọ	-11.9197
▁experienc	-11.9205
▁describ	-11.9209
▁helpful	-11.9209
pper	-11.9221
bati	-11.9227
▁140	-11.924
▁Del	-11.9242
▁gathering	-11.9246
▁dig	-11.925
free	-11.9255
form	-11.9261
los	-11.9266
▁divers	-11.9276
▁xi	-11.9281
▁Mil	-11.9282
▁Cu	-11.9283
▁ná	-11.9288
▁Du	-11.9291
▁qualit	-11.9294
▁Pop	-11.9305
▁bother	-11.9307
kind	-11.9309
meter	-11.931
▁orchestra	-11.9313
ago	-11.9319
▁CP	-11.9326
▁Uy	-11.9336
air	-11.9339
▁Leban	-11.9352
▁Emil	-11.9353
▁bath	-11.9353
▁egg	-11.9355
▁soldier	-11.9356
▁exam	-11.9356
▁deploy	-11.9359
▁recruit	-11.936
▁Michigan	-11.936
▁Nanopatch	-11.936
▁bướm	-11.936
▁ceremon	-11.936
▁correspond	-11.936
▁curriculum	-11.936
▁diagnosi	-11.936
▁parasite	-11.936
▁pyramid	-11.936
▁skull	-11.936
▁stole	-11.936
▁extension	-11.936
▁domain	-11.936
▁delay	-11.936
▁relax	-11.936
▁1998	-11.9361
▁Fried	-11.9361
▁synthetic	-11.9361
▁generous	-11.9361
▁Tesla	-11.9361
▁kingdom	-11.9361
▁dignit	-11.9361
▁chief	-11.9361
▁tragic	-11.9361
▁thrill	-11.9362
▁Rick	-11.9363
▁jet	-11.9364
▁agreement	-11.9365
▁Đỏ	-11.9368
▁twist	-11.9368
▁confident	-11.9369
▁wider	-11.9369
▁Stone	-11.937
▁drivers	-11.937
▁dust	-11.9374
▁dial	-11.9374
▁laid	-11.9376
star	-11.9382
▁kiề	-11.9382
▁pink	-11.9383
▁NL	-11.9384
▁tăm	-11.9387
▁spark	-11.9388
▁thơm	-11.939
oh	-11.9392
▁experimental	-11.9396
▁bound	-11.9406
▁1.2	-11.9407
▁Oliv	-11.9408
▁fate	-11.941
▁sport	-11.9414
▁proportion	-11.9415
▁programmer	-11.942
▁wipe	-11.9425
▁Dut	-11.9425
▁beer	-11.943
rat	-11.9433
▁sharp	-11.9438
▁Spa	-11.9439
▁dedicat	-11.9444
law	-11.9446
▁determined	-11.9468
▁wrapp	-11.9469
▁scann	-11.9469
while	-11.9471
minute	-11.9472
clock	-11.9482
▁coat	-11.9487
▁chì	-11.9489
known	-11.949
▁distribut	-11.949
▁thề	-11.9502
▁tạng	-11.951
▁64	-11.9517
▁Ar	-11.9528
▁tale	-11.9528
▁Ram	-11.953
related	-11.9531
▁Lar	-11.9535
coli	-11.9537
▁Mill	-11.9552
ail	-11.9554
87	-11.9567
▁thumb	-11.9574
▁distinct	-11.9575
▁trọn	-11.9575
▁Galapagos	-11.9578
▁Obvious	-11.9578
▁inherent	-11.9578
▁poison	-11.9578
▁simplicity	-11.9578
▁virtue	-11.9578
▁Friday	-11.9578
▁federal	-11.9578
▁Lakota	-11.9578
▁Watch	-11.9578
▁kilo	-11.9578
▁broadcast	-11.9578
▁amaze	-11.9578
▁supermarket	-11.9578
▁breakthrough	-11.9578
▁microphone	-11.9578
▁pole	-11.9578
▁falls	-11.9578
▁hypothesis	-11.9578
▁reef	-11.9578
▁infant	-11.9578
▁mask	-11.9578
▁hallucination	-11.9578
▁retirement	-11.9579
▁Jackson	-11.9579
▁miserable	-11.958
▁editor	-11.9583
▁bite	-11.9583
▁duck	-11.9583
▁native	-11.9586
▁Queen	-11.9587
▁autonomous	-11.9587
▁Plato	-11.9587
▁releas	-11.9589
▁râu	-11.9594
▁Louis	-11.9599
▁remov	-11.9612
▁ché	-11.9613
▁fo	-11.9622
ology	-11.9624
▁Chad	-11.9633
▁Chứ	-11.9638
▁biế	-11.9645
▁dịu	-11.9658
▁Ital	-11.9664
▁teen	-11.9664
▁lane	-11.9666
ual	-11.9669
▁Thầ	-11.9669
▁gram	-11.9683
ỉ	-11.9685
place	-11.9688
▁Mari	-11.969
▁cồn	-11.9695
▁túng	-11.9702
ớc	-11.9702
look	-11.9709
▁Pri	-11.971
30	-11.9714
▁86	-11.9715
hóm	-11.9719
▁ep	-11.9724
▁Fort	-11.9727
▁occasional	-11.973
izz	-11.9733
kg	-11.9735
▁wing	-11.9746
▁mall	-11.9746
▁producer	-11.9746
▁Hu	-11.9756
room	-11.9767
▁cop	-11.9767
ridge	-11.9771
▁Gen	-11.9775
▁sườn	-11.9782
▁Jon	-11.9796
▁Bhutan	-11.98
▁December	-11.98
▁chimpanzee	-11.98
▁currenc	-11.98
▁fabulous	-11.98
▁reserve	-11.98
▁smooth	-11.98
▁cigarette	-11.98
▁domestic	-11.98
▁thrive	-11.98
▁Spanish	-11.98
▁glad	-11.98
▁primari	-11.98
▁breakfast	-11.98
▁Rachel	-11.98
▁choosing	-11.98
▁defeat	-11.9801
▁SMS	-11.9802
▁Jess	-11.9802
▁PH	-11.9802
▁boil	-11.9803
▁infection	-11.9806
▁hẻ	-11.9806
▁fastest	-11.9808
▁genetically	-11.9809
▁innocent	-11.9811
▁comedy	-11.9811
▁rỗi	-11.9812
▁insist	-11.9814
▁Beijing	-11.9814
▁30,000	-11.9821
▁wedding	-11.9823
▁outer	-11.9826
▁gel	-11.9826
▁Dave	-11.9827
▁chổ	-11.9828
▁viê	-11.9829
▁mood	-11.983
▁Pal	-11.9836
▁serving	-11.9836
▁constraint	-11.9838
pit	-11.984
▁93	-11.9842
▁Berli	-11.9842
▁tongue	-11.9842
▁Age	-11.9842
ếch	-11.9842
▁đục	-11.9846
▁Miss	-11.9848
▁Hall	-11.985
▁Fortun	-11.9859
▁container	-11.9859
▁cent	-11.9867
▁prepar	-11.9867
urkey	-11.9868
▁AO	-11.9872
▁rape	-11.9876
ink	-11.9882
fish	-11.9883
ansas	-11.9884
itus	-11.9885
▁den	-11.9889
▁Tri	-11.9896
vity	-11.9899
▁sexy	-11.9913
cro	-11.9919
dollar	-11.9921
field	-11.9921
four	-11.9923
▁Chi	-11.9926
▁statistical	-11.9929
▁Khả	-11.9932
▁bind	-11.9933
▁transmit	-11.9936
▁cable	-11.994
rút	-11.9947
▁Kiế	-11.9947
aki	-11.995
aker	-11.9962
▁Maya	-11.9963
▁generat	-11.9964
set	-11.9969
ửa	-11.9971
▁twin	-11.9972
▁texting	-11.9972
ook	-11.9975
▁đinh	-11.9981
▁lens	-11.9985
▁rò	-11.9988
▁vạn	-11.9993
▁doors	-11.9996
▁winn	-12.0014
▁bón	-12.0024
▁Babylon	-12.0027
▁Jeff	-12.0027
▁Arizona	-12.0027
▁bizarre	-12.0027
▁flavor	-12.0027
▁pursue	-12.0027
▁simulation	-12.0027
▁spider	-12.0027
▁suppress	-12.0027
▁luxur	-12.0027
▁pigeon	-12.0027
▁Địa	-12.0027
▁transparent	-12.0027
▁Sudan	-12.0027
▁harness	-12.0027
▁brutal	-12.0027
▁bedroom	-12.0027
▁censor	-12.0028
▁silver	-12.0028
▁1995	-12.0028
▁Nepal	-12.0028
▁Octo	-12.0028
▁division	-12.0028
▁Giới	-12.0028
▁dẹp	-12.0028
▁Kiri	-12.0029
▁glacier	-12.0029
▁weekend	-12.003
▁warning	-12.003
▁damn	-12.003
▁globalization	-12.003
▁ecological	-12.0031
▁cash	-12.0033
▁disable	-12.0035
▁sink	-12.0036
▁penguin	-12.0037
▁Dam	-12.0039
▁xế	-12.0039
▁southern	-12.0042
▁hàn	-12.0045
▁script	-12.0045
▁pursuit	-12.005
▁97	-12.0052
▁dơi	-12.0054
▁Less	-12.0063
▁Tiề	-12.0063
▁tear	-12.0067
▁trễ	-12.0075
▁fed	-12.0077
▁cute	-12.0079
▁Alan	-12.0079
▁Far	-12.0086
▁....	-12.0088
▁Bro	-12.0101
▁views	-12.0105
▁Yu	-12.0111
▁disorders	-12.0112
lm	-12.0121
lit	-12.0131
▁heal	-12.0133
▁Aar	-12.0134
cca	-12.0136
▁Jean	-12.0139
nia	-12.0145
view	-12.0147
▁Len	-12.0148
spring	-12.0154
▁Ali	-12.0162
▁Archi	-12.0162
▁circuits	-12.0169
▁Chế	-12.0179
▁Uh	-12.0185
▁98	-12.0185
oán	-12.019
ila	-12.0192
▁giàn	-12.0207
hân	-12.0208
▁đè	-12.022
▁wrap	-12.0228
▁delivery	-12.0233
▁whistle	-12.0234
0	-12.0235
▁restaurants	-12.0238
ob	-12.024
ronto	-12.0241
▁Bern	-12.0243
AT	-12.0244
▁replicate	-12.0246
▁refuse	-12.0247
▁navigate	-12.0252
mino	-12.0256
▁blank	-12.0259
▁Academ	-12.026
▁Mumbai	-12.026
▁Power	-12.026
▁Sweeney	-12.026
▁Youtube	-12.026
▁despair	-12.026
▁expedition	-12.026
▁fragment	-12.026
▁hierarch	-12.026
▁nhộn	-12.026
▁pandemic	-12.026
▁pharmaceutical	-12.026
▁smiling	-12.026
▁spectacular	-12.026
▁testosterone	-12.026
▁unemploy	-12.026
▁unprecedented	-12.026
▁Sáng	-12.026
▁ubiquitous	-12.026
▁1996	-12.026
▁naked	-12.026
▁reinvent	-12.026
▁veteran	-12.026
▁ôtô	-12.026
▁Egyptian	-12.026
▁prosperity	-12.026
▁Grace	-12.0261
▁refrigerator	-12.0261
▁Fox	-12.0261
▁banjo	-12.0261
▁artwork	-12.0262
▁geek	-12.0262
▁embodi	-12.0262
▁rốt	-12.0263
▁rethink	-12.0263
▁Palestinian	-12.0264
▁requirement	-12.0266
▁grandchild	-12.0266
▁Cuba	-12.0266
▁tension	-12.0267
▁filmmaker	-12.0267
▁Beau	-12.0268
▁believ	-12.0268
▁vẩn	-12.0271
▁CAPTCHA	-12.0272
▁200,000	-12.0276
▁myceli	-12.028
▁enzyme	-12.0282
▁factories	-12.0284
▁Cal	-12.0284
▁makers	-12.0287
▁journal	-12.0289
▁crew	-12.0291
glasses	-12.0292
▁đòn	-12.0293
▁arise	-12.03
gal	-12.03
▁brush	-12.0303
▁youth	-12.0311
hiên	-12.0316
▁pit	-12.0316
▁Br	-12.0317
▁Clay	-12.0321
▁clay	-12.0322
▁Lib	-12.0323
12	-12.0341
▁gate	-12.0341
▁nuts	-12.0342
▁determin	-12.0347
itan	-12.0356
▁Cụ	-12.0359
fel	-12.0364
▁Stor	-12.0367
▁cube	-12.0368
▁ending	-12.037
▁meme	-12.0371
bule	-12.0371
▁upset	-12.0372
45	-12.0375
▁bon	-12.0385
▁singer	-12.039
rực	-12.0394
face	-12.0396
▁Romo	-12.0396
▁joint	-12.041
▁bra	-12.0418
▁enhance	-12.0427
▁Sand	-12.0429
▁Fin	-12.0438
pped	-12.0439
▁Vị	-12.0446
therland	-12.045
▁phốt	-12.0466
58	-12.048
erra	-12.0491
▁inject	-12.0497
▁fool	-12.0498
▁Sudden	-12.0498
▁Taylor	-12.0498
▁anticipate	-12.0498
▁strand	-12.0498
▁structural	-12.0498
▁recess	-12.0498
▁Alaska	-12.0498
▁watt	-12.0498
▁indicate	-12.0498
▁audio	-12.0498
▁lifespan	-12.0498
▁Jefferson	-12.0498
▁grandparents	-12.0498
▁skeptic	-12.0498
▁Half	-12.0498
▁aircraft	-12.0498
▁assignment	-12.0499
▁1994	-12.0499
▁Ireland	-12.0499
▁hanging	-12.0499
▁Put	-12.0499
▁rope	-12.0499
▁recall	-12.0499
▁Margar	-12.0499
▁strain	-12.0499
▁manipulate	-12.05
▁basket	-12.05
▁homework	-12.0501
▁impression	-12.0502
▁Đứ	-12.0502
▁neutral	-12.0504
▁accelerate	-12.0505
▁Christ	-12.0507
▁Northern	-12.0514
▁Sara	-12.0514
▁Lake	-12.0516
▁USD	-12.0516
▁SR	-12.0517
▁bồn	-12.0517
▁indoor	-12.0523
bert	-12.0524
▁Same	-12.053
version	-12.0531
▁lotter	-12.0533
▁stabilit	-12.0534
▁Law	-12.0537
▁healing	-12.0548
▁pháo	-12.0548
▁previously	-12.055
▁torture	-12.0551
some	-12.0555
▁Hoàng	-12.0557
▁terrorist	-12.0558
illa	-12.056
▁58	-12.0563
ain	-12.0566
▁dressed	-12.057
pan	-12.0571
▁shak	-12.0574
DP	-12.0578
▁rever	-12.0581
▁log	-12.0585
▁rhythm	-12.0585
pro	-12.0588
▁distribute	-12.0593
▁lega	-12.0594
▁Mah	-12.0596
▁34	-12.0597
▁pad	-12.0601
▁Gw	-12.0604
▁Pi	-12.061
ám	-12.0611
50	-12.0613
▁43	-12.0626
ington	-12.0628
sleep	-12.0636
space	-12.0636
▁prior	-12.0638
▁Islands	-12.0642
▁kit	-12.0642
hiếu	-12.0643
mat	-12.0644
hái	-12.0645
▁par	-12.0647
MA	-12.0658
▁shin	-12.066
▁tackle	-12.0661
,500	-12.0661
▁copie	-12.0662
can	-12.0671
▁mi	-12.0687
sol	-12.0688
▁bát	-12.069
▁Cair	-12.0693
val	-12.0694
▁archive	-12.0697
ẹ	-12.0701
▁Dub	-12.0703
tain	-12.0708
rum	-12.071
sky	-12.0714
▁muôn	-12.0725
▁integrat	-12.0731
▁disappoint	-12.0741
▁expansi	-12.0742
▁Beethoven	-12.0742
▁Mexican	-12.0742
▁amateur	-12.0742
▁automobile	-12.0742
▁bẩy	-12.0742
▁creator	-12.0742
▁glimpse	-12.0742
▁register	-12.0742
▁signature	-12.0742
▁terrifying	-12.0742
▁Ocean	-12.0742
▁bulb	-12.0742
▁compress	-12.0742
▁pancrea	-12.0742
▁valley	-12.0742
▁Technolog	-12.0742
▁insane	-12.0742
▁bathroom	-12.0742
▁Homo	-12.0742
▁flourish	-12.0742
▁unconscious	-12.0742
▁Ryan	-12.0742
▁backyard	-12.0742
▁Jewish	-12.0742
▁grasp	-12.0742
▁flaw	-12.0742
▁refine	-12.0742
▁44	-12.0742
▁Fire	-12.0743
au	-12.0743
▁troop	-12.0743
▁Đoạ	-12.0743
▁fragile	-12.0744
▁nerd	-12.0744
▁collaborator	-12.0744
▁Skyp	-12.0744
▁denial	-12.0744
▁virút	-12.0745
audi	-12.0746
▁Tunisia	-12.0746
▁dear	-12.0752
▁bump	-12.0754
▁highway	-12.0756
▁expose	-12.0757
▁marine	-12.0759
▁1.3	-12.076
corn	-12.0766
▁guard	-12.0768
▁shit	-12.0771
▁nã	-12.0777
▁mayor	-12.0778
▁lonel	-12.078
▁overwhelming	-12.0784
▁Meli	-12.0795
oid	-12.08
▁flexibl	-12.0803
▁storm	-12.0808
▁Social	-12.081
▁capitalis	-12.0826
▁Lot	-12.0827
▁nhí	-12.0828
iff	-12.083
▁180	-12.0836
▁arrow	-12.0837
alti	-12.0839
▁polar	-12.084
bye	-12.0844
▁ongoing	-12.0848
▁len	-12.0852
nhồi	-12.0853
▁arter	-12.086
▁Had	-12.0863
▁Sure	-12.0863
▁Ku	-12.0864
▁recogniz	-12.0881
zo	-12.0881
third	-12.0886
percent	-12.0886
▁se	-12.0897
▁logical	-12.0909
▁shower	-12.0912
▁slums	-12.0912
út	-12.0917
▁Brother	-12.0919
iếm	-12.0933
ndustrial	-12.0944
ban	-12.0945
.5	-12.0952
▁Ur	-12.0955
8	-12.0964
▁horizon	-12.0964
▁beating	-12.0968
▁tight	-12.0971
▁acquire	-12.0973
▁Stan	-12.098
oral	-12.0986
▁drag	-12.0987
▁retire	-12.0991
▁crystal	-12.0992
▁simultaneous	-12.0992
▁Craig	-12.0992
▁Himalaya	-12.0992
▁Lawrence	-12.0992
▁Mitchell	-12.0992
▁Nairobi	-12.0992
▁phthalate	-12.0992
▁Europa	-12.0992
▁storytelling	-12.0992
▁uniform	-12.0992
▁snake	-12.0992
▁stereotype	-12.0992
▁initiative	-12.0992
▁Shang	-12.0992
▁Spring	-12.0992
▁pipeline	-12.0992
▁hybrid	-12.0992
▁contemporar	-12.0992
▁McDonald	-12.0992
▁Lesterland	-12.0992
▁Compan	-12.0992
▁Jew	-12.0992
▁1975	-12.0992
▁tropic	-12.0993
▁crush	-12.0993
▁geometr	-12.0993
▁proposal	-12.0994
▁appearance	-12.0994
▁portion	-12.0994
▁burie	-12.0996
▁rice	-12.0997
▁workplace	-12.0997
▁confirm	-12.0999
▁manual	-12.1
▁interconnected	-12.1003
▁charming	-12.1005
▁convey	-12.1008
▁fires	-12.1008
▁xảo	-12.1011
▁devastating	-12.1011
▁Ann	-12.1012
▁bowl	-12.1013
uần	-12.1017
▁tick	-12.1018
rcul	-12.1019
▁specialist	-12.1019
▁endless	-12.102
▁server	-12.102
▁Nhiệ	-12.1021
gli	-12.1024
▁satisfy	-12.1026
▁Mont	-12.1031
▁cur	-12.1035
▁offering	-12.1039
ạ	-12.1045
▁owner	-12.1045
oma	-12.1046
enix	-12.1046
▁announc	-12.1067
rah	-12.1067
mee	-12.1067
rug	-12.1071
▁leverage	-12.1078
▁ngươ	-12.1079
raham	-12.1086
atory	-12.1091
fin	-12.1096
row	-12.1097
▁sir	-12.1099
ruce	-12.1102
mart	-12.1129
▁commit	-12.113
▁mechanic	-12.1138
load	-12.1145
drive	-12.1146
48	-12.1147
lon	-12.1154
love	-12.1156
▁democrac	-12.1162
▁Vương	-12.1163
▁fanc	-12.1165
cut	-12.1177
Man	-12.1185
85	-12.119
▁52	-12.1193
▁âu	-12.1196
ased	-12.1205
▁xơ	-12.1206
hức	-12.1206
rma	-12.1211
▁Qa	-12.122
▁developer	-12.1222
▁sw	-12.1244
▁ideolog	-12.1245
▁recommend	-12.1247
▁CNN	-12.1248
▁Catholic	-12.1248
▁Swiss	-12.1248
▁commodit	-12.1248
▁endanger	-12.1248
▁garbage	-12.1248
▁guerrilla	-12.1248
▁jaw	-12.1248
▁legislati	-12.1248
▁membrane	-12.1248
▁transmission	-12.1248
▁fraction	-12.1248
▁Court	-12.1248
▁Rives	-12.1248
▁juice	-12.1248
▁pride	-12.1249
▁USA	-12.1249
▁poly	-12.1249
▁dough	-12.125
▁ego	-12.125
▁sail	-12.1251
▁Dick	-12.1254
ept	-12.1254
▁Bọn	-12.1255
▁tiger	-12.1256
▁freez	-12.1257
▁Peru	-12.1261
nan	-12.1262
▁strategic	-12.1263
▁update	-12.1263
away	-12.1264
iza	-12.1266
▁sùng	-12.1267
▁bự	-12.1267
▁annual	-12.1267
▁Case	-12.1276
▁hub	-12.1276
▁Novem	-12.1281
▁trinh	-12.1284
▁Gall	-12.1285
▁Acc	-12.1288
▁Thí	-12.1296
olation	-12.1302
▁Est	-12.1304
pho	-12.1307
rải	-12.1317
▁vari	-12.1324
▁washing	-12.1333
▁bored	-12.1342
Ex	-12.1354
▁lượ	-12.1355
iro	-12.1357
▁mic	-12.1362
▁decrease	-12.1362
▁30-	-12.1365
▁burned	-12.1368
lick	-12.1373
▁crows	-12.138
ola	-12.1394
ira	-12.1394
▁Asian	-12.1405
three	-12.1406
▁automat	-12.1409
racing	-12.1409
▁bổng	-12.1409
▁Dạ	-12.1409
▁CC	-12.1414
iego	-12.1426
▁typ	-12.1427
▁Harl	-12.143
▁cod	-12.1434
▁41	-12.1438
▁Cố	-12.144
▁20-	-12.1446
iệu	-12.1446
▁160	-12.145
▁nhăn	-12.1452
▁Ber	-12.1462
▁rụ	-12.1464
▁neuro	-12.1466
▁Mau	-12.1469
orse	-12.1478
▁dì	-12.1484
▁translat	-12.1485
▁Sur	-12.1489
▁flowing	-12.1491
lium	-12.1501
▁Arabi	-12.1505
▁đọ	-12.1507
▁Bertie	-12.1511
▁Cambodia	-12.1511
▁Guinea	-12.1511
▁Oregon	-12.1511
▁asteroid	-12.1511
▁cylinder	-12.1511
▁elevator	-12.1511
▁excuse	-12.1511
▁grocer	-12.1511
▁harbor	-12.1511
▁mathematician	-12.1511
▁shrimp	-12.1511
▁sponsor	-12.1511
▁contagio	-12.1511
▁oyster	-12.1511
▁Ngoạ	-12.1511
▁cotton	-12.1511
▁towel	-12.1511
▁preference	-12.1512
▁syndrome	-12.1512
▁spray	-12.1512
▁sensation	-12.1512
▁static	-12.1512
▁Nghị	-12.1513
▁Coast	-12.1513
▁lean	-12.1513
▁silk	-12.1513
ouver	-12.1514
▁calm	-12.1514
▁Color	-12.1514
▁Head	-12.1514
▁replacement	-12.1514
▁sake	-12.1514
▁Food	-12.1514
▁passive	-12.1515
▁rổ	-12.1517
▁Walker	-12.1518
▁disconnect	-12.1519
abad	-12.1519
▁Abu	-12.1519
▁Cape	-12.1519
▁nitri	-12.152
▁enterprise	-12.1522
▁lê	-12.1522
▁Rem	-12.1523
fus	-12.1529
▁millimeter	-12.153
eau	-12.1532
▁CL	-12.1535
▁Jami	-12.1536
▁sin	-12.1547
▁Mall	-12.1553
▁Đan	-12.1554
▁impress	-12.1554
▁historic	-12.1558
▁bô	-12.156
▁tơ	-12.1562
rin	-12.1573
uả	-12.1576
ibera	-12.1581
▁Harr	-12.1586
▁Pra	-12.1592
▁Rand	-12.1593
▁AV	-12.1595
▁shirt	-12.1596
▁founder	-12.1601
▁prim	-12.1602
▁consum	-12.1611
▁corporations	-12.1611
hel	-12.1622
▁Thị	-12.1623
▁climbing	-12.1624
▁secrets	-12.1628
▁nuố	-12.1631
ittle	-12.1634
press	-12.1635
▁tua	-12.1644
▁khiếu	-12.165
▁Aye	-12.1654
▁Rob	-12.1667
▁199	-12.1669
bell	-12.1676
▁125	-12.1678
ulate	-12.1681
▁tone	-12.1685
pos	-12.1689
▁Thú	-12.1689
cost	-12.1695
engineering	-12.1698
phy	-12.1701
▁Bur	-12.1703
▁documentar	-12.1704
▁antibod	-12.1707
▁ethnic	-12.1711
BI	-12.1716
▁independen	-12.1718
▁Sta	-12.172
var	-12.1721
▁architectur	-12.1732
▁overwhelm	-12.1735
ưng	-12.1735
▁Tasmania	-12.1736
▁Bay	-12.1737
▁assum	-12.1742
▁hán	-12.1742
▁Lim	-12.1745
▁Kat	-12.1749
▁chay	-12.175
▁hon	-12.1752
▁fe	-12.1753
▁Sai	-12.1766
▁paradox	-12.1766
▁assembl	-12.1769
▁supplie	-12.1774
▁distract	-12.1778
▁Jenn	-12.1778
▁philanthrop	-12.1778
urveillance	-12.1782
▁FDA	-12.1782
▁Stefan	-12.1782
▁accumulate	-12.1782
▁adolescent	-12.1782
▁drown	-12.1782
▁immense	-12.1782
▁neuroscientist	-12.1782
▁potato	-12.1782
▁receptor	-12.1782
▁rặ	-12.1782
▁serotonin	-12.1782
▁spontaneous	-12.1782
▁trajector	-12.1782
▁genuine	-12.1782
▁steer	-12.1782
▁accus	-12.1782
▁fence	-12.1782
▁reproduce	-12.1782
▁export	-12.1782
▁microRNA	-12.1782
▁valve	-12.1782
▁mysterious	-12.1782
▁Lord	-12.1782
▁mutual	-12.1782
▁texture	-12.1782
▁salar	-12.1782
▁thylacine	-12.1782
▁renewable	-12.1782
▁Motor	-12.1782
▁subway	-12.1783
▁Media	-12.1783
▁aggressive	-12.1784
▁inmate	-12.1785
▁intent	-12.1785
▁sew	-12.1786
▁span	-12.1786
eye	-12.1787
▁Doha	-12.1788
▁Open	-12.1788
▁12,000	-12.1789
▁blogger	-12.1795
▁autist	-12.1796
person	-12.1797
▁cẩu	-12.1803
▁survived	-12.1805
▁mono	-12.1816
▁Bra	-12.1817
▁gods	-12.1821
▁Nguồ	-12.1821
▁boot	-12.1826
▁khe	-12.1828
▁News	-12.1829
▁analyz	-12.1833
▁Thai	-12.1834
hưng	-12.1834
witz	-12.1838
▁association	-12.1851
▁rose	-12.1854
▁via	-12.1855
▁eliminate	-12.1856
▁candy	-12.1866
▁ơ	-12.1868
▁occasion	-12.1868
▁Val	-12.187
▁cooperate	-12.1874
▁sanit	-12.1874
▁bùn	-12.1882
▁Frankl	-12.1888
▁terroris	-12.189
▁Ell	-12.1892
▁ironic	-12.1895
▁Shi	-12.1895
▁TS	-12.1899
▁ướ	-12.1923
▁Luc	-12.1926
▁cai	-12.1928
▁goat	-12.194
rt	-12.195
word	-12.1951
profit	-12.1953
social	-12.1954
gger	-12.1956
controll	-12.1964
▁beam	-12.1965
▁reli	-12.1965
▁unhapp	-12.197
▁diploma	-12.1994
▁Tob	-12.1994
▁Chữ	-12.2001
▁yo	-12.2003
pping	-12.2021
▁Mag	-12.2032
▁cosm	-12.2032
ibo	-12.2038
reasure	-12.2049
▁khoán	-12.205
▁Đàn	-12.2051
▁teenage	-12.2052
▁lử	-12.2054
▁Profess	-12.2055
▁delight	-12.2056
▁wir	-12.2058
▁excellen	-12.2058
25	-12.2059
▁leaf	-12.2059
▁transcend	-12.2059
▁intimate	-12.2059
▁Katrina	-12.2059
▁Liberia	-12.2059
▁Medicine	-12.2059
▁PowerPoint	-12.2059
▁Venezuela	-12.2059
▁divorce	-12.2059
▁inherit	-12.2059
▁primitive	-12.2059
▁scaffold	-12.2059
▁sweep	-12.2059
▁terrain	-12.2059
▁threshold	-12.2059
▁sacred	-12.2059
▁Nichol	-12.2059
▁dawn	-12.2059
▁gallon	-12.2059
▁impulse	-12.2059
▁strict	-12.2059
▁Oakland	-12.2059
▁cyber	-12.2059
▁Gaza	-12.206
▁1997	-12.206
▁stamp	-12.206
▁cruel	-12.206
▁FBI	-12.206
▁Republican	-12.206
▁Gehr	-12.206
▁viral	-12.206
▁Cloud	-12.206
▁courageous	-12.206
moud	-12.2061
▁1992	-12.2061
▁irre	-12.2061
▁Light	-12.2061
▁sỏi	-12.2061
▁friendship	-12.2062
▁neck	-12.2062
▁hometown	-12.2062
▁elementary	-12.2062
▁investigation	-12.2062
▁detection	-12.2065
▁blindness	-12.2065
▁Organiz	-12.2066
▁reflection	-12.2067
▁boost	-12.2068
▁interrupt	-12.2072
hire	-12.2072
▁Phí	-12.2072
▁Tel	-12.2073
▁Histor	-12.2073
rate	-12.2074
▁drought	-12.2075
▁embrac	-12.2077
BA	-12.2083
▁methan	-12.2084
▁purchase	-12.2087
▁tho	-12.2087
▁payment	-12.2088
▁embarrassing	-12.2089
▁soap	-12.209
▁pipe	-12.2091
▁Moz	-12.2094
▁bombs	-12.2094
▁lội	-12.2094
▁destiny	-12.2095
▁lượn	-12.2106
▁Grant	-12.2107
▁explode	-12.2107
▁Play	-12.2108
▁Low	-12.2122
▁bucks	-12.2127
rez	-12.2127
▁stranger	-12.2135
huyến	-12.2137
wandering	-12.2138
▁thỉ	-12.2144
▁Eco	-12.2148
▁Mario	-12.2152
▁77	-12.2153
▁included	-12.2154
titude	-12.2158
▁ven	-12.216
▁xài	-12.2165
▁Pr	-12.2168
▁Alic	-12.2169
▁dumb	-12.2179
▁reliabl	-12.2181
▁donation	-12.2182
▁rank	-12.219
page	-12.2192
▁Lea	-12.2193
bular	-12.2194
▁chê	-12.2209
▁Brit	-12.2213
▁institutional	-12.2223
▁socially	-12.2224
interest	-12.2239
&	-12.2239
bốt	-12.2241
fold	-12.2249
AD	-12.2258
▁Broad	-12.2259
hol	-12.2269
▁passe	-12.2302
bin	-12.2321
▁starv	-12.2322
trong	-12.2328
▁Pier	-12.2329
▁blend	-12.2333
ough	-12.2343
▁Fibonacci	-12.2345
▁Stirling	-12.2345
▁criteri	-12.2345
▁explicit	-12.2345
▁genocide	-12.2345
▁gorgeous	-12.2345
▁jewel	-12.2345
▁magnificent	-12.2345
▁rehabilitati	-12.2345
▁swallow	-12.2345
▁Potter	-12.2345
▁marvel	-12.2345
▁sibling	-12.2345
▁Keep	-12.2345
▁fetus	-12.2345
▁regenerate	-12.2345
▁Saturn	-12.2345
▁Nhạc	-12.2345
▁permission	-12.2345
▁drift	-12.2345
▁mustache	-12.2345
▁intensive	-12.2345
▁canvas	-12.2346
▁Gord	-12.2346
▁altitude	-12.2346
▁banana	-12.2346
▁Norman	-12.2347
▁interpretation	-12.2347
▁vocal	-12.2347
▁odor	-12.2347
▁bỏng	-12.235
▁immortal	-12.235
▁manner	-12.235
▁campus	-12.2351
▁advocate	-12.2352
▁marry	-12.2353
▁Coch	-12.2355
▁contrar	-12.2356
▁accelerati	-12.2358
▁linear	-12.2359
▁nhược	-12.2361
▁controversial	-12.2364
▁magn	-12.2364
▁competitive	-12.2365
▁consist	-12.2367
ubble	-12.2367
uyền	-12.2367
▁elegant	-12.2368
▁disturbing	-12.237
▁Bảy	-12.2371
▁Kle	-12.2371
hran	-12.2377
▁begu	-12.238
▁lách	-12.2381
▁cliff	-12.2387
▁bush	-12.2388
seas	-12.2388
iện	-12.239
▁tide	-12.2393
▁Aust	-12.2393
▁chess	-12.2394
rag	-12.2395
osity	-12.2395
▁swing	-12.2395
▁nuối	-12.2395
ight	-12.2397
CO	-12.2397
▁upside	-12.2408
▁hở	-12.2413
▁lim	-12.2416
gill	-12.2422
axit	-12.2429
▁flipp	-12.2433
ska	-12.2436
▁thà	-12.2442
▁Kong	-12.2448
▁Đạ	-12.2449
iki	-12.245
▁57	-12.2451
ament	-12.2454
▁fee	-12.2458
▁del	-12.2464
▁replac	-12.2464
▁Whit	-12.2465
▁Juan	-12.2466
▁reporter	-12.2468
▁terror	-12.2471
lbert	-12.2477
▁UCL	-12.2483
▁pal	-12.249
▁mạ	-12.249
▁khốn	-12.249
RG	-12.2491
ef	-12.2492
▁Mel	-12.2501
chan	-12.2506
▁nắp	-12.2507
keo	-12.2507
▁proven	-12.2513
ướt	-12.2516
▁Anna	-12.2519
sight	-12.2522
▁rocks	-12.2522
▁examine	-12.2523
ovo	-12.2524
▁junk	-12.2527
rhythm	-12.2532
AA	-12.2533
plus	-12.2533
weight	-12.2533
second	-12.2533
▁đun	-12.2551
▁shy	-12.2556
opper	-12.256
▁chốn	-12.2565
huma	-12.2567
▁deni	-12.2571
▁Ror	-12.2573
▁dang	-12.2576
gentleman	-12.2577
▁awe	-12.2584
▁rà	-12.2589
▁Victoria	-12.2593
acre	-12.2594
tact	-12.2594
▁ambitio	-12.2595
▁customiz	-12.2612
▁Turn	-12.2613
ED	-12.2616
▁tele	-12.2629
▁Kan	-12.2629
▁custom	-12.2629
insky	-12.263
▁Radio	-12.2637
▁corrupt	-12.2638
▁Hoạ	-12.2638
▁Mộc	-12.2639
▁Pantheon	-12.2639
▁Pepsi	-12.2639
▁Saturday	-12.2639
▁chuộng	-12.2639
▁cocktail	-12.2639
▁creep	-12.2639
▁eradicate	-12.2639
▁gluco	-12.2639
▁investigate	-12.2639
▁obtain	-12.2639
▁temple	-12.2639
▁vacuum	-12.2639
▁vacation	-12.2639
▁Matthew	-12.2639
▁euro	-12.2639
Barack	-12.2639
▁Bonnie	-12.2639
▁puppet	-12.2639
▁monster	-12.2639
▁MoMA	-12.2639
▁proposition	-12.2639
▁tomato	-12.2639
▁girlfriend	-12.2639
▁competi	-12.2639
▁bombsight	-12.2639
▁heritage	-12.2639
▁redesign	-12.2639
▁spare	-12.2639
▁loving	-12.264
▁improvisation	-12.264
▁Wiki	-12.264
▁SOPA	-12.264
▁honey	-12.264
▁venture	-12.2641
▁stake	-12.2641
▁magician	-12.2641
▁negotiation	-12.2642
ase	-12.2642
▁bleed	-12.2642
▁Yale	-12.2642
▁dependenc	-12.2642
▁dragg	-12.2643
▁shout	-12.2643
▁1800	-12.2644
pler	-12.2644
▁authors	-12.2644
-2	-12.2644
▁frontier	-12.2645
▁Rather	-12.2646
▁dời	-12.2647
▁xẻ	-12.2649
▁ru	-12.265
omi	-12.265
▁punch	-12.265
▁1,500	-12.265
▁Alf	-12.2651
▁quăng	-12.2651
▁Ala	-12.2651
▁rear	-12.2652
▁AR	-12.2652
▁confine	-12.2654
▁Gayl	-12.2654
▁deepest	-12.2654
▁ngoạn	-12.2655
▁guns	-12.2655
▁ngào	-12.2658
▁Tara	-12.2659
▁momentum	-12.266
▁astronomer	-12.2664
lapse	-12.2667
80	-12.2667
▁horizontal	-12.2672
▁nứ	-12.2672
▁ngả	-12.2672
erence	-12.2677
▁resolution	-12.2679
ôn	-12.268
▁cua	-12.268
inal	-12.2681
▁Neanderthals	-12.2682
aged	-12.2682
▁lấn	-12.2683
▁degrad	-12.2684
▁cò	-12.2685
▁Az	-12.2689
▁quantit	-12.2691
viv	-12.2692
▁Trí	-12.27
▁Korean	-12.2708
▁khuất	-12.2711
▁foods	-12.2716
57	-12.2717
▁z	-12.2726
▁Băng	-12.2729
▁mar	-12.2731
▁sale	-12.2732
▁surgeons	-12.2737
aca	-12.2747
uthern	-12.2748
unch	-12.2749
cha	-12.275
▁heavi	-12.2752
bian	-12.2762
ologist	-12.2769
pel	-12.2776
illi	-12.2781
▁Kare	-12.2783
▁critic	-12.2815
▁Gree	-12.2822
▁Gand	-12.2824
aving	-12.2824
▁vác	-12.2828
▁Walk	-12.2834
stock	-12.2839
enture	-12.2843
▁readers	-12.2849
aware	-12.2868
▁Medica	-12.2869
▁cope	-12.2874
arry	-12.2874
perm	-12.2879
▁cue	-12.2884
SG	-12.2891
▁realm	-12.2895
▁integr	-12.2899
assembl	-12.2907
rill	-12.2907
▁Williams	-12.2918
▁controvers	-12.2934
▁phớ	-12.2936
cker	-12.2937
▁Seven	-12.294
▁dictator	-12.2942
▁democratiz	-12.2942
▁Chernobyl	-12.2942
▁Goliath	-12.2942
▁astronaut	-12.2942
▁caregiver	-12.2942
▁cắn	-12.2942
▁deliberate	-12.2942
▁expense	-12.2942
▁graffiti	-12.2942
▁helmet	-12.2942
▁humanitarian	-12.2942
▁remix	-12.2942
▁syringe	-12.2942
▁warrior	-12.2942
▁minimum	-12.2942
▁progeri	-12.2942
▁scheme	-12.2942
▁ultrasound	-12.2942
▁neocort	-12.2942
▁Caltech	-12.2942
▁minus	-12.2942
▁Michel	-12.2942
▁reclaim	-12.2942
▁exposure	-12.2942
▁triangle	-12.2942
▁chronic	-12.2943
▁Italian	-12.2943
▁oven	-12.2943
▁batteries	-12.2943
▁galler	-12.2943
▁generic	-12.2944
▁Milk	-12.2944
▁vibration	-12.2944
▁oxi	-12.2944
▁veil	-12.2944
▁fireflies	-12.2944
▁grabb	-12.2944
▁compassionate	-12.2944
▁Meyer	-12.2945
▁progressive	-12.2945
▁penis	-12.2945
▁Pink	-12.2945
▁chuối	-12.2945
▁loose	-12.2945
rr	-12.2945
▁adaptation	-12.2946
ope	-12.2948
▁downtown	-12.2948
▁Gô	-12.2948
▁só	-12.2949
▁cartoonist	-12.2949
▁lobe	-12.295
▁Bil	-12.2951
▁educator	-12.2951
▁Shar	-12.2951
ried	-12.2951
▁khử	-12.2953
▁Kí	-12.2954
cratch	-12.2955
▁administrati	-12.2957
▁stunning	-12.2959
▁Shir	-12.2964
eek	-12.2968
▁deaf	-12.297
▁Fred	-12.2971
▁tạc	-12.2973
▁helpless	-12.2975
▁900	-12.2975
▁hardest	-12.2978
boo	-12.298
▁realistic	-12.298
▁shap	-12.2983
▁ngơi	-12.2985
ruyền	-12.299
▁thỏ	-12.2992
▁Arabia	-12.2996
▁dare	-12.3
▁tile	-12.3003
▁align	-12.3006
▁Wood	-12.3006
tler	-12.3007
▁meta	-12.301
▁gase	-12.3013
▁vù	-12.3017
ju	-12.3017
mét	-12.3024
▁Russe	-12.3025
▁relation	-12.3029
▁Mira	-12.304
▁Thuậ	-12.3042
▁ỏi	-12.3046
▁collaborate	-12.3048
▁camps	-12.3053
urg	-12.3055
▁circulat	-12.3057
▁preserv	-12.306
▁47	-12.3066
▁cookie	-12.307
▁Para	-12.3072
▁110	-12.3075
▁Job	-12.3075
▁nhát	-12.308
▁provider	-12.3081
▁Apr	-12.3087
▁kiế	-12.3091
iel	-12.3095
▁radi	-12.3099
▁Inter	-12.31
▁anatom	-12.3101
ake	-12.3102
▁assemble	-12.3107
▁wage	-12.3107
▁Woo	-12.3115
▁scare	-12.3138
MG	-12.3148
world	-12.3149
master	-12.3153
aging	-12.3154
bean	-12.3154
▁chemist	-12.3161
▁jumped	-12.3169
▁Cap	-12.3174
arter	-12.3178
▁staring	-12.3181
▁cớ	-12.3187
▁195	-12.3189
▁abundan	-12.319
▁practic	-12.3191
erald	-12.3193
▁Diet	-12.3194
▁trệ	-12.3198
▁tú	-12.3203
▁hut	-12.3204
iễu	-12.3205
▁alarm	-12.3207
▁jam	-12.3207
▁má	-12.3221
▁tớ	-12.3224
▁continuous	-12.3227
rity	-12.3228
▁360	-12.323
▁bust	-12.3232
óng	-12.3235
▁badly	-12.3237
▁god	-12.3238
▁15-	-12.3243
▁toys	-12.3244
▁Under	-12.3248
▁Rub	-12.3248
▁convict	-12.3252
lihood	-12.3253
▁Nico	-12.3254
ambia	-12.3254
▁scholar	-12.3254
▁champion	-12.3254
▁deforest	-12.3255
▁Absolute	-12.3255
▁Guatemala	-12.3255
▁Odysse	-12.3255
▁Office	-12.3255
▁Tahrir	-12.3255
▁appreciati	-12.3255
▁authoritarian	-12.3255
▁blob	-12.3255
▁correlation	-12.3255
▁elevate	-12.3255
▁encouraging	-12.3255
▁episode	-12.3255
▁leopard	-12.3255
▁striking	-12.3255
▁visceral	-12.3255
▁Business	-12.3255
▁envelope	-12.3255
▁Oscar	-12.3255
▁Mountain	-12.3255
▁Euro	-12.3255
▁Small	-12.3255
▁occupy	-12.3255
▁thốn	-12.3255
▁drunk	-12.3255
▁inflation	-12.3255
▁destination	-12.3255
▁tolerance	-12.3255
▁shepherd	-12.3255
▁meditation	-12.3256
▁shore	-12.3256
▁mineral	-12.3256
▁addiction	-12.3256
▁civilian	-12.3256
▁Hope	-12.3257
▁modest	-12.3257
▁đạm	-12.3257
▁Hanna	-12.3257
▁wow	-12.3257
.8	-12.3259
▁assign	-12.3259
▁Year	-12.326
▁metric	-12.326
▁Brand	-12.326
▁chạp	-12.326
witzer	-12.326
▁toast	-12.3261
▁div	-12.3261
untu	-12.3261
▁TEDWomen	-12.3261
▁Stop	-12.3263
▁hint	-12.3263
▁philosophical	-12.3263
▁fatal	-12.3264
▁intens	-12.3266
▁Helen	-12.3266
▁brick	-12.3266
wire	-12.3267
▁pointed	-12.3268
▁Pretty	-12.3269
94	-12.327
▁Start	-12.3271
▁Building	-12.3272
▁eco	-12.3273
▁interior	-12.328
▁trap	-12.3281
▁Sebastia	-12.3281
makers	-12.3283
▁summarize	-12.329
▁propos	-12.3295
▁spreads	-12.3296
▁Esse	-12.3297
▁suố	-12.3297
▁cọc	-12.3298
▁pleasant	-12.3304
ancy	-12.3316
▁formal	-12.3318
▁phả	-12.3319
▁axe	-12.3325
DR	-12.3326
▁bless	-12.3326
▁Lis	-12.3328
▁beef	-12.333
castle	-12.3337
▁PC	-12.3341
ause	-12.3343
▁tar	-12.3347
ện	-12.335
▁nhọ	-12.3351
▁solo	-12.3351
▁monitoring	-12.3351
▁yards	-12.3364
▁slum	-12.3365
ote	-12.3367
ander	-12.3368
▁Col	-12.3371
ìm	-12.3373
▁fundrais	-12.3376
▁12-	-12.3378
▁hoi	-12.338
▁tước	-12.3382
▁transmitt	-12.3382
▁bull	-12.3382
▁maker	-12.339
gestion	-12.3398
onia	-12.3399
▁Justin	-12.34
ear	-12.3406
nim	-12.3406
ẹp	-12.3408
▁450	-12.3409
▁vã	-12.341
ilia	-12.341
▁Khác	-12.341
▁Billy	-12.3412
▁Down	-12.3416
▁seeming	-12.3416
ways	-12.3419
▁cleaner	-12.3422
nick	-12.3434
▁worrying	-12.3447
▁ward	-12.3448
▁minorit	-12.3451
60	-12.3451
▁Dal	-12.3457
▁Gri	-12.3459
style	-12.346
OS	-12.3467
ỏi	-12.3468
▁ngạ	-12.3476
▁Cà	-12.3481
▁Say	-12.349
▁eliminat	-12.3491
rô	-12.3493
▁Mathematica	-12.3504
ome	-12.3508
19	-12.3512
▁luâ	-12.3522
và	-12.3522
▁phàn	-12.3524
▁regulate	-12.3529
hou	-12.3531
▁Leo	-12.3531
pod	-12.3537
▁hoo	-12.3541
ID	-12.3541
▁summar	-12.3542
▁Fer	-12.3548
▁MR	-12.3551
▁cor	-12.3557
▁gener	-12.356
▁entit	-12.3563
▁ủ	-12.3571
▁cello	-12.3572
ult	-12.3573
▁lit	-12.3573
▁investigati	-12.3574
▁autonom	-12.3577
nformation	-12.3577
▁Similar	-12.3577
▁commission	-12.3577
▁1989	-12.3577
▁PIPA	-12.3577
▁Tennessee	-12.3577
▁empire	-12.3577
▁famine	-12.3577
▁inhibit	-12.3577
▁irrational	-12.3577
▁nộp	-12.3577
▁scrap	-12.3577
▁secular	-12.3577
▁stomach	-12.3577
▁territor	-12.3577
▁transistor	-12.3577
▁Bloom	-12.3577
▁Glass	-12.3577
▁storyteller	-12.3577
▁Anthon	-12.3577
▁Type	-12.3577
▁Video	-12.3577
▁distort	-12.3577
▁vivid	-12.3577
▁Natural	-12.3577
▁Studio	-12.3577
▁enforce	-12.3577
▁Ariel	-12.3577
▁Nazi	-12.3577
▁spike	-12.3578
▁Brenda	-12.3578
▁Wonder	-12.3578
▁feminist	-12.3578
▁chamber	-12.3578
▁Rich	-12.3578
ẳn	-12.3579
▁xốp	-12.3579
▁Dennis	-12.3579
▁negotiate	-12.358
▁Online	-12.358
jev	-12.358
▁obsession	-12.3581
▁MBA	-12.3582
iley	-12.3582
▁coverage	-12.3583
▁Serge	-12.3583
▁selfish	-12.3584
▁bệ	-12.3584
▁Canadian	-12.3586
▁Stein	-12.3587
▁realization	-12.3592
▁MP	-12.3592
▁harmon	-12.3593
▁intrinsic	-12.3594
▁dào	-12.3594
▁Biospher	-12.3595
ption	-12.3597
▁broc	-12.3598
▁Giữ	-12.3601
▁cla	-12.3601
lmost	-12.3604
▁Max	-12.3606
▁Turns	-12.3606
▁daf	-12.3607
▁nonviolen	-12.3609
▁Pass	-12.3611
▁phenomena	-12.3613
▁Angel	-12.3613
▁aunt	-12.3614
▁Rocket	-12.3614
▁Intel	-12.3616
ops	-12.3619
▁thừng	-12.362
core	-12.3622
▁môt	-12.3622
▁disability	-12.3622
rani	-12.3622
▁bask	-12.3623
▁opens	-12.3625
▁corti	-12.3626
▁Agn	-12.363
▁discoveries	-12.363
▁referr	-12.3637
▁stimulate	-12.3638
ulation	-12.3644
▁entry	-12.3646
active	-12.3655
,200	-12.3656
ental	-12.3656
▁Treat	-12.366
▁Emma	-12.3661
▁trơ	-12.3665
▁chimp	-12.3667
▁Cla	-12.3672
▁manufacturer	-12.3672
dol	-12.3673
▁regenerati	-12.3675
▁Bat	-12.3682
▁Lester	-12.3685
▁unw	-12.3689
▁fuse	-12.3695
▁mat	-12.3696
▁Phil	-12.371
▁đan	-12.3719
▁sta	-12.3723
▁Gra	-12.3724
õi	-12.3726
▁Trò	-12.3726
▁Lama	-12.3729
▁branch	-12.3737
▁jar	-12.3741
▁cưỡi	-12.3742
▁deposit	-12.3743
cho	-12.3743
▁switched	-12.3744
▁Pre	-12.3744
▁combin	-12.3755
▁ả	-12.3755
▁Row	-12.3767
kar	-12.3768
▁nucle	-12.3769
port	-12.3774
ado	-12.3775
▁Tor	-12.3776
▁Robbi	-12.3783
▁oxide	-12.3786
ệch	-12.379
craft	-12.3795
▁78	-12.3796
▁gán	-12.3798
▁approache	-12.3801
▁bỉ	-12.3801
shirt	-12.3803
income	-12.3805
real	-12.3808
▁visualize	-12.3828
ME	-12.383
▁xen	-12.3835
▁cu	-12.3836
▁significan	-12.3847
▁valid	-12.3852
▁Maria	-12.3854
▁recycle	-12.3857
fire	-12.386
election	-12.3864
nel	-12.3864
ara	-12.3866
▁comp	-12.3872
▁ngó	-12.3874
▁Kay	-12.3876
bot	-12.3891
.6	-12.39
▁mines	-12.3903
▁communicati	-12.3907
▁voca	-12.3908
▁compute	-12.3908
▁panic	-12.3909
▁Journal	-12.391
▁forgive	-12.391
▁Know	-12.391
▁substantial	-12.3911
upreme	-12.3911
▁Arkansas	-12.3911
▁Hiroshi	-12.3911
▁Hopkins	-12.3911
▁Orleans	-12.3911
▁Pennsylvania	-12.3911
▁Sleep	-12.3911
▁Telescope	-12.3911
▁ambulance	-12.3911
▁executive	-12.3911
▁fantasy	-12.3911
▁historian	-12.3911
▁introvert	-12.3911
▁janitor	-12.3911
▁shatter	-12.3911
▁simulate	-12.3911
▁tribal	-12.3911
▁yeast	-12.3911
▁Cooper	-12.3911
▁Toraja	-12.3911
▁jellyfish	-12.3911
▁theoretical	-12.3911
▁nightmare	-12.3911
▁salad	-12.3911
▁multiply	-12.3911
▁Still	-12.3911
▁kilogram	-12.3911
▁stabilize	-12.3911
▁polymer	-12.3911
RNA	-12.3911
▁wo	-12.3911
▁Report	-12.3911
▁libert	-12.3911
▁Libya	-12.3911
▁Garden	-12.3911
▁gamma	-12.3911
▁Ahmed	-12.3911
▁premise	-12.3911
▁Mahat	-12.3911
▁transit	-12.3911
ARPA	-12.3911
▁Jake	-12.3912
▁selective	-12.3912
▁unfold	-12.3912
▁Carib	-12.3912
▁preparation	-12.3912
▁Malco	-12.3912
▁Master	-12.3912
▁xị	-12.3913
▁vỉ	-12.3913
▁blogg	-12.3913
▁invitation	-12.3913
▁Twenty	-12.3913
▁Brook	-12.3913
▁captain	-12.3913
▁distinction	-12.3914
▁Hmm	-12.3914
▁translator	-12.3914
▁descend	-12.3914
▁Try	-12.3915
▁masse	-12.3916
▁deck	-12.3917
▁frustration	-12.3917
▁naive	-12.3917
▁therapist	-12.3918
▁Alto	-12.3919
▁Minist	-12.3919
▁Miller	-12.3921
▁arc	-12.3921
▁60,000	-12.3923
▁Tru	-12.3925
▁mác	-12.3926
▁knife	-12.3927
tangible	-12.393
▁pond	-12.3931
▁vary	-12.3932
▁84	-12.3932
▁bì	-12.3933
▁extinction	-12.3934
▁carrot	-12.3936
▁INC	-12.394
lept	-12.394
▁mesh	-12.394
oà	-12.3941
▁hao	-12.3942
▁Roman	-12.3943
▁semi	-12.3944
▁medi	-12.3945
15	-12.3946
own	-12.3948
▁tactic	-12.3948
▁Plan	-12.3949
▁guid	-12.395
▁gắt	-12.3951
▁calo	-12.3954
otto	-12.3959
NG	-12.3962
▁Burn	-12.3969
▁useless	-12.3971
▁Main	-12.3973
▁optical	-12.3976
▁processor	-12.398
Yêu	-12.3982
▁Trice	-12.3997
▁sens	-12.4005
horn	-12.4007
▁Cole	-12.4011
take	-12.4015
enter	-12.4018
▁camel	-12.4023
▁equit	-12.4025
▁Căn	-12.4028
teen	-12.4036
▁nail	-12.4038
▁dropping	-12.4049
▁toạ	-12.4051
moor	-12.4053
▁voter	-12.4057
plex	-12.4063
▁Post	-12.4069
utter	-12.407
▁khoác	-12.4072
▁dar	-12.4074
▁conceptual	-12.4084
29	-12.4087
▁Countr	-12.409
ghen	-12.4096
▁longe	-12.4097
▁Rama	-12.4104
tial	-12.4105
▁Wire	-12.4107
iger	-12.4108
▁cooling	-12.4112
▁IQ	-12.4113
▁CE	-12.4122
rus	-12.4123
▁Ash	-12.4126
▁53	-12.4127
▁rip	-12.4141
▁spinn	-12.4142
▁Turk	-12.4149
fund	-12.415
lian	-12.415
▁Comp	-12.4152
▁chase	-12.4156
oyager	-12.4163
300	-12.4167
▁Cr	-12.4177
▁redefine	-12.4179
▁kg	-12.418
▁tooth	-12.418
▁Tớ	-12.4182
▁tent	-12.4182
▁82	-12.4182
▁Git	-12.4182
ime	-12.4189
▁impressi	-12.4194
▁Bab	-12.42
AC	-12.4203
burg	-12.4211
▁lover	-12.423
shape	-12.4234
▁Kha	-12.4239
▁thermo	-12.424
▁les	-12.4243
▁infections	-12.4252
▁Democrat	-12.4254
▁disagree	-12.4254
▁Republic	-12.4255
▁slave	-12.4255
▁accura	-12.4255
▁1986	-12.4255
▁Accordi	-12.4255
▁Buddha	-12.4255
▁Buddhis	-12.4255
▁Charlotte	-12.4255
▁Connecticut	-12.4255
▁Norwegian	-12.4255
▁Publi	-12.4255
▁Sioux	-12.4255
▁Societ	-12.4255
▁diagnostic	-12.4255
▁dilemma	-12.4255
▁guitar	-12.4255
▁obsolet	-12.4255
▁octopus	-12.4255
▁unfair	-12.4255
▁đặn	-12.4255
▁gớm	-12.4255
▁revelation	-12.4255
▁victor	-12.4255
▁pirate	-12.4255
▁reinforce	-12.4255
▁lump	-12.4256
▁multinational	-12.4256
▁accent	-12.4256
▁Canyon	-12.4256
▁skeleton	-12.4256
▁symphon	-12.4256
▁arrangement	-12.4256
▁intersection	-12.4256
apa	-12.4257
▁visualization	-12.4257
▁delete	-12.4257
▁Hiể	-12.4257
▁insert	-12.4258
▁probe	-12.4258
▁Bono	-12.4258
▁mild	-12.4258
▁integration	-12.4259
▁passage	-12.4262
▁schedule	-12.4265
▁Stockh	-12.4266
▁sav	-12.4267
▁queen	-12.4268
▁gạo	-12.427
▁Mean	-12.4271
▁fertilizer	-12.4272
▁discriminati	-12.4272
nish	-12.4274
▁Kenyan	-12.4274
▁mud	-12.4277
SD	-12.4277
▁aspiration	-12.4279
▁vự	-12.4281
▁Browne	-12.4282
▁2013	-12.4283
▁lé	-12.4285
▁para	-12.4288
▁baker	-12.4293
▁Hồ	-12.4298
ltan	-12.4303
▁animate	-12.4304
▁cardio	-12.4308
▁playful	-12.431
▁Mã	-12.4311
▁lawn	-12.4312
▁ju	-12.4319
▁mú	-12.4321
▁194	-12.4321
▁6,000	-12.4326
▁stare	-12.4326
▁clari	-12.4328
▁Saul	-12.4331
Của	-12.4333
▁ft	-12.4334
▁BP	-12.4334
ups	-12.4335
▁prop	-12.434
▁poke	-12.4344
▁ừ	-12.4345
▁Hard	-12.4349
▁Whoa	-12.4355
rne	-12.4356
ạc	-12.4365
▁cage	-12.4367
▁ngoặ	-12.4374
▁Brad	-12.4374
▁á	-12.4377
▁dome	-12.4389
▁impose	-12.4389
efficient	-12.4391
▁Bồ	-12.4394
▁SA	-12.4394
▁triple	-12.4394
▁đốn	-12.4395
iffe	-12.4403
ượt	-12.4407
▁rent	-12.4409
▁lever	-12.4413
▁Wu	-12.4414
▁Ask	-12.4415
tah	-12.4416
▁boundary	-12.4425
▁settl	-12.4429
step	-12.443
▁reader	-12.443
▁tro	-12.4433
▁ngủi	-12.4435
▁Pun	-12.4438
▁branche	-12.4438
▁slip	-12.4439
▁Fly	-12.4443
▁publisher	-12.4456
▁promis	-12.4457
▁sue	-12.4462
▁toxin	-12.4462
Fi	-12.4467
▁impos	-12.4468
cher	-12.4475
haz	-12.4478
▁dies	-12.4482
uôn	-12.4482
edge	-12.4483
68	-12.4485
dney	-12.4489
ller	-12.4491
▁SB	-12.4494
▁patholog	-12.4495
itra	-12.4495
chia	-12.4495
pr	-12.4497
▁contribut	-12.4497
ại	-12.4498
produc	-12.4508
child	-12.451
▁cru	-12.4513
▁Dep	-12.4519
▁68	-12.4519
▁Mul	-12.452
print	-12.4526
beat	-12.4532
atur	-12.4537
ogether	-12.454
▁Ag	-12.4549
undan	-12.455
▁mìn	-12.4557
bao	-12.4563
▁Alis	-12.4565
five	-12.4565
rapped	-12.4565
▁awake	-12.4566
vy	-12.4572
▁packag	-12.4581
ounce	-12.4586
rump	-12.4586
eil	-12.4587
▁00	-12.4588
olm	-12.4589
▁Buy	-12.46
▁anesthesi	-12.4608
ndura	-12.4609
▁dispos	-12.461
efense	-12.4611
EP	-12.4611
▁stigma	-12.4611
▁punish	-12.4612
▁Hungar	-12.4612
▁Amsterdam	-12.4613
▁Aurora	-12.4613
▁Computer	-12.4613
▁Freud	-12.4613
▁Jacque	-12.4613
▁Parliament	-12.4613
▁Rezero	-12.4613
▁absence	-12.4613
▁anxious	-12.4613
▁artifact	-12.4613
▁calculator	-12.4613
▁calendar	-12.4613
▁depict	-12.4613
▁encrypt	-12.4613
▁endeavor	-12.4613
▁immigrant	-12.4613
▁occupation	-12.4613
▁orgasm	-12.4613
▁regain	-12.4613
▁remittance	-12.4613
▁stadium	-12.4613
▁welfare	-12.4613
▁CIA	-12.4613
▁Secur	-12.4613
▁antenna	-12.4613
▁Achill	-12.4613
▁crawl	-12.4613
▁cybercriminal	-12.4613
▁funeral	-12.4613
▁Photoshop	-12.4613
▁envision	-12.4613
▁erotic	-12.4613
▁conquer	-12.4613
▁Thirty	-12.4613
▁Deep	-12.4613
▁Student	-12.4613
▁Education	-12.4613
▁impair	-12.4613
▁delicious	-12.4613
▁steam	-12.4613
▁Wilson	-12.4613
▁relief	-12.4613
▁biodiversity	-12.4613
▁infectious	-12.4613
▁loyal	-12.4613
▁trivial	-12.4613
▁uncover	-12.4614
▁Lanka	-12.4614
▁ladder	-12.4614
▁retain	-12.4614
▁Game	-12.4614
▁Donald	-12.4614
▁workshop	-12.4614
▁minimal	-12.4614
▁butterfl	-12.4614
▁stimulation	-12.4615
▁thread	-12.4615
▁Osa	-12.4615
▁contest	-12.4615
▁candle	-12.4616
▁crank	-12.4616
aire	-12.4616
▁glove	-12.4617
▁fungi	-12.4617
▁blink	-12.4618
▁Monday	-12.4619
▁67	-12.4619
▁arbitrar	-12.462
▁Tỉ	-12.4621
▁spit	-12.4621
▁Bayes	-12.4622
▁coordinate	-12.4622
▁Hindu	-12.4622
▁addict	-12.4624
▁nhả	-12.4625
▁Learn	-12.4625
▁HP	-12.4626
▁500,000	-12.4627
▁unsee	-12.4628
▁glue	-12.4629
xter	-12.4629
▁lowest	-12.463
▁seventh	-12.4632
jec	-12.4634
▁BR	-12.4634
▁celebrity	-12.4637
▁Tso	-12.4637
▁hal	-12.4639
▁beaten	-12.4644
▁apologiz	-12.4644
tha	-12.4646
▁sá	-12.4647
ended	-12.4647
▁76	-12.4649
bre	-12.465
ơc	-12.465
▁chord	-12.4665
▁neurological	-12.4669
▁celebrat	-12.467
tress	-12.4671
▁longest	-12.4678
▁dating	-12.4678
▁Hamp	-12.4679
▁scarce	-12.4682
▁trớ	-12.4689
▁Indiana	-12.469
thy	-12.469
▁Wang	-12.4695
saw	-12.4695
▁satisfact	-12.4701
▁owe	-12.4705
live	-12.4711
▁import	-12.4711
uga	-12.4727
AG	-12.4728
▁sur	-12.473
ồ	-12.4739
▁Naj	-12.4749
▁Add	-12.4749
▁usage	-12.4751
itha	-12.4753
▁binar	-12.4759
▁Too	-12.4761
▁shoe	-12.4761
16	-12.4765
MF	-12.4772
▁Mol	-12.4775
▁Nor	-12.4778
▁acre	-12.478
▁Linu	-12.4782
▁kite	-12.4786
▁Vel	-12.4787
sburg	-12.4788
▁Way	-12.4797
▁winds	-12.4805
▁hir	-12.4805
▁emotionally	-12.4809
▁Swed	-12.4822
▁settle	-12.4839
mination	-12.4842
afi	-12.4845
orta	-12.4852
bur	-12.4865
▁Music	-12.4872
wide	-12.4872
▁đồn	-12.4875
erial	-12.4879
▁wander	-12.488
eller	-12.488
food	-12.4881
▁Ste	-12.4888
size	-12.4888
▁fade	-12.4888
logy	-12.4891
ssociation	-12.4894
ubar	-12.4896
▁admire	-12.4907
uồn	-12.4912
▁sketch	-12.4915
manda	-12.4918
Qa	-12.4919
▁constrain	-12.4919
run	-12.4935
▁đu	-12.4938
▁unite	-12.4939
háo	-12.4945
▁ecolog	-12.4945
▁Anne	-12.4953
month	-12.4954
▁Eli	-12.4956
▁landing	-12.496
▁improvise	-12.4961
▁geograph	-12.4967
▁neo	-12.497
13	-12.4971
▁gam	-12.4972
▁manipulat	-12.4978
▁restrict	-12.4978
ouncil	-12.4979
▁drama	-12.4981
▁Bach	-12.4982
▁tempt	-12.4982
aste	-12.4982
xcept	-12.4982
▁maxim	-12.4983
▁Critic	-12.4983
▁Machine	-12.4983
▁Netflix	-12.4983
▁Nội	-12.4983
▁Rhode	-12.4983
▁Scoop	-12.4983
▁Shaw	-12.4983
▁Transition	-12.4983
▁Tweet	-12.4983
▁beneficia	-12.4983
▁buzz	-12.4983
▁default	-12.4983
▁deficit	-12.4983
▁distinguish	-12.4983
▁enlighten	-12.4983
▁exquisite	-12.4983
▁parachute	-12.4983
▁pencil	-12.4983
▁pesticide	-12.4983
▁purple	-12.4983
▁reputation	-12.4983
▁sovereign	-12.4983
▁tsunami	-12.4983
▁Papua	-12.4983
▁fault	-12.4983
▁gross	-12.4983
▁jungle	-12.4983
▁monument	-12.4983
▁quầy	-12.4983
▁slope	-12.4983
▁unveil	-12.4983
▁orphan	-12.4983
▁smash	-12.4983
▁IKE	-12.4983
▁Tower	-12.4983
▁opposition	-12.4983
▁proceed	-12.4983
▁Window	-12.4983
▁bypass	-12.4983
▁Economist	-12.4983
▁bucket	-12.4983
▁Kiva	-12.4983
▁Development	-12.4983
▁Bonnet	-12.4983
▁introduction	-12.4983
▁sidewalk	-12.4984
▁Rap	-12.4984
▁Shah	-12.4984
▁assessment	-12.4984
▁superpower	-12.4984
▁index	-12.4984
▁lethal	-12.4984
▁settlement	-12.4984
▁shove	-12.4984
▁pubert	-12.4984
▁decent	-12.4984
▁persist	-12.4984
▁innovator	-12.4985
▁nhốt	-12.4985
▁conscience	-12.4985
▁approximate	-12.4986
▁weakness	-12.4986
▁mature	-12.4986
▁browser	-12.4987
▁constitution	-12.4987
▁bonus	-12.4987
▁angel	-12.4988
▁marrow	-12.4988
▁rode	-12.499
▁petal	-12.4991
▁stain	-12.4991
▁adolescence	-12.4993
▁socio	-12.4994
etas	-12.4994
▁Fall	-12.4999
▁overlap	-12.5001
▁hopeless	-12.5002
▁plea	-12.5004
▁Sex	-12.5004
▁nực	-12.5008
▁nghê	-12.501
▁dece	-12.5012
▁fruits	-12.5013
▁thối	-12.5014
▁patch	-12.5015
▁Sad	-12.5019
rio	-12.5025
▁professors	-12.5028
▁185	-12.5033
▁ventilat	-12.5038
atops	-12.5038
▁clon	-12.5039
▁informal	-12.504
care	-12.5044
▁mon	-12.5045
▁intangible	-12.5048
▁Colli	-12.5048
▁TH	-12.5048
▁Gene	-12.505
▁Pran	-12.5051
▁Coh	-12.5052
train	-12.5054
▁hunter	-12.5056
▁yell	-12.5057
▁surf	-12.5057
je	-12.5059
▁exhaust	-12.5059
49	-12.5064
▁roman	-12.5064
50,000	-12.5065
▁Tô	-12.5069
▁token	-12.507
▁há	-12.507
▁sương	-12.507
▁Swa	-12.5071
usse	-12.5071
▁bats	-12.5075
▁Terr	-12.5084
100	-12.5088
▁remotely	-12.5092
dding	-12.5095
marin	-12.5095
▁innovate	-12.5098
44	-12.5105
▁Gran	-12.5106
▁quẩ	-12.5108
▁keys	-12.5111
▁Chu	-12.5112
▁corners	-12.5123
▁curl	-12.5128
his	-12.513
▁Pen	-12.5137
nders	-12.5141
▁accidental	-12.5147
▁mold	-12.515
Spee	-12.5161
▁yog	-12.5163
estate	-12.5165
die	-12.5167
SF	-12.5167
▁Las	-12.5167
▁compos	-12.5185
▁Gan	-12.5186
▁intervene	-12.519
▁kép	-12.5197
▁choir	-12.5199
▁chat	-12.5203
▁stimul	-12.5207
▁farming	-12.5211
▁Khố	-12.5218
▁woo	-12.5218
▁Basi	-12.522
▁submit	-12.5227
▁Dai	-12.523
▁phu	-12.5236
rman	-12.5237
▁Gil	-12.5237
▁láng	-12.5241
found	-12.5247
▁Best	-12.5249
▁announce	-12.5252
▁rợ	-12.5252
ference	-12.5255
▁thinker	-12.5257
vascular	-12.5258
▁declin	-12.526
spread	-12.5262
scal	-12.5267
14	-12.5272
▁McK	-12.5274
bone	-12.5276
▁Nigerian	-12.5277
▁Fair	-12.5284
▁photon	-12.5284
▁sequenc	-12.5284
break	-12.5285
▁Hand	-12.5287
minded	-12.5289
had	-12.5294
HC	-12.5295
▁bam	-12.5296
▁dishe	-12.5299
▁mastery	-12.5302
▁Elv	-12.5302
▁advanc	-12.5304
▁ngh	-12.5304
osh	-12.5311
▁herd	-12.5313
▁productiv	-12.5314
▁render	-12.5322
▁grant	-12.5322
▁Lind	-12.5324
▁Marsha	-12.5328
▁migrate	-12.533
wear	-12.5333
ứt	-12.5334
▁convention	-12.5338
▁Bel	-12.5355
▁kiddi	-12.536
▁cou	-12.5362
▁encode	-12.5365
▁differ	-12.5367
▁Empire	-12.5368
▁Friend	-12.5368
▁Gapminder	-12.5368
▁Guardian	-12.5368
▁Hospital	-12.5368
▁Picasso	-12.5368
▁Scientist	-12.5368
▁System	-12.5368
▁Tamiflu	-12.5368
▁cathedral	-12.5368
▁dismiss	-12.5368
▁estrogen	-12.5368
▁exclusive	-12.5368
▁exponential	-12.5368
▁mammogram	-12.5368
▁pedestrian	-12.5368
▁penicillin	-12.5368
▁virgin	-12.5368
▁whisper	-12.5368
▁Virtual	-12.5368
▁acoustic	-12.5368
▁Hirsh	-12.5368
▁suýt	-12.5368
▁mosque	-12.5368
▁screw	-12.5368
▁derive	-12.5368
▁shrink	-12.5368
▁Minne	-12.5368
▁encyclopedia	-12.5368
▁undergraduate	-12.5368
▁Point	-12.5368
▁Barbar	-12.5368
▁sufficient	-12.5368
▁haunt	-12.5368
▁Heather	-12.5368
▁Geoff	-12.5368
▁suspicious	-12.5368
▁dentist	-12.5368
▁Probab	-12.5368
riving	-12.5368
▁Simpl	-12.5368
▁diamond	-12.5369
▁posture	-12.5369
▁radar	-12.5369
▁Democratic	-12.5369
▁adaptive	-12.5369
▁iceberg	-12.5369
▁gót	-12.5369
▁slaughter	-12.537
▁anthropologist	-12.537
▁phiện	-12.537
▁rig	-12.537
cially	-12.5371
▁Wide	-12.5372
▁subjective	-12.5372
▁alert	-12.5372
▁Danny	-12.5372
▁89	-12.5372
▁proton	-12.5372
▁rubber	-12.5373
▁huỳ	-12.5373
▁Seth	-12.5373
▁Nano	-12.5374
▁Java	-12.5374
▁outdoor	-12.5374
▁Huck	-12.5374
▁wins	-12.5374
▁overlook	-12.5375
▁8,000	-12.5375
hole	-12.5376
▁melod	-12.5377
▁pants	-12.5377
▁chunk	-12.5378
nthia	-12.5378
ennis	-12.5381
▁Pilot	-12.5382
▁Shake	-12.5383
▁Baha	-12.5383
▁Monter	-12.5384
▁dune	-12.5386
▁Khó	-12.5391
▁chick	-12.5391
lov	-12.5392
.7	-12.5392
▁bitter	-12.5393
▁owners	-12.5395
▁Tinh	-12.5398
▁phenomenal	-12.5399
▁eastern	-12.5401
▁91	-12.5404
▁surger	-12.5407
▁Chia	-12.5413
▁NO	-12.5426
apped	-12.5427
▁Phố	-12.5429
▁traffick	-12.5435
▁Reg	-12.544
ecl	-12.5445
▁admir	-12.5447
rank	-12.5447
▁abundant	-12.5448
▁bench	-12.5452
▁rotate	-12.5454
▁demonstrat	-12.5461
▁env	-12.5465
▁Rad	-12.5473
▁donate	-12.5474
▁disrupti	-12.5474
pur	-12.5474
70	-12.5478
▁TD	-12.5486
▁von	-12.5487
▁Mass	-12.5489
▁Cro	-12.5489
▁mega	-12.5492
▁opt	-12.5495
▁Stand	-12.5498
▁earning	-12.5499
ợi	-12.5499
gic	-12.5511
▁woods	-12.552
▁exot	-12.552
▁cows	-12.5526
▁nuclei	-12.5534
▁Bol	-12.5538
▁Rea	-12.5538
▁Ob	-12.554
▁Kins	-12.5541
▁flap	-12.5542
▁Ol	-12.5555
▁detected	-12.5561
▁arous	-12.5562
▁Top	-12.5563
▁dạn	-12.5566
▁Kos	-12.5572
atan	-12.5575
▁chử	-12.5575
berry	-12.5576
▁Mali	-12.5577
▁contaminat	-12.558
avi	-12.558
note	-12.5584
▁assist	-12.5585
▁Trạ	-12.559
▁Bart	-12.5591
▁dominate	-12.5594
xy	-12.5597
▁ớt	-12.5602
▁taxe	-12.5606
▁perceiv	-12.5608
quality	-12.5613
▁Pac	-12.5613
▁shifts	-12.5616
ác	-12.5623
▁barb	-12.5631
▁warp	-12.5631
oul	-12.5644
▁beep	-12.5647
grade	-12.565
eur	-12.5653
▁disrupt	-12.5653
uba	-12.5657
▁Allen	-12.5657
▁lucki	-12.566
shift	-12.5661
economic	-12.5662
sense	-12.5663
effective	-12.5663
stair	-12.5663
▁Hadr	-12.5671
▁decid	-12.5672
▁banker	-12.5673
▁Chen	-12.5673
05	-12.5676
generat	-12.5676
▁Code	-12.5678
tub	-12.568
vít	-12.5686
eaten	-12.5693
▁patien	-12.5704
▁Robins	-12.5709
▁Thom	-12.5712
▁consen	-12.5713
ản	-12.5719
fu	-12.5724
amie	-12.5725
▁storms	-12.5727
47	-12.5728
▁loé	-12.5732
leg	-12.5739
▁balls	-12.574
▁filling	-12.5742
▁Bí	-12.5749
▁Tech	-12.5752
▁39	-12.5754
92	-12.5756
▁negotiat	-12.5762
▁Full	-12.5763
▁possess	-12.5764
▁consult	-12.5766
▁trauma	-12.5767
▁Democracy	-12.5768
▁Civil	-12.5768
▁Government	-12.5768
▁Malaysia	-12.5768
▁Massachusetts	-12.5768
▁Modern	-12.5768
▁alphabet	-12.5768
▁athletic	-12.5768
▁beekeeper	-12.5768
▁catastrophic	-12.5768
▁configuration	-12.5768
▁execute	-12.5768
▁giầy	-12.5768
▁glorious	-12.5768
▁horrifi	-12.5768
▁horror	-12.5768
▁indicator	-12.5768
▁intimacy	-12.5768
▁irrelevan	-12.5768
▁mammograph	-12.5768
▁migrant	-12.5768
▁neglect	-12.5768
▁optimal	-12.5768
▁polite	-12.5768
▁Gabriel	-12.5768
▁Reddit	-12.5768
▁composition	-12.5768
▁existential	-12.5768
▁Galil	-12.5768
▁alumin	-12.5768
▁coordinati	-12.5768
▁eradicati	-12.5768
▁extensive	-12.5768
▁microblog	-12.5768
▁calculating	-12.5768
▁lawsuit	-12.5768
▁cooperative	-12.5768
▁Ottoman	-12.5768
▁tởm	-12.5768
▁shredd	-12.5768
▁decode	-12.5768
▁shelve	-12.5768
▁grape	-12.5768
▁virut	-12.5768
▁1940	-12.5768
▁genital	-12.5768
▁EEG	-12.5768
▁legitimate	-12.5768
▁freeze	-12.5768
▁monk	-12.5769
▁xổ	-12.5769
▁psychiatrist	-12.577
▁Ukraine	-12.577
▁phồn	-12.577
▁Clear	-12.5771
▁Owen	-12.5771
▁nurture	-12.5771
▁Hunter	-12.5772
▁greed	-12.5773
▁1,1	-12.5773
▁mustard	-12.5775
inux	-12.5776
▁JK	-12.5777
▁dominat	-12.5778
▁germ	-12.5778
▁quấn	-12.5782
▁Wales	-12.5783
▁Book	-12.5785
▁couch	-12.5786
cumen	-12.5787
sek	-12.5787
illenni	-12.5787
▁Mellon	-12.5791
▁screening	-12.5794
▁Viking	-12.58
▁continuously	-12.5806
▁Pla	-12.5806
▁ôn	-12.5806
▁centimeter	-12.581
AL	-12.582
▁stu	-12.5824
▁Vinc	-12.5825
▁ease	-12.583
▁ambition	-12.5831
▁captur	-12.5832
▁reminder	-12.5833
▁Jerem	-12.5835
▁54	-12.5837
▁mill	-12.584
▁Rot	-12.5842
▁chains	-12.5843
▁1.6	-12.5845
▁stat	-12.5846
▁diễ	-12.585
▁xì	-12.5854
▁revolutionar	-12.5855
▁kè	-12.5856
▁nois	-12.5857
▁Bal	-12.586
▁pest	-12.5865
▁Step	-12.588
▁union	-12.5884
▁Chop	-12.5892
▁strap	-12.5894
alactic	-12.5897
blowing	-12.5902
gun	-12.5906
▁Perc	-12.5906
▁thoughtful	-12.5919
▁pregnanc	-12.5922
▁lips	-12.5927
▁resilien	-12.5931
▁deny	-12.5934
54	-12.5937
finite	-12.5938
▁sands	-12.5944
▁Camp	-12.5946
▁entr	-12.5949
mile	-12.5953
▁1.4	-12.5958
zman	-12.596
▁rạc	-12.5963
saving	-12.5968
▁performer	-12.5975
pound	-12.598
lux	-12.5981
▁Sr	-12.5982
▁regional	-12.5984
jury	-12.5985
key	-12.599
▁5000	-12.5998
▁riches	-12.5999
part	-12.6
ừ	-12.6001
▁Ep	-12.6002
lia	-12.6004
▁Harris	-12.6006
etter	-12.6014
▁Guy	-12.6015
▁Greg	-12.6021
km	-12.6025
▁quo	-12.6033
grow	-12.6033
▁Oz	-12.6037
▁Eri	-12.6039
wick	-12.6039
▁Save	-12.604
FL	-12.6049
urek	-12.6049
agement	-12.605
HO	-12.6051
gập	-12.6052
▁Hur	-12.6056
culture	-12.607
ựa	-12.6076
frontal	-12.6078
conflict	-12.6078
massive	-12.6078
group	-12.6078
course	-12.6079
Bay	-12.6079
polar	-12.6079
drew	-12.608
RS	-12.6086
▁arena	-12.6089
▁chem	-12.6089
▁publicly	-12.6099
▁Sadd	-12.6103
▁Hunt	-12.6106
iêng	-12.6113
▁xo	-12.6123
ipcar	-12.6126
▁Pia	-12.6128
ductive	-12.613
▁bean	-12.6135
lcome	-12.6144
▁displace	-12.6147
▁casual	-12.6149
▁def	-12.615
In	-12.6152
17	-12.6154
▁grip	-12.6154
▁Giấ	-12.616
▁rail	-12.6173
▁precis	-12.6174
▁advoca	-12.6174
roid	-12.6182
▁arrange	-12.6183
▁parliament	-12.6184
▁stereo	-12.6184
▁Georgia	-12.6184
▁Illinois	-12.6184
▁Interesting	-12.6184
▁Neuman	-12.6184
▁Philippine	-12.6184
▁Pittsburgh	-12.6184
▁Roosevelt	-12.6184
▁accompani	-12.6184
▁bướu	-12.6184
▁catadore	-12.6184
▁cerebr	-12.6184
▁collision	-12.6184
▁declare	-12.6184
▁extremist	-12.6184
▁holiday	-12.6184
▁imperative	-12.6184
▁injustice	-12.6184
▁maneuver	-12.6184
▁orangutan	-12.6184
▁peanut	-12.6184
▁postcard	-12.6184
▁powder	-12.6184
▁principal	-12.6184
▁rậm	-12.6184
▁thorough	-12.6184
▁vầy	-12.6184
▁Phillip	-12.6184
▁carpet	-12.6184
▁cockroach	-12.6184
▁Malawi	-12.6184
▁cream	-12.6184
▁jean	-12.6184
▁stumbl	-12.6184
▁prophet	-12.6184
▁rigid	-12.6184
▁supercomputer	-12.6184
▁Rita	-12.6184
▁Austria	-12.6184
▁Help	-12.6184
▁illuminati	-12.6185
▁protocol	-12.6185
▁hostile	-12.6185
▁debri	-12.6185
▁entrance	-12.6185
▁cardiac	-12.6185
▁notebook	-12.6185
▁billboard	-12.6185
▁1918	-12.6185
▁instinctive	-12.6185
▁headache	-12.6185
band	-12.6185
▁1965	-12.6185
▁punishment	-12.6185
▁Nicole	-12.6186
▁spacecraft	-12.6186
▁Truth	-12.6186
▁tutor	-12.6186
▁pillar	-12.6186
▁cocaine	-12.6186
▁memorize	-12.6186
▁illustration	-12.6186
▁problematic	-12.6186
▁employment	-12.6186
▁novelty	-12.6187
▁2015	-12.6188
▁resonan	-12.6188
▁Lou	-12.6188
▁56	-12.6188
▁biotechnolog	-12.6188
▁outrage	-12.6193
skirt	-12.6193
▁flute	-12.6193
▁Sound	-12.6194
▁outbreak	-12.6194
onsider	-12.6194
▁erect	-12.6196
▁trailer	-12.62
▁disc	-12.62
▁phà	-12.6201
▁Death	-12.6202
▁compil	-12.6204
▁Walter	-12.6205
▁Read	-12.6205
tched	-12.6207
▁Heart	-12.6207
▁Clark	-12.6214
▁uh	-12.6214
ickr	-12.6215
▁nitro	-12.6216
omin	-12.6218
▁avatar	-12.6221
▁western	-12.6223
▁annoying	-12.6224
▁screaming	-12.6228
tually	-12.6229
▁formation	-12.623
▁thermal	-12.6233
▁cheer	-12.6234
▁periodic	-12.6235
▁ngâm	-12.6236
▁Hot	-12.6238
IM	-12.6238
▁NI	-12.6239
▁companion	-12.6239
▁CH	-12.6242
▁visitor	-12.6245
▁grad	-12.6246
▁83	-12.6247
▁Luk	-12.6248
▁401	-12.6248
▁seize	-12.6255
▁Dar	-12.6257
itz	-12.6264
▁đê	-12.6269
▁nham	-12.627
▁Edd	-12.6272
▁consent	-12.6284
▁McCa	-12.6286
▁scal	-12.6297
▁heroic	-12.6298
▁tý	-12.6299
CA	-12.6304
hamed	-12.6305
▁receiver	-12.631
limate	-12.6313
dad	-12.6319
▁heel	-12.6321
▁Patric	-12.6321
▁Stay	-12.6322
▁IP	-12.6322
▁Emman	-12.6326
▁unpredictabl	-12.6331
▁Kiể	-12.6335
▁Berg	-12.6336
▁Gilli	-12.6338
28	-12.6342
▁Lauren	-12.6345
▁Kam	-12.6349
▁minor	-12.6351
▁symbolic	-12.6356
wall	-12.6358
tec	-12.6366
ốn	-12.6371
▁hive	-12.6373
ruct	-12.6374
▁crow	-12.6376
ushi	-12.6377
▁101	-12.6382
93	-12.6386
▁Jose	-12.6388
laughter	-12.6396
inch	-12.6399
ỉnh	-12.64
pox	-12.64
uous	-12.6401
▁enabl	-12.6412
▁gramma	-12.6413
ancer	-12.6414
▁Rid	-12.6421
▁Australian	-12.6427
ER	-12.6436
▁AD	-12.6447
▁coup	-12.6447
arrow	-12.6448
▁dedicate	-12.6448
▁digitize	-12.6453
ứ	-12.6461
▁đú	-12.6468
▁BM	-12.6469
▁Gui	-12.647
win	-12.6471
hicken	-12.6472
▁Jas	-12.6479
oxy	-12.6479
▁Pan	-12.6481
▁Nô	-12.6482
▁sometime	-12.6483
▁Bare	-12.6495
▁humili	-12.6511
▁resonate	-12.6512
broad	-12.6513
positive	-12.6513
million	-12.6513
school	-12.6513
speed	-12.6513
▁paste	-12.6514
story	-12.6524
▁Happ	-12.6525
▁evaluate	-12.6527
AO	-12.6529
▁laborator	-12.6533
TO	-12.6536
▁loser	-12.6536
▁cửu	-12.6542
rock	-12.6546
fill	-12.6547
▁diver	-12.6552
▁fr	-12.6554
kel	-12.6557
ủa	-12.6567
oil	-12.6568
▁embarrass	-12.6571
ẹo	-12.6571
▁Work	-12.6572
▁guards	-12.6573
etting	-12.6578
▁luồn	-12.6579
ibu	-12.6584
▁zoo	-12.6588
▁RS	-12.6594
eval	-12.6596
▁Old	-12.6604
AM	-12.6612
▁numb	-12.6613
▁Tibet	-12.6618
ectar	-12.6619
#	-12.6619
▁DIY	-12.6619
▁Madagas	-12.6619
▁anniversar	-12.6619
▁clitoris	-12.6619
▁collage	-12.6619
▁convincing	-12.6619
▁dispute	-12.6619
▁facult	-12.6619
▁ghost	-12.6619
▁laundr	-12.6619
▁peculiar	-12.6619
▁petition	-12.6619
▁reconcili	-12.6619
▁slogan	-12.6619
▁surgical	-12.6619
▁unleash	-12.6619
▁veloci	-12.6619
▁flesh	-12.6619
▁hollow	-12.6619
▁pathogen	-12.6619
▁algae	-12.6619
▁squid	-12.6619
▁webcam	-12.6619
▁bonobo	-12.6619
▁flexibilit	-12.6619
▁shuttle	-12.6619
▁greet	-12.6619
violet	-12.6619
▁devise	-12.6619
▁nuance	-12.6619
▁hump	-12.6619
▁guest	-12.6619
▁checklist	-12.6619
▁emphasize	-12.6619
▁suitcase	-12.6619
▁propagand	-12.6619
▁scholarship	-12.6619
▁1982	-12.6619
▁coincidence	-12.6619
▁shallow	-12.6619
▁foster	-12.6619
▁headquarter	-12.662
▁Recent	-12.662
▁soundscape	-12.662
▁operator	-12.662
▁Glad	-12.662
▁crap	-12.662
muddi	-12.662
▁separation	-12.662
▁Self	-12.662
▁LOL	-12.662
▁cabinet	-12.662
▁giun	-12.662
▁temptation	-12.662
▁riot	-12.662
▁migration	-12.662
▁fame	-12.6621
▁calci	-12.6621
▁exit	-12.6621
▁reproduction	-12.6621
atic	-12.6621
heim	-12.6622
▁Trust	-12.6622
▁cattle	-12.6622
zơ	-12.6622
▁Khí	-12.6622
▁volcano	-12.6622
▁Kendal	-12.6622
▁1920	-12.6622
Chryst	-12.6622
▁Limb	-12.6623
▁Cloni	-12.6623
▁empowerment	-12.6623
▁scarc	-12.6623
▁playground	-12.6624
▁thản	-12.6624
▁sadness	-12.6625
▁Espe	-12.6625
▁generator	-12.6625
▁Fear	-12.6627
▁Station	-12.6627
▁Night	-12.6629
▁prospect	-12.6631
▁asthma	-12.6631
▁worldview	-12.6632
▁memorial	-12.6632
▁Midwest	-12.6633
▁armor	-12.6634
linger	-12.6636
▁millennia	-12.6638
▁Luck	-12.6639
▁RI	-12.664
▁nhứ	-12.6641
▁humble	-12.6641
▁troll	-12.6642
www	-12.6644
▁nasty	-12.6646
▁carb	-12.6646
▁Trac	-12.6646
▁Harve	-12.6648
eline	-12.6649
▁assistant	-12.6649
▁differentiate	-12.665
▁thoa	-12.665
▁sixth	-12.6655
▁viền	-12.6656
aux	-12.6657
▁miser	-12.6657
▁wilder	-12.6658
▁indirect	-12.6665
▁prayer	-12.6665
▁fisc	-12.6668
▁Find	-12.6672
▁rendering	-12.6673
nmark	-12.6677
entric	-12.6688
elli	-12.6688
▁mount	-12.6689
bio	-12.669
sanitary	-12.669
▁bú	-12.6697
▁gangs	-12.6699
▁Force	-12.6702
▁MW	-12.6703
iêm	-12.6705
▁coma	-12.6706
ddle	-12.6707
ean	-12.6707
▁dri	-12.6709
▁Bờ	-12.6719
▁horses	-12.6724
▁boo	-12.6727
▁centi	-12.6729
dale	-12.6729
▁tuna	-12.6745
ả	-12.6751
otic	-12.6753
▁atomic	-12.6758
▁Rod	-12.6764
▁Robin	-12.6766
▁globaliz	-12.6767
▁Isa	-12.6767
dez	-12.6768
▁Biể	-12.6773
▁gentle	-12.6787
elle	-12.679
▁confuse	-12.6795
▁750	-12.6798
▁Perr	-12.6812
jac	-12.6817
uction	-12.6817
▁ambiguit	-12.6826
tenth	-12.6832
▁Dàn	-12.684
▁Key	-12.6842
dah	-12.6845
iful	-12.6851
▁193	-12.6851
umor	-12.6857
▁Bé	-12.6859
▁nhôm	-12.686
▁penn	-12.6863
mming	-12.6869
▁Tai	-12.687
▁dye	-12.6872
cell	-12.6887
34	-12.6894
hậm	-12.6896
rose	-12.6897
ảm	-12.6901
ulli	-12.6908
rtz	-12.6922
▁Lesters	-12.6923
▁Hua	-12.694
▁fighter	-12.695
nô	-12.6952
▁Đôn	-12.6953
▁bầm	-12.6961
venue	-12.6965
▁sole	-12.6966
Prince	-12.6967
▁365	-12.6968
flow	-12.6974
▁Den	-12.6974
ạm	-12.6975
▁matche	-12.6977
wash	-12.6979
.9	-12.6982
oming	-12.6986
▁59	-12.6987
▁tweets	-12.699
▁optic	-12.6991
▁liberat	-12.7001
Tun	-12.7008
▁bounce	-12.7009
▁Polic	-12.7009
▁ub	-12.7013
cow	-12.7014
▁App	-12.7019
▁analytic	-12.7025
▁scream	-12.7026
▁timing	-12.7031
▁skip	-12.7033
aper	-12.7039
▁Bett	-12.704
▁underestimate	-12.7047
▁Davi	-12.7049
PA	-12.705
together	-12.705
ollider	-12.7055
imi	-12.7058
▁epidemics	-12.7058
▁Nei	-12.706
▁1500	-12.7061
hhh	-12.7061
▁swam	-12.7065
▁Mik	-12.7066
▁chồn	-12.7071
▁Curi	-12.7072
section	-12.7072
mmunity	-12.7073
▁vegetarian	-12.7074
NICE	-12.7074
plasma	-12.7074
▁Exxon	-12.7074
▁Picture	-12.7074
▁Senegal	-12.7074
▁Sinclair	-12.7074
▁Splashy	-12.7074
▁articulate	-12.7074
▁brainstorm	-12.7074
▁charcoal	-12.7074
▁corridor	-12.7074
▁elaborate	-12.7074
▁intricate	-12.7074
▁kindergart	-12.7074
▁meerkat	-12.7074
▁ngặt	-12.7074
▁nickname	-12.7074
▁praise	-12.7074
▁scroll	-12.7074
▁soccer	-12.7074
▁steak	-12.7074
▁steep	-12.7074
▁worship	-12.7074
▁Doctor	-12.7074
▁diameter	-12.7074
▁prevalen	-12.7074
▁Darfur	-12.7074
▁giềng	-12.7074
▁faint	-12.7074
▁Adria	-12.7074
▁energetic	-12.7074
▁deception	-12.7074
▁Morgan	-12.7074
▁biomaterial	-12.7074
▁Speak	-12.7074
▁pension	-12.7074
▁violate	-12.7074
▁acute	-12.7074
▁presum	-12.7074
▁Economic	-12.7074
▁vagina	-12.7074
▁1983	-12.7074
▁multiverse	-12.7074
▁portray	-12.7074
▁Jarret	-12.7074
▁Text	-12.7074
▁superior	-12.7074
▁modifie	-12.7074
▁Kentuck	-12.7074
▁hammer	-12.7074
▁lyric	-12.7074
▁flock	-12.7074
▁0.1	-12.7074
▁Nicola	-12.7074
▁macro	-12.7075
▁Trừ	-12.7075
▁marketplace	-12.7075
▁mixture	-12.7075
▁1949	-12.7075
ạp	-12.7075
▁tilt	-12.7075
balone	-12.7076
▁Hyder	-12.7076
▁1,3	-12.7076
▁barrel	-12.7076
▁unlock	-12.7077
▁Ohio	-12.7077
▁cease	-12.7077
▁Justice	-12.7077
▁injection	-12.7077
▁Money	-12.7078
▁conviction	-12.7078
▁possession	-12.7078
▁logg	-12.7078
▁comprehensive	-12.7078
▁medal	-12.708
▁cosmolog	-12.708
ISA	-12.7081
▁pore	-12.7081
▁Knight	-12.7081
otherap	-12.7082
▁Farmer	-12.7083
▁End	-12.7086
ổi	-12.7087
▁mash	-12.7088
▁nguyệt	-12.709
▁qualifie	-12.7091
olves	-12.7093
▁Teacher	-12.7094
▁rán	-12.7094
▁basement	-12.7096
▁governor	-12.7097
thic	-12.7097
▁upward	-12.7098
▁Ola	-12.7099
▁Clevela	-12.7099
▁strengthen	-12.7101
▁cưng	-12.7104
▁cultivate	-12.7109
▁provoke	-12.7109
▁noble	-12.711
▁nhô	-12.7111
▁confusion	-12.7112
▁74	-12.7117
▁shade	-12.7117
▁behold	-12.7121
▁methodolog	-12.7124
udge	-12.7124
▁tightly	-12.7128
▁rebel	-12.7129
▁convenient	-12.7132
▁Hama	-12.7132
uten	-12.7132
▁Hud	-12.7133
▁reactor	-12.7133
▁prioritize	-12.7135
▁commander	-12.7135
RN	-12.7142
▁gồ	-12.7143
NES	-12.7146
▁Merc	-12.7148
▁Mob	-12.715
▁endur	-12.7162
▁suôn	-12.7164
igital	-12.7164
▁Giê	-12.7173
liberation	-12.7173
▁Nổ	-12.7175
▁eighth	-12.7179
▁auto	-12.7181
▁machiner	-12.7188
ingenu	-12.7189
18	-12.719
▁TB	-12.7194
cover	-12.7197
▁Baby	-12.7199
▁khoé	-12.7204
▁bacteri	-12.7205
▁Nav	-12.7208
▁Bag	-12.7209
position	-12.7219
▁chè	-12.7224
▁planner	-12.7226
▁Rebe	-12.7227
▁Paula	-12.7229
▁HC	-12.7233
▁digg	-12.7237
hẹn	-12.7239
DT	-12.7241
▁cừ	-12.7261
▁heli	-12.7268
▁Cat	-12.727
homa	-12.7272
ggy	-12.7276
sustainabl	-12.7289
▁Goer	-12.7296
▁thò	-12.7298
▁Eat	-12.7301
rque	-12.7335
▁vãn	-12.7343
▁banne	-12.7344
▁fur	-12.7352
lage	-12.7353
nberg	-12.7358
ilton	-12.7366
▁Bio	-12.7396
▁ignor	-12.7409
oline	-12.7412
roadway	-12.7413
▁báng	-12.7416
▁Shin	-12.7421
36	-12.7421
mpl	-12.7422
tune	-12.7423
itting	-12.7428
rim	-12.7433
MS	-12.7436
nutrition	-12.7443
credit	-12.7443
proof	-12.7444
great	-12.7444
một	-12.7444
resistan	-12.7444
▁invad	-12.7448
▁ape	-12.7453
phone	-12.7458
ĩa	-12.7462
▁Sang	-12.7475
scope	-12.7476
path	-12.7477
▁acknowledg	-12.7491
▁squeeze	-12.7506
▁industrialize	-12.7516
▁rob	-12.7516
▁fertil	-12.7517
change	-12.7518
▁hươ	-12.7521
▁assure	-12.7522
osphere	-12.7522
▁reo	-12.7523
cid	-12.7525
maker	-12.7528
▁psycho	-12.7528
▁Lyn	-12.7529
▁gyr	-12.753
PO	-12.7536
▁statistic	-12.7539
eague	-12.7541
echanical	-12.7544
▁pollut	-12.7546
▁counsel	-12.7547
▁vibrati	-12.7547
▁straw	-12.7547
nergy	-12.7548
▁suburb	-12.7548
iamond	-12.7549
▁enthusias	-12.7549
▁synthesi	-12.7549
▁sympath	-12.755
▁Sisyph	-12.755
▁Botswan	-12.755
▁Duoling	-12.755
▁Enceladus	-12.755
▁Field	-12.755
▁Havard	-12.755
▁Missouri	-12.755
▁Mozambique	-12.755
▁Nikola	-12.755
▁Service	-12.755
▁Suppose	-12.755
▁anecdote	-12.755
▁communal	-12.755
▁diarrhea	-12.755
▁fMRI	-12.755
▁juvenile	-12.755
▁microscopi	-12.755
▁pixel	-12.755
▁prince	-12.755
▁replie	-12.755
▁resurrect	-12.755
▁retreat	-12.755
▁Fund	-12.755
▁drain	-12.755
▁gluten	-12.755
▁hypothetical	-12.755
▁peripher	-12.755
▁rhetoric	-12.755
▁warehouse	-12.755
▁feather	-12.755
▁stagger	-12.755
▁Ferris	-12.755
▁Spider	-12.755
▁indigen	-12.755
▁sulfur	-12.755
▁ballot	-12.755
▁vaccinate	-12.755
▁cinema	-12.755
▁urgent	-12.755
▁cement	-12.755
▁Large	-12.7551
▁preced	-12.7551
▁blanket	-12.7551
▁Nino	-12.7551
▁chaotic	-12.7551
▁CDC	-12.7551
▁Kind	-12.7551
▁cellphone	-12.7551
▁Missis	-12.7552
▁Sufi	-12.7552
oulder	-12.7552
▁sẹo	-12.7552
▁accomplishment	-12.7552
▁epic	-12.7553
▁2014	-12.7553
▁Pants	-12.7553
▁regulator	-12.7553
▁1,6	-12.7554
human	-12.7554
▁synthesize	-12.7554
▁rust	-12.7554
▁Brazilian	-12.7555
▁Financial	-12.7556
ache	-12.7556
▁wallet	-12.7556
▁Wild	-12.7557
▁timber	-12.7558
shmi	-12.7558
▁2.3	-12.7558
▁pat	-12.7558
▁spor	-12.756
▁Award	-12.7561
▁duty	-12.7562
▁Huh	-12.7563
▁progression	-12.7567
▁Vila	-12.7568
▁nhọc	-12.7569
amble	-12.7569
▁conception	-12.7569
▁Kurd	-12.757
▁correlate	-12.7571
▁duration	-12.7573
▁inhabit	-12.7576
▁eternal	-12.7576
▁experimentation	-12.7576
▁composer	-12.7576
▁cubic	-12.7577
kut	-12.7578
▁offshor	-12.7578
scape	-12.7579
list	-12.758
▁Rum	-12.7581
▁publication	-12.7582
RC	-12.7582
▁Earl	-12.7586
▁province	-12.7586
▁Android	-12.7589
▁induce	-12.7595
ssential	-12.7595
▁mite	-12.7596
▁Farm	-12.7599
▁Lock	-12.7601
▁amen	-12.7603
zar	-12.7604
▁Goldi	-12.7607
▁collector	-12.7607
osa	-12.7612
▁Gho	-12.7618
▁taboo	-12.7622
▁Bond	-12.7631
PL	-12.7635
atus	-12.7636
elling	-12.7637
▁transferr	-12.7638
▁unst	-12.7641
uke	-12.7642
▁incremental	-12.7643
▁Nine	-12.7653
▁stimulat	-12.7657
hun	-12.7663
▁incorporate	-12.7668
▁marks	-12.7679
▁fleet	-12.7684
,8	-12.7704
him	-12.7705
▁nhai	-12.7706
hell	-12.7706
dder	-12.7708
▁journalis	-12.7711
▁Arms	-12.7712
ken	-12.7713
▁Sandy	-12.7724
CR	-12.7727
▁Mir	-12.7727
lash	-12.774
▁sủ	-12.7743
tification	-12.7757
▁popp	-12.7758
▁equi	-12.7761
▁deer	-12.7765
▁Film	-12.7768
▁persuade	-12.7772
▁ya	-12.7774
▁bombing	-12.7776
▁Rang	-12.7783
▁Mong	-12.7786
▁Ran	-12.7791
▁Fast	-12.7798
huyết	-12.7817
quẳng	-12.7824
▁resemble	-12.7825
▁Havi	-12.7827
▁đắp	-12.7829
▁verbal	-12.7832
▁frontal	-12.7837
▁sling	-12.7838
▁24-	-12.7847
fat	-12.7851
bble	-12.7852
▁op	-12.7857
▁Preg	-12.7867
read	-12.7868
etz	-12.7881
TC	-12.7891
▁Bren	-12.7894
endo	-12.7896
▁Bear	-12.7903
▁Blog	-12.7904
hall	-12.7907
ò	-12.7908
33	-12.7908
▁electromagneti	-12.7919
▁spec	-12.7926
▁Tham	-12.7926
blew	-12.7931
▁woode	-12.7931
Sh	-12.7932
reach	-12.7933
orient	-12.7941
complete	-12.7944
▁lả	-12.7944
Lee	-12.7945
▁obscure	-12.7945
▁doodl	-12.7946
count	-12.7949
tô	-12.7949
▁Univers	-12.795
talk	-12.7957
▁Bin	-12.7958
color	-12.7958
loo	-12.7958
bling	-12.796
ania	-12.7963
▁explod	-12.7964
sippi	-12.7967
gall	-12.7975
▁polariz	-12.7976
antha	-12.7978
link	-12.7982
▁Sen	-12.7983
ão	-12.7984
▁Pin	-12.7986
▁Scot	-12.7989
▁whiske	-12.7991
3.7	-12.7993
▁spott	-12.7998
▁annoy	-12.8003
▁Jamaica	-12.8003
75	-12.8005
nuit	-12.8005
▁retail	-12.8006
duk	-12.8017
▁Prim	-12.8019
lever	-12.8022
▁listener	-12.8025
▁63	-12.8031
etween	-12.8043
specific	-12.8043
▁nurtur	-12.8045
▁sạc	-12.8047
▁gôn	-12.8049
▁emphasi	-12.8049
▁Snow	-12.805
▁Electro	-12.805
▁Photograph	-12.805
▁bloop	-12.805
▁mutilat	-12.805
prejudice	-12.805
▁Algeria	-12.805
▁Balkan	-12.805
▁Budrus	-12.805
▁Buffet	-12.805
▁Cassini	-12.805
▁Chechnya	-12.805
▁Command	-12.805
▁Feynman	-12.805
▁Hundred	-12.805
▁Simpson	-12.805
▁Trinida	-12.805
▁adjacen	-12.805
▁benign	-12.805
▁conspirac	-12.805
▁diffusion	-12.805
▁frugal	-12.805
▁identification	-12.805
▁interrogat	-12.805
▁millisecond	-12.805
▁modify	-12.805
▁paragraph	-12.805
▁prescription	-12.805
▁reconcile	-12.805
▁reservation	-12.805
▁scoop	-12.805
▁triumph	-12.805
▁unimaginabl	-12.805
▁Eames	-12.805
▁Beatle	-12.805
▁Denisovan	-12.805
▁NSA	-12.805
▁lemon	-12.805
esteem	-12.805
▁Forget	-12.805
▁cymatic	-12.805
▁immerse	-12.805
▁minimize	-12.805
arithm	-12.805
▁provocative	-12.805
▁distill	-12.805
▁virtuo	-12.805
▁spatial	-12.805
▁Vivian	-12.805
▁motorcycle	-12.805
▁Control	-12.805
▁Knee	-12.805
▁utilit	-12.805
▁brake	-12.805
▁Secretary	-12.805
▁Gifford	-12.805
▁Nguy	-12.805
▁competitor	-12.805
▁biosphere	-12.805
▁discard	-12.805
▁assess	-12.805
agme	-12.805
▁echo	-12.805
▁superstar	-12.805
▁Movement	-12.805
▁criticism	-12.805
▁headphone	-12.8051
▁textile	-12.8051
▁Desp	-12.8051
▁draft	-12.8051
▁cabin	-12.8051
▁seawater	-12.8051
▁exile	-12.8051
▁Birds	-12.8051
▁Casa	-12.8051
▁evaluation	-12.8051
▁insult	-12.8052
consistenc	-12.8052
▁manipulation	-12.8052
▁crab	-12.8053
▁grim	-12.8053
▁Magic	-12.8053
▁celebration	-12.8053
▁pollutant	-12.8053
▁attachment	-12.8054
▁Meet	-12.8054
▁sci	-12.8054
▁warfar	-12.8054
▁liễu	-12.8055
▁knot	-12.8055
▁3.5	-12.8055
▁olive	-12.8056
▁Cross	-12.8056
▁distraction	-12.8056
heid	-12.8057
▁Lago	-12.8057
ieber	-12.8057
▁Rica	-12.8058
▁nhẽ	-12.8058
▁thumbs	-12.8059
▁Bagh	-12.8062
▁upgrade	-12.8063
▁ín	-12.8063
▁trunk	-12.8063
▁temporal	-12.8064
▁Roll	-12.8064
▁Deb	-12.8065
▁chef	-12.8066
▁Word	-12.8066
▁toaster	-12.8067
▁consideration	-12.8068
▁technologist	-12.8069
Murdo	-12.8069
▁Sina	-12.807
▁idiot	-12.8071
▁loã	-12.8072
▁1.7	-12.8077
▁outward	-12.8079
▁hypothes	-12.808
vada	-12.8081
iev	-12.8082
▁liter	-12.8087
winn	-12.8087
▁acquir	-12.8089
ode	-12.8089
wler	-12.8091
▁Slow	-12.8093
▁Live	-12.8104
uza	-12.8112
▁semina	-12.8114
▁Designer	-12.8116
inner	-12.8117
friendl	-12.8119
▁forge	-12.812
fee	-12.8121
▁traumatic	-12.8121
▁zip	-12.8121
▁Jaw	-12.8124
▁dè	-12.8129
▁Hal	-12.8129
▁Victorian	-12.8131
▁scu	-12.8132
▁reasonabl	-12.8146
▁ròng	-12.8146
▁Honor	-12.815
▁Sala	-12.815
vian	-12.815
▁backup	-12.8156
▁vv	-12.816
▁Kant	-12.818
▁laz	-12.818
▁follower	-12.8181
raw	-12.8183
▁Carro	-12.8187
▁criticize	-12.819
▁remark	-12.8194
▁sock	-12.8196
▁manufacture	-12.8203
pam	-12.8205
▁Pur	-12.8205
SS	-12.8208
▁Loa	-12.8209
golia	-12.8212
estone	-12.8212
▁capitalist	-12.8222
▁soda	-12.8223
▁survivors	-12.8223
▁Ger	-12.8225
▁revolutionize	-12.8226
▁Beth	-12.8227
600	-12.8227
▁4000	-12.8228
▁biologically	-12.823
amara	-12.825
▁rubb	-12.8263
▁merge	-12.8272
▁nai	-12.8274
▁khờ	-12.8278
▁ED	-12.8281
mega	-12.8294
▁Syrian	-12.8296
▁Cod	-12.8297
▁Sony	-12.8303
▁Sim	-12.8306
▁recreate	-12.8312
generation	-12.8314
▁balanc	-12.8317
▁sensibl	-12.8319
▁Jeann	-12.8319
▁Kath	-12.8323
▁Gian	-12.8328
▁wit	-12.8333
▁geographical	-12.8333
▁bịch	-12.8334
wo	-12.834
oja	-12.8341
▁Though	-12.8341
▁digest	-12.8342
▁pun	-12.8343
pling	-12.8351
▁UC	-12.8351
▁lap	-12.8373
▁gamer	-12.8377
heart	-12.8379
roll	-12.8383
▁Sub	-12.8392
lib	-12.84
waves	-12.8403
▁reflectiv	-12.8407
otion	-12.8413
▁nit	-12.8414
▁starch	-12.8415
▁secondar	-12.842
▁Agen	-12.8421
haired	-12.8436
▁mytholog	-12.8438
▁auditor	-12.844
chel	-12.8445
▁Pakistani	-12.8447
pack	-12.8455
erk	-12.8458
roth	-12.8461
▁thê	-12.8466
▁insur	-12.8467
organic	-12.847
piece	-12.847
brand	-12.847
green	-12.8471
▁miên	-12.8474
▁gò	-12.8474
Tôi	-12.8479
▁cycl	-12.8482
xí	-12.8484
▁emitt	-12.8495
▁Quản	-12.8496
▁collaps	-12.8497
▁Fai	-12.851
type	-12.8516
▁morally	-12.8516
▁Beck	-12.8517
hủng	-12.8519
▁astronom	-12.8527
▁disturb	-12.8529
▁commute	-12.8535
SDA	-12.8539
▁Swe	-12.8544
▁calcul	-12.8544
▁humbl	-12.8549
cap	-12.8555
▁mị	-12.8557
▁Burg	-12.856
lude	-12.8561
clusion	-12.8563
disciplinar	-12.8564
▁intellect	-12.8564
▁Fr	-12.8564
▁Use	-12.8565
ampaign	-12.8572
▁refrigerat	-12.8573
arina	-12.8573
scribe	-12.8575
▁manifest	-12.8575
▁thạc	-12.8575
ltimate	-12.8576
▁Mount	-12.8576
▁deplet	-12.8576
▁Common	-12.8576
▁Language	-12.8576
▁Laptop	-12.8576
▁Record	-12.8576
▁Schwarz	-12.8576
▁Serious	-12.8576
▁WorldWide	-12.8576
▁absurd	-12.8576
▁acquisition	-12.8576
▁adrenalin	-12.8576
▁catastrophe	-12.8576
▁certificate	-12.8576
▁convenience	-12.8576
▁curator	-12.8576
▁institute	-12.8576
▁margins	-12.8576
▁mortgage	-12.8576
▁occupie	-12.8576
▁skyscraper	-12.8576
▁spiral	-12.8576
▁steward	-12.8576
▁tribute	-12.8576
▁turtle	-12.8576
▁voluntar	-12.8576
▁accumulati	-12.8576
▁fuzz	-12.8576
▁perfume	-12.8576
▁pivot	-12.8576
▁slate	-12.8576
▁mafia	-12.8576
▁spouse	-12.8576
▁rigorous	-12.8576
▁pneumo	-12.8576
▁sync	-12.8576
▁vibran	-12.8576
fensive	-12.8576
▁escalat	-12.8576
▁interfere	-12.8576
▁Bowl	-12.8576
▁Viagra	-12.8576
▁matern	-12.8576
▁statue	-12.8576
▁jacket	-12.8576
▁Isabel	-12.8576
▁owl	-12.8576
▁spoil	-12.8576
▁Fifty	-12.8576
▁tinker	-12.8576
▁alpha	-12.8576
▁Biến	-12.8576
▁cochlea	-12.8576
▁strat	-12.8576
▁nonverbal	-12.8576
▁Hungarian	-12.8577
▁deceive	-12.8577
▁verge	-12.8577
▁Nhớ	-12.8577
▁missile	-12.8577
▁orientation	-12.8577
▁Portug	-12.8577
▁Frederic	-12.8577
▁flick	-12.8577
▁synapse	-12.8577
▁hurdle	-12.8577
▁urbanization	-12.8578
▁Pearl	-12.8578
▁sociologist	-12.8578
▁Sacr	-12.8578
▁Marx	-12.8578
racial	-12.8578
▁microbi	-12.8578
▁catalog	-12.8578
▁quark	-12.8579
▁Change	-12.8579
▁consultant	-12.8579
▁shave	-12.8579
▁vanish	-12.8579
▁tứ	-12.858
▁Born	-12.858
▁innate	-12.858
▁crater	-12.858
▁Libra	-12.858
▁beast	-12.858
▁hug	-12.8581
▁bulk	-12.8581
▁violation	-12.8582
▁Humanity	-12.8582
▁council	-12.8582
▁Grey	-12.8582
▁Liz	-12.8583
▁vow	-12.8584
▁ideological	-12.8584
▁midst	-12.8584
▁Brun	-12.8584
▁cỗi	-12.8586
27	-12.8588
▁compris	-12.8588
▁Blackberr	-12.8588
▁Million	-12.8589
▁abstraction	-12.8589
▁Whole	-12.8589
▁Kite	-12.8589
▁vein	-12.859
▁paradi	-12.859
▁Veg	-12.859
▁constitute	-12.8591
▁1.8	-12.8591
▁halve	-12.8592
▁Artist	-12.8593
▁slap	-12.8594
▁depriv	-12.8597
▁collar	-12.8597
▁DH	-12.8598
▁potent	-12.8598
▁Stalin	-12.8598
▁mili	-12.8599
▁Pope	-12.8601
psychotic	-12.8601
▁Há	-12.8606
▁Animal	-12.8608
▁damag	-12.8613
▁Costa	-12.8614
▁mock	-12.8616
▁augmented	-12.8621
▁startling	-12.8621
▁teache	-12.8621
▁Jen	-12.8624
▁cosmo	-12.8625
too	-12.8625
▁mysteri	-12.8626
beta	-12.8626
▁migrat	-12.8627
▁lip	-12.8627
▁Cười	-12.863
ngue	-12.8631
etti	-12.8631
▁quiz	-12.8633
▁71	-12.8633
urgenc	-12.8634
▁Working	-12.8634
▁canxi	-12.8635
eck	-12.8636
▁forger	-12.8638
▁Call	-12.864
▁Barbi	-12.864
▁estimat	-12.8641
cultural	-12.8642
▁khuya	-12.8642
▁tender	-12.8644
▁Thanh	-12.8647
enos	-12.8647
verly	-12.865
owa	-12.8651
entrepreneurship	-12.8651
▁employer	-12.8653
▁Sue	-12.8655
bel	-12.8657
▁Leh	-12.866
▁Sting	-12.8661
▁Burk	-12.8663
▁confer	-12.8667
▁forum	-12.8673
▁lẽo	-12.8673
▁sketche	-12.8674
▁optimize	-12.8675
ợc	-12.8676
cles	-12.8691
▁vạ	-12.8691
▁Ow	-12.8692
▁62	-12.8693
▁Iraqi	-12.8694
▁orient	-12.8704
▁Bring	-12.8708
▁18-	-12.871
▁NA	-12.8727
▁tem	-12.8737
void	-12.8738
escent	-12.8742
62	-12.8746
NH	-12.8756
▁mistaken	-12.8759
▁Blai	-12.8774
▁racis	-12.8781
▁Nhu	-12.8785
rocco	-12.8785
▁Test	-12.8787
▁fu	-12.879
▁Send	-12.8802
▁Hany	-12.8804
▁mĩ	-12.8818
▁2,5	-12.8823
▁culturally	-12.883
arable	-12.8832
▁Burm	-12.8839
▁Lã	-12.8841
▁Aid	-12.8844
▁commentar	-12.8844
▁Kara	-12.8846
▁Kell	-12.8847
▁appl	-12.8852
▁geographic	-12.8857
▁ambigu	-12.8872
ót	-12.8889
omic	-12.8898
▁promot	-12.8904
▁developmental	-12.8907
▁folk	-12.8909
gai	-12.8911
rise	-12.8915
▁pea	-12.8918
▁Hero	-12.892
▁Petr	-12.892
TA	-12.8924
▁6000	-12.8931
▁Por	-12.8943
▁soar	-12.8943
▁Penn	-12.8947
▁yard	-12.8952
▁graduat	-12.8959
finishe	-12.8962
door	-12.8964
direct	-12.8967
▁Tah	-12.8969
axis	-12.8974
▁vet	-12.8977
▁plac	-12.8977
engineer	-12.8979
xở	-12.899
▁Jur	-12.9002
imba	-12.9008
▁JE	-12.9014
▁170	-12.9019
cast	-12.902
front	-12.9021
adequate	-12.9023
fashion	-12.9026
communication	-12.9026
sexual	-12.9026
government	-12.9026
structure	-12.9026
securit	-12.9026
bốn	-12.9027
national	-12.9028
turn	-12.9031
aval	-12.9033
▁transformati	-12.9039
angle	-12.9039
SM	-12.9041
▁Walt	-12.9041
worm	-12.9042
▁Cut	-12.9048
▁Nan	-12.9049
▁gở	-12.9053
▁Chim	-12.9057
ogue	-12.9061
divid	-12.9076
▁Brea	-12.9077
▁sneak	-12.9081
▁Luri	-12.9083
▁augment	-12.9085
▁electro	-12.9085
▁Ske	-12.9097
▁sonic	-12.9099
▁Lợ	-12.9101
▁Tuc	-12.9107
▁Teach	-12.9108
▁undergo	-12.9109
▁Kob	-12.9116
▁66	-12.9117
EC	-12.9123
▁grace	-12.9123
▁Roa	-12.9125
caust	-12.9127
▁decorat	-12.9128
▁indicati	-12.9128
▁nặn	-12.9129
▁communi	-12.913
▁prosper	-12.913
▁Victor	-12.9131
asia	-12.9131
anthrop	-12.9132
junction	-12.9132
▁Bitcoin	-12.9132
▁Club	-12.9132
▁Derart	-12.9132
▁Elliot	-12.9132
▁Group	-12.9132
▁Hoffman	-12.9132
▁Laborator	-12.9132
▁MOOC	-12.9132
▁Myhrvold	-12.9132
▁Shack	-12.9132
▁Sophia	-12.9132
▁Torosaurus	-12.9132
▁Wisconsin	-12.9132
▁affair	-12.9132
▁attorney	-12.9132
▁carcinogen	-12.9132
▁cricket	-12.9132
▁cumulative	-12.9132
▁fingertip	-12.9132
▁fluorescen	-12.9132
▁glory	-12.9132
▁grassroots	-12.9132
▁gravitational	-12.9132
▁inclusive	-12.9132
▁meadow	-12.9132
▁mutant	-12.9132
▁ozone	-12.9132
▁reckless	-12.9132
▁rẩy	-12.9132
▁savanna	-12.9132
▁scatter	-12.9132
▁scrambl	-12.9132
▁semester	-12.9132
▁technician	-12.9132
▁turbine	-12.9132
▁unequal	-12.9132
▁unnecessar	-12.9132
▁vector	-12.9132
▁widow	-12.9132
▁Gross	-12.9132
▁Randolph	-12.9132
▁essay	-12.9132
▁pepper	-12.9132
▁resort	-12.9132
▁Differen	-12.9132
▁boreal	-12.9132
▁forecast	-12.9132
▁reciproc	-12.9132
▁Question	-12.9132
▁bruise	-12.9132
▁dictate	-12.9132
▁initiate	-12.9132
▁rival	-12.9132
▁McGoni	-12.9132
▁Skid	-12.9132
▁Suzan	-12.9132
▁illitera	-12.9132
▁biograph	-12.9132
▁lexicograph	-12.9132
▁roommate	-12.9132
▁transaction	-12.9132
▁trọt	-12.9132
▁vegetati	-12.9132
▁Maslow	-12.9132
▁comedian	-12.9132
▁curtain	-12.9132
▁feasib	-12.9132
▁rediscover	-12.9132
▁Ridge	-12.9132
▁peacekeep	-12.9132
tigr	-12.9132
Houston	-12.9132
▁Abd	-12.9132
▁larva	-12.9132
▁Krist	-12.9132
▁audaci	-12.9132
▁Airstream	-12.9132
▁obligation	-12.9132
▁battlefield	-12.9132
partisan	-12.9132
▁porn	-12.9132
▁biotech	-12.9132
▁landfill	-12.9132
▁Oxy	-12.9132
▁1976	-12.9132
▁passport	-12.9132
nnica	-12.9132
▁Hyper	-12.9133
▁747	-12.9133
▁distinctive	-12.9133
▁alliance	-12.9133
▁manifestation	-12.9133
eanor	-12.9133
▁Titanic	-12.9133
▁admitted	-12.9133
▁communist	-12.9133
▁nhổ	-12.9133
▁flush	-12.9133
▁persever	-12.9133
▁cellulos	-12.9134
▁Protect	-12.9134
▁railway	-12.9134
▁Grow	-12.9134
▁hallway	-12.9134
MU	-12.9135
▁Duke	-12.9135
▁restoration	-12.9135
▁expressive	-12.9135
bama	-12.9136
▁appar	-12.9136
▁airline	-12.9137
▁anomal	-12.9138
opoly	-12.9138
▁attraction	-12.9139
▁Cruze	-12.9139
▁condense	-12.914
▁Town	-12.9141
▁Islamist	-12.9141
▁Often	-12.9142
▁fertiliz	-12.9143
▁Rule	-12.9143
lester	-12.9144
▁freeway	-12.9145
▁thớ	-12.9145
▁Evi	-12.9145
▁planetary	-12.9146
pas	-12.9146
▁Cash	-12.9147
▁Gaga	-12.9147
▁rela	-12.9147
▁Chip	-12.9148
▁Axi	-12.9148
▁Tiên	-12.9148
▁navigat	-12.9149
▁belt	-12.9151
▁hunch	-12.9152
▁Mauri	-12.9152
▁Vui	-12.9152
upta	-12.9155
▁Khali	-12.9155
plin	-12.9157
▁Matth	-12.9157
focal	-12.9159
▁sỡ	-12.916
nburg	-12.9161
▁Holo	-12.9161
▁ador	-12.9161
▁SI	-12.9161
loa	-12.9163
▁refus	-12.9165
▁improvis	-12.9169
▁Mê	-12.9176
▁paraly	-12.9178
▁ignoran	-12.9179
▁thunder	-12.9179
▁evaporate	-12.9181
▁mịn	-12.9181
▁cris	-12.9181
hearted	-12.9182
▁Đề	-12.9183
▁mí	-12.9183
▁timeline	-12.9184
erba	-12.9188
▁Mulli	-12.919
▁hun	-12.919
ijan	-12.919
▁scaling	-12.9194
▁reuse	-12.9197
▁runner	-12.9205
vald	-12.9205
▁Brent	-12.9209
▁Jacobs	-12.9209
▁Gram	-12.9219
▁Taj	-12.922
▁Nint	-12.9226
▁observer	-12.9229
▁LM	-12.9233
lê	-12.9235
▁lự	-12.9237
ethan	-12.9238
koko	-12.9239
ggle	-12.924
▁adequate	-12.9242
handler	-12.9245
▁Shirk	-12.9247
▁doodle	-12.925
▁projector	-12.925
▁Runn	-12.9255
▁Kaa	-12.9256
▁psyche	-12.9259
▁Cous	-12.926
▁Mori	-12.9261
▁swap	-12.9265
▁controller	-12.9266
▁Engel	-12.9267
▁mindful	-12.9273
▁đả	-12.9274
▁Lion	-12.9276
▁Lau	-12.9286
▁reliev	-12.9288
▁bully	-12.9289
▁evaluat	-12.9293
▁painter	-12.9295
▁coil	-12.9303
ija	-12.9303
▁Hazle	-12.9304
mber	-12.9304
ieu	-12.9305
▁Lynn	-12.9312
▁Ata	-12.9313
▁temper	-12.9316
▁Khad	-12.9321
▁raft	-12.933
uhan	-12.9331
bart	-12.934
▁submitt	-12.934
▁Rocke	-12.9343
▁explorers	-12.9344
onference	-12.935
onald	-12.935
▁defi	-12.9354
▁Stra	-12.9365
▁rev	-12.9366
▁nghẹ	-12.9368
▁hind	-12.9369
elect	-12.939
Chống	-12.9391
ehr	-12.9394
▁heroin	-12.94
▁examin	-12.9405
▁slipp	-12.941
tric	-12.942
ears	-12.942
vision	-12.9424
matic	-12.9427
▁divine	-12.9427
fford	-12.9428
▁ze	-12.9433
abul	-12.9435
▁Ker	-12.9435
▁Gol	-12.9445
▁forbid	-12.9447
▁Nia	-12.9449
ripped	-12.945
▁causal	-12.9452
▁chò	-12.9455
home	-12.9459
isco	-12.9463
otice	-12.9465
▁merg	-12.9468
quat	-12.9474
▁vê	-12.9478
gate	-12.9487
▁stab	-12.9488
itis	-12.9495
▁corporation	-12.9496
lateral	-12.9502
vul	-12.9505
▁collaborat	-12.9507
enzi	-12.9508
▁Lev	-12.9511
▁carve	-12.9513
▁oppress	-12.9513
▁pickle	-12.9524
▁surge	-12.9525
họn	-12.9536
eric	-12.9539
lair	-12.954
▁analyst	-12.954
ipping	-12.9543
ượ	-12.9547
▁vent	-12.9547
▁standardize	-12.9551
▁plott	-12.9556
▁Safe	-12.9557
utilize	-12.9561
▁Bán	-12.9566
abba	-12.9579
▁Stud	-12.9581
▁Financ	-12.9583
Card	-12.9587
gence	-12.959
▁Suga	-12.9597
08	-12.9608
gaga	-12.9609
brush	-12.9613
opening	-12.9614
carbon	-12.9614
bound	-12.9615
mouth	-12.9615
track	-12.9615
shine	-12.9615
▁nhún	-12.9625
▁Par	-12.9626
65	-12.9631
onica	-12.9636
risk	-12.9637
▁clone	-12.964
▁behav	-12.964
▁fisherm	-12.9644
trans	-12.9656
▁190	-12.9657
ET	-12.9659
▁UN	-12.966
▁relativ	-12.9671
▁devastat	-12.9671
▁snap	-12.9673
▁loà	-12.9683
MCA	-12.9684
tyl	-12.9685
▁whip	-12.969
▁650	-12.969
▁restor	-12.9696
rưở	-12.9698
▁Sho	-12.9699
▁academ	-12.97
▁bent	-12.9703
▁Sky	-12.9713
▁physiolog	-12.9714
▁anthropolog	-12.9716
▁Sợ	-12.9718
ES	-12.9718
polis	-12.972
▁hippocamp	-12.972
▁deceptive	-12.972
▁fraud	-12.972
▁premature	-12.972
▁Extreme	-12.972
▁Instagram	-12.972
▁Kuwait	-12.972
▁Turbo	-12.972
▁accommodate	-12.972
▁administrator	-12.972
▁appliance	-12.972
▁autobiograph	-12.972
▁biodegrad	-12.972
▁compliment	-12.972
▁disadvantage	-12.972
▁exclude	-12.972
▁eyebrow	-12.972
▁festival	-12.972
▁friction	-12.972
▁hilarious	-12.972
▁incubator	-12.972
▁marshmallow	-12.972
▁plaque	-12.972
▁prevail	-12.972
▁pronounce	-12.972
▁recipient	-12.972
▁relevanc	-12.972
▁respirator	-12.972
▁sabbatical	-12.972
▁sensitivit	-12.972
▁smuggl	-12.972
▁specimen	-12.972
▁susceptib	-12.972
▁terawatt	-12.972
▁vibrate	-12.972
▁windmill	-12.972
pocalyp	-12.972
▁Hebrew	-12.972
▁audition	-12.972
▁delusion	-12.972
▁fungus	-12.972
▁inexpensive	-12.972
▁testimon	-12.972
▁anticipati	-12.972
▁honeybee	-12.972
▁residu	-12.972
▁stagna	-12.972
▁swarm	-12.972
▁wreck	-12.972
▁Major	-12.972
▁affirm	-12.972
▁Creative	-12.972
▁subconscious	-12.972
▁aspire	-12.972
fidel	-12.972
▁bạt	-12.972
▁gáy	-12.972
▁Tulle	-12.972
terdam	-12.972
▁Snowden	-12.972
▁memorabl	-12.972
▁subsequent	-12.972
▁Pyth	-12.972
▁Politic	-12.972
▁maximize	-12.972
▁hyena	-12.972
▁composite	-12.972
▁sulf	-12.972
▁distress	-12.972
▁persistent	-12.972
▁priest	-12.972
▁crude	-12.972
▁fluctuation	-12.972
▁logistic	-12.972
▁atheist	-12.972
▁reply	-12.972
▁genomic	-12.972
▁queue	-12.972
▁Ninety	-12.9721
▁outrageous	-12.9721
▁1978	-12.9721
▁Compare	-12.9721
▁guideline	-12.9721
▁Bernard	-12.9721
▁Fight	-12.9721
▁McL	-12.9721
▁font	-12.9721
▁worthwhile	-12.9721
▁trustworth	-12.9721
▁Invest	-12.9721
▁slavery	-12.9721
▁promotion	-12.9722
▁breakdown	-12.9722
▁bombard	-12.9722
▁pollinator	-12.9722
▁crust	-12.9722
▁dislike	-12.9722
▁spear	-12.9723
▁Honey	-12.9723
▁roost	-12.9723
▁slash	-12.9723
▁Silver	-12.9723
▁deployment	-12.9723
▁joyful	-12.9723
▁Tijuana	-12.9723
▁infra	-12.9723
▁dementi	-12.9723
▁Poet	-12.9723
▁vacan	-12.9723
▁TNC	-12.9723
▁simplify	-12.9723
▁quỳ	-12.9723
▁commandment	-12.9724
zoning	-12.9724
essage	-12.9724
lô	-12.9724
weil	-12.9724
▁astronomical	-12.9725
▁Market	-12.9725
▁trek	-12.9725
▁sút	-12.9726
▁physiological	-12.9726
▁reconnect	-12.9727
▁disruption	-12.9727
industrial	-12.9727
▁giũ	-12.9728
▁morph	-12.9728
▁Brain	-12.9729
▁compact	-12.973
enny	-12.9731
rọng	-12.9731
Monkey	-12.9732
▁PT	-12.9732
▁Titan	-12.9732
▁interg	-12.9732
▁giòn	-12.9733
▁shortage	-12.9735
▁peel	-12.9735
▁Botto	-12.9736
▁gaze	-12.9736
ello	-12.9737
▁Ragu	-12.9737
▁Barry	-12.9738
withstand	-12.9738
▁Page	-12.9739
crony	-12.974
▁Break	-12.9741
▁chew	-12.9745
▁Aria	-12.9745
▁disgusting	-12.9747
▁Tree	-12.9748
▁Mino	-12.975
▁sponge	-12.9751
infall	-12.9754
bach	-12.9755
▁Side	-12.9756
▁diplomat	-12.9756
▁geneticist	-12.9759
spot	-12.9761
▁TG	-12.9764
▁Joan	-12.9766
▁blurr	-12.9767
tomy	-12.9769
▁linguistic	-12.9775
▁plankton	-12.9776
▁visionar	-12.9777
vicini	-12.9777
▁popped	-12.9779
▁Mus	-12.9781
▁Planet	-12.9785
▁HS	-12.9787
▁doubl	-12.9794
▁activati	-12.9794
▁Gues	-12.9795
uyễn	-12.9799
▁Carolin	-12.9801
confidence	-12.9806
▁metaphorical	-12.9811
▁lik	-12.9811
▁Vai	-12.9812
scot	-12.9814
▁Dead	-12.9814
▁Phổ	-12.9821
▁outline	-12.9824
▁hurr	-12.9825
istine	-12.9826
▁Forb	-12.9826
▁Vik	-12.9827
monia	-12.9828
▁Cel	-12.9831
▁inquir	-12.9832
▁Dun	-12.9835
▁LA	-12.9837
▁infuse	-12.9837
▁Robi	-12.9838
▁builder	-12.9839
▁doom	-12.9841
▁Glenn	-12.9844
▁Mayan	-12.9852
▁rein	-12.9853
range	-12.9854
▁venue	-12.9862
▁gào	-12.9865
àu	-12.9867
▁giở	-12.9868
▁PR	-12.9868
bab	-12.9875
ould	-12.9877
▁Jar	-12.9886
▁liê	-12.9893
▁Land	-12.9894
▁Haa	-12.9901
▁Leg	-12.9907
▁Ster	-12.9911
▁carbonate	-12.9918
▁influenc	-12.9921
aptain	-12.9921
▁foreigner	-12.9932
bright	-12.9934
solv	-12.9936
▁Mun	-12.9936
đi	-12.994
nnie	-12.9951
Gregor	-12.9956
▁Dys	-12.9969
▁embody	-12.997
▁belonging	-12.997
▁synchroniz	-12.9971
64	-12.9975
▁Jung	-12.9975
▁prototyp	-12.9981
▁attacker	-12.9992
▁clarif	-12.9994
▁serv	-12.9994
▁cù	-12.9996
zel	-12.9999
▁chill	-13.0005
most	-13.0005
▁considerabl	-13.0006
▁nò	-13.0012
hạy	-13.002
▁dế	-13.0028
emia	-13.0028
fell	-13.0034
▁Flo	-13.0038
▁wrestle	-13.0041
▁yế	-13.005
▁swo	-13.005
▁Gut	-13.0057
rori	-13.0065
guar	-13.0069
▁frie	-13.0077
vasive	-13.0077
▁nú	-13.0077
▁Phó	-13.0089
▁verse	-13.0092
▁environmentally	-13.0101
▁exceptional	-13.0108
fall	-13.0109
built	-13.0113
▁satisf	-13.0116
TV	-13.0121
▁holder	-13.0123
▁nudge	-13.013
eez	-13.0132
▁ngà	-13.0135
flu	-13.0141
▁desir	-13.0143
▁mau	-13.0145
▁Tz	-13.0146
zk	-13.0148
▁circula	-13.015
20.000	-13.0153
dental	-13.0156
rance	-13.0161
ickli	-13.0162
▁IV	-13.0164
▁explorer	-13.0169
▁Sug	-13.0172
▁Lak	-13.0173
bie	-13.0174
via	-13.0176
grad	-13.0186
6,000	-13.0186
▁nut	-13.0187
▁Kho	-13.019
ussel	-13.0192
▁pollinate	-13.0195
▁Moi	-13.0197
stick	-13.0204
▁rotat	-13.0206
play	-13.0221
▁lighter	-13.0222
▁Rah	-13.0235
sensitive	-13.0238
wheel	-13.0239
week	-13.024
walk	-13.0241
▁weave	-13.0241
check	-13.0243
TB	-13.0243
luck	-13.0252
nonymous	-13.0256
Pes	-13.0258
▁Eight	-13.0259
▁reside	-13.0262
▁Uncle	-13.0265
▁Oc	-13.0267
ivers	-13.0271
▁Jacob	-13.0276
imbo	-13.0276
▁Trả	-13.0277
▁pursui	-13.0281
ucker	-13.0283
▁Dance	-13.0285
▁legend	-13.0292
▁Hono	-13.0305
▁Spi	-13.0305
▁lymph	-13.0311
98	-13.0312
proving	-13.0313
ckel	-13.0315
HD	-13.0319
▁spectro	-13.0326
andel	-13.0329
▁Daw	-13.033
ailed	-13.0333
help	-13.0333
▁lobby	-13.0338
ườn	-13.0339
▁prosecut	-13.0339
pecies	-13.0343
epression	-13.0344
▁excess	-13.0344
rosoc	-13.0345
Thousands	-13.0345
▁AlloSphere	-13.0345
▁Believe	-13.0345
▁Bionicle	-13.0345
▁Budape	-13.0345
▁Current	-13.0345
▁Excuse	-13.0345
▁IPCC	-13.0345
▁KIPP	-13.0345
▁Krishna	-13.0345
▁Kuznet	-13.0345
▁Okinawa	-13.0345
▁Traditional	-13.0345
▁WikiLeaks	-13.0345
▁Wilkins	-13.0345
▁appetite	-13.0345
▁cafeteria	-13.0345
▁carpenter	-13.0345
▁concussion	-13.0345
▁cyborg	-13.0345
▁empirical	-13.0345
▁excerpt	-13.0345
▁extrovert	-13.0345
▁improbab	-13.0345
▁invasion	-13.0345
▁megawatt	-13.0345
▁miraculous	-13.0345
▁nanotube	-13.0345
▁necessit	-13.0345
▁neutron	-13.0345
▁opponent	-13.0345
▁pajama	-13.0345
▁registr	-13.0345
▁responsive	-13.0345
▁ridicule	-13.0345
▁rupee	-13.0345
▁sermon	-13.0345
▁transgender	-13.0345
▁treadmill	-13.0345
▁Nixon	-13.0345
▁Visual	-13.0345
▁arrogan	-13.0345
▁balcon	-13.0345
▁embark	-13.0345
▁sterile	-13.0345
▁submarine	-13.0345
▁template	-13.0345
▁ATM	-13.0345
▁Griffi	-13.0345
▁Hatz	-13.0345
▁ancestr	-13.0345
▁persuasi	-13.0345
▁Kirk	-13.0345
▁Typical	-13.0345
▁grind	-13.0345
▁MAS	-13.0345
▁amyloid	-13.0345
▁cereal	-13.0345
▁exceed	-13.0345
▁sanctuar	-13.0345
▁seamless	-13.0345
▁penetrate	-13.0345
▁stink	-13.0345
▁wingsuit	-13.0345
▁Yellowstone	-13.0345
▁cherish	-13.0345
▁Atkins	-13.0345
▁sentiment	-13.0345
▁Persian	-13.0345
▁scandal	-13.0345
▁Debora	-13.0345
▁mutate	-13.0345
▁Igbo	-13.0345
transcendence	-13.0345
▁Index	-13.0345
▁bladder	-13.0345
▁counterpart	-13.0345
▁oblivio	-13.0345
▁Airport	-13.0345
▁wetsuit	-13.0345
▁boson	-13.0345
▁Natal	-13.0345
▁charisma	-13.0345
▁Personal	-13.0345
▁fingerprint	-13.0345
▁Jorge	-13.0345
▁throat	-13.0345
▁nomad	-13.0345
▁pollination	-13.0345
▁1981	-13.0345
▁flame	-13.0345
▁1953	-13.0345
▁resign	-13.0345
▁Durga	-13.0346
▁nanoscale	-13.0346
▁Dhara	-13.0346
▁blueprint	-13.0346
▁McG	-13.0346
uja	-13.0346
▁Greenville	-13.0346
▁1977	-13.0346
▁fridge	-13.0346
darin	-13.0346
▁1963	-13.0346
▁Saint	-13.0346
▁pinpoint	-13.0346
razo	-13.0346
▁heartbreak	-13.0346
irming	-13.0346
▁navigation	-13.0346
▁Sachs	-13.0347
litary	-13.0347
▁Solar	-13.0347
▁Verme	-13.0347
▁forgiveness	-13.0347
▁blade	-13.0348
▁Mind	-13.0348
hreddi	-13.0348
tiba	-13.0348
▁Darwinian	-13.0348
▁indication	-13.0348
▁flatten	-13.0349
▁cynic	-13.0349
▁payoff	-13.0349
▁1,5	-13.035
▁spam	-13.035
▁Dust	-13.035
▁Schul	-13.035
borough	-13.035
▁clash	-13.0351
▁Umar	-13.0351
▁Smithson	-13.0351
▁Cooki	-13.0351
▁Thatcher	-13.0352
▁conductor	-13.0352
▁merc	-13.0353
▁Want	-13.0353
▁Ground	-13.0353
▁Atala	-13.0354
▁roughness	-13.0354
▁Watt	-13.0354
▁Tiger	-13.0355
▁Hacker	-13.0355
▁aggregate	-13.0356
▁dốt	-13.0356
▁tailor	-13.0356
undi	-13.0357
▁enthusiastic	-13.0357
▁extraction	-13.0357
▁disk	-13.0357
▁spaceship	-13.0358
▁TM	-13.0358
▁Smart	-13.0358
▁Mmm	-13.0358
▁Earle	-13.0358
▁graceful	-13.036
▁Gell	-13.036
▁tourist	-13.036
blanc	-13.0361
▁booth	-13.0361
▁converge	-13.0362
▁Claus	-13.0363
▁Player	-13.0364
▁Fold	-13.0367
▁correction	-13.0368
▁Porter	-13.0369
▁AI	-13.037
party	-13.037
mostat	-13.0375
▁Flore	-13.0378
▁Champ	-13.0379
rink	-13.038
▁bugg	-13.038
▁Mohamed	-13.038
UV	-13.0385
▁Kerry	-13.0385
▁respectful	-13.0389
▁mania	-13.0389
▁clapp	-13.0389
▁nhì	-13.0391
pathetic	-13.0395
urich	-13.0396
▁badge	-13.0398
▁Arno	-13.0398
▁thro	-13.0398
▁Daily	-13.0399
▁knit	-13.0403
▁bait	-13.0403
▁sane	-13.0404
TT	-13.0405
hili	-13.0406
hiền	-13.0406
▁gland	-13.0409
▁subsid	-13.0412
▁ươ	-13.0413
-10	-13.0414
▁Short	-13.0414
idan	-13.0414
hatred	-13.0416
▁whistl	-13.0417
▁partially	-13.0421
▁Chap	-13.0424
▁Golden	-13.0424
90	-13.0425
▁Canal	-13.0427
▁Near	-13.0429
▁Denis	-13.0431
▁funder	-13.0435
▁blessing	-13.0442
ogical	-13.0443
▁Fabi	-13.0445
▁Antoni	-13.0445
▁Beyon	-13.0447
rail	-13.0448
▁crisp	-13.0451
lera	-13.0455
▁buyer	-13.0455
▁nọc	-13.0463
▁Ree	-13.0467
rrow	-13.0474
MM	-13.0476
▁certifi	-13.0479
addy	-13.0479
▁trail	-13.048
▁redefin	-13.048
▁populat	-13.0483
▁Quyế	-13.0484
▁defender	-13.0488
▁lag	-13.0491
37	-13.0491
▁bợ	-13.0493
▁Paol	-13.0493
▁locomoti	-13.0496
▁dispers	-13.05
▁marking	-13.0503
▁Tomb	-13.0504
▁undermine	-13.0511
▁Siri	-13.0511
▁pup	-13.0511
hemo	-13.0512
▁vascular	-13.0527
▁73	-13.0527
▁bíp	-13.0529
▁bureaucrat	-13.0531
▁SM	-13.0539
▁gân	-13.0545
▁horn	-13.0552
4,000	-13.0564
▁fisher	-13.0568
▁functionalit	-13.0571
▁Marine	-13.0575
ouch	-13.0581
▁protester	-13.0585
▁Olde	-13.0592
ourne	-13.0593
▁Lesl	-13.0604
▁Kamen	-13.0617
▁digitiz	-13.0618
▁Atten	-13.0622
10	-13.0632
▁incarcerat	-13.0633
ingdom	-13.0636
▁Hart	-13.0641
axe	-13.0645
▁unto	-13.0652
▁spine	-13.066
▁Thor	-13.0662
incent	-13.0681
▁McKe	-13.0712
ML	-13.0714
▁Genom	-13.0716
iller	-13.0721
chai	-13.0727
42	-13.0728
ragg	-13.0735
▁relie	-13.0751
▁requir	-13.0753
ende	-13.0755
▁emit	-13.0761
action	-13.077
▁Rag	-13.0775
uz	-13.0775
wak	-13.0782
▁Lá	-13.0783
▁reproducti	-13.0785
bster	-13.0785
kov	-13.079
▁186	-13.079
▁survivor	-13.0793
elation	-13.0795
etal	-13.08
▁Sally	-13.0808
▁drawer	-13.0811
mount	-13.0816
ppo	-13.0826
▁handl	-13.0832
▁sò	-13.0832
▁Mó	-13.0834
cycle	-13.0836
unus	-13.0836
eight	-13.0853
▁vơ	-13.0855
leton	-13.0858
you	-13.0864
▁characterize	-13.0871
activat	-13.0875
ứng	-13.0875
▁1,2	-13.0876
usk	-13.0887
▁Conne	-13.0893
cock	-13.0895
▁reimagine	-13.0895
ection	-13.0896
▁Senat	-13.09
pleasant	-13.0904
quarter	-13.0904
▁Genev	-13.0904
perform	-13.0905
balance	-13.0906
design	-13.0906
develop	-13.0906
model	-13.0906
virus	-13.0906
fal	-13.0909
isel	-13.0913
▁degrade	-13.0914
TH	-13.092
▁51	-13.0921
▁destin	-13.0923
▁sq	-13.0924
▁disabilit	-13.0924
▁Environment	-13.0927
gaa	-13.0927
▁Clo	-13.0945
▁Harri	-13.0946
▁uncertain	-13.0948
▁rabbi	-13.0948
▁loá	-13.0949
istry	-13.0953
▁Westerner	-13.096
▁Michoac	-13.0961
môn	-13.0961
▁accord	-13.0965
Hub	-13.0967
▁merit	-13.0969
▁Templ	-13.0973
▁ngơ	-13.0976
▁Scra	-13.0979
40	-13.098
▁tuôn	-13.0981
atri	-13.0986
▁intentional	-13.0992
▁Christin	-13.0992
▁Ethe	-13.0993
▁Heid	-13.0997
ré	-13.0999
niz	-13.0999
eger	-13.0999
▁numer	-13.1
emost	-13.1002
▁Joa	-13.1003
▁hobby	-13.1005
▁sữ	-13.1008
▁hằn	-13.1009
glu	-13.1009
nspired	-13.1011
▁Virgin	-13.1011
▁anonym	-13.1011
utheast	-13.1011
▁misunderst	-13.1011
▁Improv	-13.1011
▁reperto	-13.1011
▁suspens	-13.1011
Script	-13.1011
illuminate	-13.1011
▁Adventist	-13.1011
▁Awesome	-13.1011
▁Certain	-13.1011
▁Exact	-13.1011
▁Harbor	-13.1011
▁Morning	-13.1011
▁Palextin	-13.1011
▁Ptolem	-13.1011
▁Rouge	-13.1011
▁Thursday	-13.1011
▁Whirlwind	-13.1011
▁algebra	-13.1011
▁antidote	-13.1011
▁catalyst	-13.1011
▁craving	-13.1011
▁delicate	-13.1011
▁eager	-13.1011
▁embryo	-13.1011
▁epiphan	-13.1011
▁equator	-13.1011
▁exhilarating	-13.1011
▁fission	-13.1011
▁holistic	-13.1011
▁imprison	-13.1011
▁inferior	-13.1011
▁laureate	-13.1011
▁leisure	-13.1011
▁module	-13.1011
▁participator	-13.1011
▁pavilion	-13.1011
▁picnic	-13.1011
▁plaster	-13.1011
▁plunge	-13.1011
▁prompt	-13.1011
▁qú	-13.1011
▁refresh	-13.1011
▁reunion	-13.1011
▁serendipit	-13.1011
▁sprawl	-13.1011
▁strive	-13.1011
▁0.2	-13.1011
▁Bolivia	-13.1011
▁Malthus	-13.1011
▁altruist	-13.1011
▁contemplati	-13.1011
▁harsh	-13.1011
▁intractable	-13.1011
▁pragmati	-13.1011
▁caffein	-13.1012
▁gossip	-13.1012
▁hazard	-13.1012
▁nhoáng	-13.1012
▁unheal	-13.1012
▁verify	-13.1012
▁Shame	-13.1012
▁Toxo	-13.1012
▁Ahmad	-13.1012
▁Pimp	-13.1012
▁flour	-13.1012
▁histories	-13.1012
▁waist	-13.1012
▁Volta	-13.1012
▁Cesar	-13.1012
▁Taiwan	-13.1012
▁enrich	-13.1012
▁worn	-13.1012
▁supplement	-13.1012
▁moderate	-13.1012
▁Strange	-13.1012
▁quantitative	-13.1012
profe	-13.1012
▁mourn	-13.1012
▁socket	-13.1012
▁pillow	-13.1012
▁Program	-13.1012
▁suburbia	-13.1012
▁google	-13.1012
▁Standard	-13.1012
▁PET	-13.1012
▁appall	-13.1012
▁Monster	-13.1012
▁recreation	-13.1012
▁committee	-13.1012
▁vague	-13.1012
▁budd	-13.1012
▁tolerate	-13.1013
▁hoóc	-13.1013
▁contradiction	-13.1013
▁skydiv	-13.1013
▁allocate	-13.1013
▁toolbox	-13.1013
▁Niels	-13.1013
▁confession	-13.1013
▁ovari	-13.1013
▁Opera	-13.1013
▁plumb	-13.1013
▁royal	-13.1013
▁constructive	-13.1013
▁Holland	-13.1014
▁Damas	-13.1014
▁ngò	-13.1014
phobic	-13.1014
▁Normal	-13.1014
▁fluent	-13.1014
▁cautio	-13.1014
▁nonviolence	-13.1015
▁Fish	-13.1015
tyrann	-13.1015
▁gigant	-13.1015
▁fatty	-13.1015
counterintuitive	-13.1015
libr	-13.1016
▁Pool	-13.1016
▁inhabitant	-13.1016
▁10000	-13.1016
▁Orwell	-13.1017
adema	-13.1017
▁Curt	-13.1018
▁acry	-13.1018
▁lesion	-13.1018
▁relational	-13.1018
▁seren	-13.1018
▁Rena	-13.1018
▁unthink	-13.1018
▁Choice	-13.1018
▁rejection	-13.1019
▁Borde	-13.1019
▁liar	-13.1019
Hz	-13.102
▁Astro	-13.102
▁cult	-13.102
▁dragon	-13.102
▁youngster	-13.1021
▁rigg	-13.1022
▁Diver	-13.1022
ntosh	-13.1022
▁keen	-13.1023
▁reluctant	-13.1023
▁conceivabl	-13.1023
racor	-13.1023
▁placebo	-13.1024
▁revolv	-13.1024
▁cheek	-13.1024
▁meaningless	-13.1025
▁pac	-13.1026
▁delightful	-13.1027
▁apprentice	-13.1027
Foot	-13.1027
SP	-13.1028
▁187	-13.1028
▁Plu	-13.103
▁supplier	-13.1031
▁Reader	-13.1031
▁Arr	-13.1032
lear	-13.1032
▁Crime	-13.1033
yaw	-13.1037
▁Bike	-13.1037
▁Patient	-13.1038
▁Face	-13.1038
▁Maker	-13.1039
▁multitask	-13.1039
▁Usa	-13.1039
▁Demo	-13.1042
ehind	-13.1042
▁puzzl	-13.1042
▁serial	-13.1043
▁Buck	-13.1044
▁carrier	-13.1046
▁accountant	-13.1047
▁hostilit	-13.1048
▁naught	-13.1049
▁empathiz	-13.105
,700	-13.105
▁attain	-13.1051
▁antique	-13.1052
▁lith	-13.1053
▁destructive	-13.1055
▁Barne	-13.1057
▁hót	-13.1059
▁inspect	-13.106
▁DC	-13.106
▁rider	-13.1066
cene	-13.107
▁Math	-13.1073
▁Jamaican	-13.1075
▁thou	-13.1076
▁đễ	-13.1076
▁rabbit	-13.1077
▁replicat	-13.1078
▁Run	-13.108
▁murderer	-13.1081
▁Environmental	-13.1097
▁awaken	-13.1101
▁mimick	-13.1104
▁Eighty	-13.1107
▁Erin	-13.111
▁vest	-13.1112
▁Citi	-13.1115
▁SK	-13.1117
ompassion	-13.1117
▁casualt	-13.1118
▁Lip	-13.1121
▁Cú	-13.114
▁bake	-13.1141
▁swimmer	-13.1145
shak	-13.1145
▁marketer	-13.1154
post	-13.1156
▁bark	-13.1158
▁invade	-13.1159
ublin	-13.117
▁sober	-13.1174
tract	-13.1175
▁marked	-13.1179
▁Made	-13.118
974	-13.1187
▁Chì	-13.1193
orous	-13.1194
lma	-13.1196
agne	-13.1201
3,000	-13.1204
▁illustrat	-13.1205
SE	-13.1206
▁canop	-13.121
urz	-13.1211
▁Alai	-13.122
hore	-13.1229
▁facilitate	-13.1232
▁Dari	-13.1237
▁gentl	-13.1238
▁organizer	-13.124
eats	-13.1246
tense	-13.1246
2.000	-13.1246
▁thiển	-13.1254
arcelo	-13.1266
annon	-13.1279
▁substitute	-13.128
▁tickle	-13.1283
▁dock	-13.1283
arta	-13.1289
under	-13.1294
▁lend	-13.1299
▁disco	-13.1313
alvani	-13.1313
▁dogma	-13.133
▁Arch	-13.1348
agh	-13.1348
▁cub	-13.1354
▁psychiatri	-13.1357
▁gravel	-13.1396
▁Seli	-13.1399
▁sụn	-13.141
▁Seng	-13.1411
▁sandwiche	-13.1415
▁mast	-13.1415
ulling	-13.1416
▁wrinkle	-13.1419
parate	-13.1424
▁7000	-13.1426
▁FE	-13.1426
▁miniatur	-13.1439
▁Kur	-13.1442
ease	-13.1447
iker	-13.1455
▁insula	-13.1455
ova	-13.1463
▁Marcel	-13.1466
▁wav	-13.1487
▁dissolve	-13.1505
67	-13.151
▁flee	-13.1526
▁conserve	-13.1528
▁Adi	-13.1536
▁fog	-13.155
lose	-13.1556
grat	-13.1558
66	-13.1561
▁Hug	-13.1567
▁continual	-13.1575
▁Geo	-13.158
▁expo	-13.1593
26	-13.1603
argon	-13.1607
▁systemic	-13.1611
▁neurologic	-13.1612
organiz	-13.1616
game	-13.1618
machine	-13.162
birth	-13.162
familiar	-13.162
white	-13.162
pattern	-13.162
material	-13.162
infect	-13.1621
catch	-13.1621
cliff	-13.1623
same	-13.163
shot	-13.1639
motivat	-13.1647
burn	-13.165
▁Locke	-13.1654
▁purchas	-13.1654
gawa	-13.1655
terior	-13.1657
▁Angelin	-13.1662
▁activis	-13.1662
▁blur	-13.1668
▁cultivat	-13.167
▁exp	-13.1676
84	-13.1678
▁Beij	-13.168
abo	-13.1691
▁dominan	-13.1692
touch	-13.1693
rosion	-13.1709
▁hù	-13.1711
▁separat	-13.1711
arvin	-13.1714
▁TE	-13.1715
▁Palestin	-13.1716
rief	-13.1719
▁circu	-13.1723
cientific	-13.1723
▁bioluminescen	-13.1724
▁compass	-13.1724
vaccin	-13.1725
▁Secret	-13.1725
nnovation	-13.1725
▁Fifteen	-13.1726
▁choreograph	-13.1726
▁diffuse	-13.1726
▁diminish	-13.1726
▁gelatin	-13.1726
▁perceptual	-13.1726
▁singular	-13.1726
percussion	-13.1726
▁Challenge	-13.1726
▁DARw	-13.1726
▁Engineer	-13.1726
▁Eskimo	-13.1726
▁Fantastic	-13.1726
▁Frankenstein	-13.1726
▁Maasai	-13.1726
▁Magazine	-13.1726
▁Morris	-13.1726
▁NRK	-13.1726
▁Network	-13.1726
▁PSA	-13.1726
▁ROV	-13.1726
▁Search	-13.1726
▁Shephela	-13.1726
▁Solomon	-13.1726
▁ambassador	-13.1726
▁amputee	-13.1726
▁assault	-13.1726
▁bottleneck	-13.1726
▁bundle	-13.1726
▁chậu	-13.1726
▁coalition	-13.1726
▁daunting	-13.1726
▁decisive	-13.1726
▁doctrine	-13.1726
▁elusive	-13.1726
▁embroider	-13.1726
▁exaggerate	-13.1726
▁facade	-13.1726
▁fragrance	-13.1726
▁gadget	-13.1726
▁homosexual	-13.1726
▁humid	-13.1726
▁irrigati	-13.1726
▁lettuce	-13.1726
▁outweigh	-13.1726
▁plummet	-13.1726
▁rainbow	-13.1726
▁reassure	-13.1726
▁rectangle	-13.1726
▁rẫy	-13.1726
▁sapien	-13.1726
▁snack	-13.1726
▁soprano	-13.1726
▁stakeholder	-13.1726
▁superhero	-13.1726
▁taxpayer	-13.1726
▁turbulen	-13.1726
▁Grove	-13.1726
▁cliche	-13.1726
▁condemn	-13.1726
▁discourag	-13.1726
▁ingenious	-13.1726
▁vaccination	-13.1726
▁Parik	-13.1726
▁forensic	-13.1726
▁knob	-13.1726
▁Albania	-13.1726
▁antiretroviral	-13.1726
▁tweak	-13.1726
▁Socrate	-13.1726
▁Tamil	-13.1726
▁shipyard	-13.1726
▁conceive	-13.1726
▁hippie	-13.1726
entagon	-13.1726
▁mangrove	-13.1726
▁ribbon	-13.1726
Colomb	-13.1726
▁Meadow	-13.1726
▁crave	-13.1726
▁milimet	-13.1726
▁Namibia	-13.1726
▁landmine	-13.1726
▁paranoi	-13.1726
▁Hamburg	-13.1726
▁latter	-13.1726
▁Puer	-13.1726
▁99.9	-13.1726
▁prôt	-13.1726
▁patron	-13.1726
▁burger	-13.1726
▁championship	-13.1726
▁juni	-13.1726
▁dictatorship	-13.1726
▁stripped	-13.1726
▁đùi	-13.1726
▁rodent	-13.1726
▁Manju	-13.1726
▁mockingbird	-13.1726
▁Galen	-13.1727
▁telecom	-13.1727
▁1910	-13.1727
▁1926	-13.1727
▁Bund	-13.1727
▁Shap	-13.1727
▁OMG	-13.1727
▁iteration	-13.1727
▁Capit	-13.1727
▁preview	-13.1727
▁Raja	-13.1727
▁ESP	-13.1727
ildes	-13.1727
▁instructor	-13.1727
▁0.5	-13.1727
▁diesel	-13.1727
▁slot	-13.1727
▁terminal	-13.1728
▁Vishn	-13.1728
▁Nauy	-13.1728
▁pedal	-13.1728
▁Raise	-13.1728
▁devastation	-13.1728
▁Patent	-13.1728
▁disagreement	-13.1728
▁dissection	-13.1728
▁Prison	-13.1728
▁Summer	-13.1728
▁Quixote	-13.1728
▁Writ	-13.1729
almon	-13.1729
mja	-13.1729
▁latitude	-13.1729
▁Milan	-13.173
▁slime	-13.173
▁Benoi	-13.173
▁quirk	-13.173
▁Giacom	-13.173
▁lbs	-13.173
▁mandate	-13.173
▁Stephan	-13.173
▁browse	-13.173
▁livelihood	-13.1731
▁Theodor	-13.1731
▁Babb	-13.1731
▁Image	-13.1731
▁Prospera	-13.1731
▁backpack	-13.1732
▁variant	-13.1732
▁grill	-13.1732
▁Pug	-13.1732
▁sword	-13.1732
▁baseline	-13.1733
▁fond	-13.1734
▁restriction	-13.1735
▁foresee	-13.1735
▁Johannes	-13.1735
▁partial	-13.1735
Bird	-13.1736
▁glid	-13.1736
▁FM	-13.1736
▁advancement	-13.1737
▁obs	-13.1737
▁aisle	-13.1738
▁blast	-13.1738
parent	-13.1741
▁Loren	-13.1742
tenance	-13.1742
▁reset	-13.1744
rusha	-13.1745
obal	-13.1745
▁recurren	-13.1745
rillo	-13.1745
llusion	-13.1746
▁1600	-13.1746
▁Block	-13.1747
▁Calcu	-13.1747
▁fearless	-13.1747
▁Tata	-13.175
▁Leave	-13.175
unker	-13.1751
▁judg	-13.1753
▁Sỹ	-13.1753
▁Grave	-13.1753
▁treasure	-13.1754
▁cel	-13.1755
▁instrumental	-13.1755
▁Boe	-13.1761
▁Aspe	-13.1762
▁Torre	-13.1762
▁recorder	-13.1762
▁Kerm	-13.1763
▁uprising	-13.1767
▁Ghr	-13.1769
.3	-13.177
▁boyfriend	-13.1771
▁Nina	-13.1772
▁pale	-13.1776
▁Cultur	-13.1779
▁Luca	-13.1781
▁legendar	-13.1788
▁Musta	-13.1789
▁Lance	-13.1791
▁amuse	-13.1795
▁Architectur	-13.1797
▁charter	-13.1799
eduction	-13.1801
▁dug	-13.1804
haul	-13.1805
▁Laura	-13.1807
▁meritocra	-13.181
raging	-13.1811
▁Brah	-13.1811
▁ró	-13.1813
▁Cave	-13.1816
▁photographic	-13.1816
abasc	-13.1824
esert	-13.1824
▁Chev	-13.1826
▁CB	-13.1827
▁canoe	-13.1828
▁thuyên	-13.1828
▁gum	-13.1831
▁neon	-13.1832
▁alarming	-13.1838
ovic	-13.1844
▁blended	-13.1847
andon	-13.1847
▁bathe	-13.1852
▁handwrit	-13.1853
▁ramp	-13.1854
▁Nak	-13.1865
▁Webb	-13.1865
reek	-13.1867
▁Wind	-13.1871
▁reache	-13.1874
aggie	-13.1875
EG	-13.1879
assa	-13.188
▁invasive	-13.1882
▁Dev	-13.1883
▁Hor	-13.1887
▁Vibr	-13.189
iển	-13.1895
minent	-13.19
▁Pul	-13.1916
▁Rest	-13.1917
▁retrofitt	-13.1919
▁Past	-13.192
▁utiliz	-13.1924
▁Pick	-13.1924
ometric	-13.1935
▁Jod	-13.1935
▁rib	-13.1936
55	-13.1937
▁Laure	-13.1938
▁Hold	-13.194
location	-13.1943
▁Laur	-13.1945
▁mediate	-13.1947
▁Hara	-13.1947
▁Wool	-13.1949
▁pee	-13.1951
-40	-13.1958
▁roller	-13.197
▁originate	-13.1973
ril	-13.1977
▁Bass	-13.1981
▁Stu	-13.1983
friend	-13.1986
▁EL	-13.1986
▁Sar	-13.1987
▁mortal	-13.1987
addie	-13.2
▁Flow	-13.2002
aque	-13.2006
▁poo	-13.2008
ella	-13.201
inister	-13.2014
▁Enr	-13.2015
▁poetic	-13.2028
▁mystic	-13.2039
FC	-13.2041
ovan	-13.2045
▁Levin	-13.205
oza	-13.2067
▁intolera	-13.2068
[...]
