#version: 0.2
t h
th e</w>
i n
i s</w>
t o</w>
o u
e d</w>
e r</w>
e r
h e</w>
a n
a r
p o
in g</w>
e n
h a
e a
po s
o n</w>
i n</w>
& a
&a pos
o n
&apos ;
s t
o r
y o
w a
yo u</w>
o f</w>
i t
l l</w>
m e</w>
a t</w>
r e
v e</w>
r o
a n</w>
t i
o r</w>
l i
i t</w>
n o
e s</w>
e n</w>
そ の</w>
s t</w>
o o
彼 女</w>
s e</w>
wa s</w>
h i
b e
l a
r i
m a
f or</w>
c o
l d</w>
こ と</w>
s he</w>
c a
l e
h is</w>
l e</w>
th at</w>
er e</w>
l y</w>
an d</w>
m y</w>
d i
h o
k e</w>
c e</w>
s e
r a
s u
w i
th is</w>
&apos; t</w>
ou r</w>
ha ve</w>
す る</w>
s i
n e
en t</w>
t a
it h</w>
w e</w>
l o
g h
ar e</w>
th e
w ith</w>
no t</w>
c h
f a
c h</w>
ou t</w>
w h
v er
&apos; s</w>
t o
b u
d a
こ の</w>
th er</w>
d o
s a
h er</w>
t er</w>
q u
r ea
a s</w>
か っ</w>
b e</w>
a b
m e
gh t</w>
u r
f i
s s</w>
s o
a c
ou ld</w>
u n
wi ll</w>
よ う</w>
か ら</w>
w or
s h
t s</w>
y our</w>
ou n
e t</w>
a l
t e
d e
c an</w>
on e</w>
hi m</w>
ti on</w>
た ち</w>
d o</w>
m o
s p
v er</w>
m i
t ed</w>
a ll</w>
b y</w>
m u
な た</w>
w ha
l ea
da y</w>
あ なた</w>
g o
f or
wha t</w>
ha s</w>
f ro
u p</w>
g e</w>
w e
th ere</w>
fro m</w>
co m
b o
a p
e x
the y</w>
t h</w>
c on
v i
c i
ver y</w>
f e
m or
d s</w>
g a
ha d</w>
oo d</w>
e ar
no w</w>
p ro
d on</w>
k ing</w>
d e</w>
oo k</w>
t e</w>
an y</w>
r u
p a
o p
g o</w>
th ing</w>
そ れ</w>
li ke</w>
で き</w>
o t
er s</w>
qu ot
quot ;</w>
& quot;</w>
l l
s h</w>
s ed</w>
p ar
i r
w n</w>
ti me</w>
y s</w>
r y</w>
st a
n o</w>
m an</w>
o f
wh en</w>
s o</w>
だ っ</w>
c e
f u
c u
on g</w>
t ur
a l</w>
bu t</w>
p e
p la
i f</w>
ab out</w>
co me</w>
t y</w>
e l
p u
ho w</w>
ん な</w>
p re
も の</w>
m on
w ere</w>
l d
t ter</w>
g et</w>
k s</w>
g ood</w>
wa y</w>
an t</w>
e st
a f
k ed</w>
i r</w>
t ing</w>
m in
t er
さ ん</w>
ま で</w>
d y</w>
p lea
c k</w>
し ょ</w>
け れ</w>
t ra
な さ</w>
st u
ea r</w>
k e
く れ</w>
っ と</w>
p er
p p
w ould</w>
自 分</w>
l f</w>
&apos; m</w>
ど う</w>
g h</w>
ら れ</w>
い つ</w>
f in
a d
j o
wor k</w>
i d</w>
be en</w>
th in
plea se</w>
た め</w>
a m</w>
r e</w>
th an</w>
仕 事</w>
b a
en d</w>
l it
c hi
ar d</w>
c t</w>
こ れ</w>
n i
v ed</w>
g i
く だ
くだ さ</w>
en g
oun d</w>
p l
b le</w>
p i
m ent</w>
@ -
@- @</w>
&apos; ll</w>
j u
mor e</w>
ta ke</w>
h ou
t en</w>
ne w</w>
sh ould</w>
mu st</w>
n a
g u
d ed</w>
pe op
peop le</w>
di d</w>
そ う</w>
r ou
se lf</w>
re e</w>
y ing</w>
s s
u s</w>
て も</w>
と ても</w>
r an
好 き</w>
u se</w>
se e</w>
k now</w>
d u
ma ke</w>
よ り</w>
c ar
ma de</w>
h ere</w>
h ea
po r
m ar
en ts</w>
oo l</w>
a s
s in
it e</w>
go t</w>
d er</w>
l t</w>
t w
w hi
le t</w>
e y</w>
も う</w>
mu ch</w>
f e</w>
l oo
g e
s ch
時 間</w>
so me</w>
e p</w>
m b
in to</w>
g s</w>
fa ther</w>
w ent</w>
it y</w>
we ll</w>
j ap
en ce</w>
n ing</w>
m s</w>
o ther</w>
だ け</w>
mon ey</w>
v ing</w>
日 本</w>
m any</w>
c ould</w>
s on</w>
li sh</w>
i m
b i
c an
la st</w>
ma y</w>
こ ろ</w>
of f</w>
ca me</w>
so me
go ing</w>
h el
af ter</w>
ou s</w>
d ing</w>
l u
ro o
p ri
the ir</w>
c oun
sch ool</w>
on s</w>
子 供</w>
v es</w>
t ri
in e</w>
し ま</w>
f ri
o ver</w>
l ong</w>
i on</w>
d ent</w>
fu l</w>
w r
tw o</w>
b ook</w>
t le</w>
こ こ</w>
か け</w>
eng lish</w>
我 々</w>
す ぐ</w>
t ea
d er
wh o</w>
w s</w>
b ro
to o</w>
st or
ho me</w>
あ の</w>
c t
roo m</w>
ro w</w>
do wn</w>
w ant</w>
g er</w>
for e</w>
hou se</w>
ac k</w>
wa ys</w>
ca r</w>
r ed</w>
a ga
t en
問 題</w>
ju st</w>
be fore</w>
thin k</w>
ha pp
考 え</w>
v en</w>
k es</w>
ar y</w>
sp ea
s n</w>
よ く</w>
n ed</w>
英 語</w>
o ld</w>
mo ther</w>
a tion</w>
com p
l k</w>
ou r
a m
と ころ</w>
st i
wh ere</w>
t ru
pu t</w>
al ways</w>
tur e</w>
s ho
e ver
in d</w>
ear s</w>
e l</w>
di f
be tter</w>
a t
ever y
hel p</w>
f t</w>
つ け</w>
an ce</w>
下 さ</w>
c lo
ne ver</w>
su ch</w>
g rea
b ack</w>
fi r
ou ght</w>
t ry</w>
sa y</w>
l ed</w>
e very</w>
m p
部 屋</w>
ー ト</w>
lit tle</w>
se e
と き</w>
l ly</w>
sp e
sa id</w>
h ear
d ea
必 要</w>
い け</w>
an y
h ard</w>
今 日</w>
わ か</w>
ne x
ll ed</w>
st o
li fe</w>
t ook</w>
ca use</w>
学 校</w>
y ears</w>
chi ld
ab le</w>
p e</w>
l s</w>
d n</w>
on ly</w>
no thing</w>
tea ch
そ こ</w>
nex t</w>
rea d</w>
si on</w>
g ra
we e
b ea
l ook</w>
そ んな</w>
gi ve</w>
s sed</w>
c ti
lo t</w>
ほ ど</w>
s y</w>
b le
ど こ</w>
ni ght</w>
ri ght</w>
re n</w>
te ll</w>
新 し</w>
電 話</w>
t ch</w>
か り</w>
child ren</w>
&apos; ve</w>
grea t</w>
wi th
di dn</w>
in ter
an g
to day</w>
g re
fir st</w>
e ss</w>
sh ed</w>
s er
k no
c k
to mor
tomor row</w>
な ら</w>
a way</w>
y ear</w>
jap an</w>
be cause</w>
da ys</w>
勉 強</w>
st ar
so on</w>
s hi
le ft</w>
th ree</w>
ou gh</w>
can not</w>
先 生</w>
w ea
s c
su c
the se</w>
suc ce
bo dy</w>
a ge</w>
y est
g ir
yest er
yester day</w>
w er</w>
ke ep</w>
l es</w>
少 し</w>
k en</w>
m es</w>
li ve</w>
the m</w>
c la
st er</w>
mo st</w>
p h
ea t</w>
bo y</w>
v en
r in
た く
it s</w>
t es</w>
計 画</w>
ー ル</w>
do es</w>
le ss</w>
&apos; d</w>
u sed</w>
e st</w>
c ou
la te</w>
al ly</w>
明 日</w>
ッ ト</w>
f er
e ver</w>
見 え</w>
m an
p t</w>
か か</w>
c es</w>
stu d
di s
手 紙</w>
pro ble
多 く</w>
たく さん</w>
m ed</w>
teach er</w>
昨 日</w>
タ ー</w>
whi ch</w>
e se</w>
a te</w>
on ce</w>
ra in</w>
en ds</w>
ら し</w>
ga ve</w>
c or
ュ ー
be g
k i
be ing</w>
tra in</w>
i l</w>
with out</w>
s es</w>
ッ ク</w>
y oun
y ed</w>
be st</w>
v o
成 功</w>
pl an
ま り</w>
起 こ</w>
も り</w>
食 べ</w>
s it
１ ０</w>
ま だ</w>
of ten</w>
t ly</w>
l ar
ら い</w>
ri ed</w>
mb er</w>
つ もり</w>
ラ ン
b oo
も ら</w>
spea k</w>
aga in</w>
c er
w in
ld n</w>
ap p
s en
po in
リ カ</w>
j e
a g
to m</w>
本 当</w>
入 れ</w>
t u
l on
par ty</w>
ac ci
ジ ョ
mor ning</w>
e i
s ha
s ent</w>
pl an</w>
wa ter</w>
jo b</w>
wee k</w>
ro a
d re
su re</w>
テ ィ
す ぎ</w>
c ed</w>
wh y</w>
whi le</w>
lo w
c ted</w>
少 年</w>
pla y</w>
事 故</w>
す べ
min d</w>
some thing</w>
bea u
と ん
sa w</w>
co l
lo w</w>
b or
s po
ア メ
h u
ち ょ
すべ て</w>
wor ld</w>
th o
si de</w>
ca ll</w>
in s</w>
er i
su r
m m
le ar
co ld</w>
&apos; re</w>
do g</w>
b rea
s or
b ed</w>
アメ リカ</w>
youn g</w>
m en</w>
an ese</w>
jap anese</w>
h an
ト ム</w>
し て</w>
h ar
fi cu
dif ficu
v e
li e
lea ve</w>
lo st</w>
も っと</w>
い た
ほ とん
ほとん ど</w>
th rou
stor y</w>
ta l
病 気</w>
バ ス</w>
ta in</w>
ma tter</w>
an i
パ ー
proble m</w>
po li
fa mi
g en
ca l</w>
ar ri
gir l</w>
n er</w>
ct or</w>
う ち</w>
qu i
it i
ar ound</w>
w o
sta tion</w>
acci dent</w>
sti ll</w>
t ting</w>
por t</w>
fin i
any thing</w>
fa r</w>
d ri
c le</w>
ar s</w>
roa d</w>
to ld</w>
comp any</w>
ど の</w>
tur n</w>
ba d</w>
教 え</w>
c tion</w>
bu s</w>
同 じ</w>
bu sin
com m
la r</w>
it ion</w>
f ound</w>
遅 れ</w>
p en
リ ー</w>
ど んな</w>
stu dy</w>
chi ld</w>
ti mes</w>
会 社</w>
ne ss</w>
throu gh</w>
c ro
k ind</w>
in ed</w>
p s</w>
coun try</w>
結 婚</w>
始 め</w>
出 来</w>
ne ws</w>
来 る</w>
e y
boo ks</w>
am eri
w ho
pla ce</w>
違 い</w>
y our
li ght</w>
stud ents</w>
医 者</w>
ち ら</w>
le tter</w>
注 意</w>
o wn</w>
por t
me e
hear d</w>
r ing</w>
fe el</w>
be lie
ne ed</w>
fri end</w>
w an
e sn</w>
do esn</w>
busin ess</w>
ティ ー</w>
く らい</w>
&apos ;</w>
qu est
人 々</w>
car e
do or</w>
忘 れ</w>
s ing</w>
楽 し</w>
si ble</w>
あ まり</w>
受 け</w>
か し</w>
wr it
f r
み んな</w>
v a
fe w</w>
b ir
s mo
p ed</w>
f o
it ed</w>
h and</w>
na me</w>
l th</w>
パー ティー</w>
も し</w>
ほ う</w>
tur ned</w>
as ked</w>
an s
l an
do ctor</w>
e f
st and</w>
m r</w>
happ y</w>
un der
0 0</w>
mee ting</w>
bu i
wa lk</w>
g ed</w>
en ed</w>
ea ch</w>
試 験</w>
tru e</w>
テ レ
い っ
s le
s k
pi c
rea lly</w>
持 ち</w>
tho se</w>
ca lled</w>
wa l
fin d</w>
た り</w>
e ven</w>
旅 行</w>
w on</w>
loo ked</w>
in st</w>
aga inst</w>
言 葉</w>
学 生</w>
en ough</w>
lo ve</w>
生 活</w>
st an
fi ve</w>
息 子</w>
出 発</w>
th ers</w>
fri ends</w>
fa st</w>
se en</w>
mu si
b all</w>
上 げ</w>
s wi
c y</w>
bro ther</w>
ti ons</w>
ch e
c ity</w>
m self</w>
hi mself</w>
beau ti
d en
ー ム</w>
su n
an other</w>
to wn</w>
g ar
a u
ch ed</w>
mi sta
ch an
取 り
分 か</w>
一 番</w>
な ん
の 子</w>
par ents</w>
テレ ビ</w>
u gh
st re
r un
美 し</w>
z e</w>
く る</w>
b ab
ク ラ
fami ly</w>
っ て</w>
hi gh</w>
te le
c ha
世 界</w>
thin gs</w>
me t</w>
un i
d rin
通 り</w>
な ん</w>
t ers</w>
see ms</w>
n u
de ci
あ げ</w>
qu ite</w>
beauti ful</w>
大 き
k y
し れ</w>
i l
com es</w>
loo king</w>
ス ト</w>
sin ce</w>
う ま</w>
sh or
fa ce</w>
一 人</w>
d ge</w>
起 き</w>
of fi
大き な</w>
と も</w>
se t</w>
h e
健 康</w>
ド ル</w>
per son</w>
l and</w>
ニ ュー
jo h
ha ving</w>
ま た</w>
ear ly</w>
wa tch</w>
c en
c are</w>
si ster</w>
０ ０</w>
ur e</w>
o b
助 け</w>
ず っと</w>
wea ther</w>
c re
th en</w>
s ma
rea dy</w>
bu y</w>
an k</w>
列 車</w>
コ ー
to ky
cou ldn</w>
toky o</w>
ch ar
音 楽</w>
親 切</w>
ta ble</w>
si g
im port
i ght</w>
com ing</w>
tri ed</w>
wor ds</w>
m y
m er
h ear</w>
an s</w>
d in
w ard</w>
ru n</w>
difficu lt</w>
飛 行</w>
f ood</w>
ca tion</w>
u ght</w>
ph one</w>
ll ing</w>
vi ce</w>
per i
lar ge</w>
hea lth</w>
te st</w>
ga me</w>
every thing</w>
d ly</w>
wor d</w>
コ ン
cla ss</w>
名 前</w>
te ly</w>
re s</w>
min u
ge tting</w>
st s</w>
me di
bu r
joh n</w>
c lea
r an</w>
dre ss</w>
h un
b ought</w>
失 敗</w>
ジョ ン</w>
sta y</w>
h ur
bi g</w>
わ け</w>
your self</w>
s it</w>
e le
東 京</w>
フ ラン
なん て</w>
hea d</w>
un ti
意 見</w>
友 達</w>
d en</w>
ap er</w>
す れ</w>
t on
非 常</w>
た い
ti red</w>
musi c</w>
di ed</w>
shi p</w>
ca se</w>
難 し</w>
以 上</w>
t we
出 かけ</w>
pos sible</w>
ta lk</w>
dif fer
d one</w>
映 画</w>
sa me</w>
終 わ</w>
inter est
mon th</w>
ea sy</w>
人 間</w>
m ea
与 え</w>
ひ ど</w>
loo ks</w>
wr ong</w>
unti l</w>
or s</w>
o thers</w>
w ar
思 い
b ri
友 人</w>
rea ding</w>
i ce</w>
運 転</w>
t rou
一 生</w>
i de
生 き</w>
懸 命</w>
イ ン</w>
ex a
con t
c lu
ans wer</w>
chan ge</w>
ど ちら</w>
v el</w>
st r
st ed</w>
g la
un der</w>
th ought</w>
so l
je ct</w>
r ying</w>
r s</w>
bu sy</w>
大 変</w>
大 学</w>
し か</w>
ri ver</w>
b la
が ら</w>
sma ll</w>
s k</w>
offi ce</w>
g ran
re me
ide a</w>
か な
y et</w>
h on
時 計</w>
i led</w>
hou rs</w>
生 徒</w>
や め</w>
mm er</w>
belie ve</w>
約 束</w>
w on
go es</w>
fi re</w>
a ir</w>
フラン ス</w>
re su
me et</w>
ll s</w>
i sn</w>
wh e
d ro
c ur
beg an</w>
wi fe</w>
par t</w>
ho pe</w>
ば かり</w>
全 く</w>
st ra
quest ion</w>
両 親</w>
su b
決 して</w>
sto p</w>
f er</w>
ド ア</w>
or y</w>
or der</w>
ex pe
coun t</w>
op en</w>
i ous</w>
な がら</w>
だ れ</w>
stre et</w>
p ra
ニ ス</w>
as k</w>
wr ite</w>
ス ト
succe ss</w>
h er
i es</w>
fini shed</w>
家 族</w>
いた だけ</w>
twe en</w>
be tween</w>
bab y</w>
必 ず</w>
u su
mar y</w>
ちょ っと</w>
f oo
努 力</w>
っ かり</w>
n is</w>
my self</w>
po or</w>
大 き</w>
外 国</w>
s sion</w>
exa min
忙 し</w>
ca ught</w>
c rea
ten nis</w>
import ant</w>
i se</w>
i ll</w>
c a</w>
ー ン</w>
テ ニス</w>
d ar
in gs</w>
ey es</w>
c ts</w>
試 合</w>
ら せ</w>
sur pri
fe e</w>
con si
理 解</w>
ま れ</w>
関 係</w>
終 え</w>
わ り</w>
in ing</w>
al ong</w>
pre sent</w>
c l
一 緒</w>
in v
疲 れ</w>
poin t</w>
pa y</w>
st ran
結 果</w>
col le
答 え</w>
bro ke</w>
poli ce</w>
si ght</w>
wa r</w>
en jo
b it</w>
smo king</w>
m oun
g one</w>
c li
ヨ ー
し ろ</w>
pa in
it ing</w>
fe ll</w>
co f
ac ce
ン グ</w>
cu t</w>
立 て</w>
少 女</w>
ma kes</w>
en ch</w>
fo l
警 察</w>
su mmer</w>
on al</w>
fi c</w>
上 が</w>
ン ト</w>
ア リー</w>
stu dent</w>
申 し
め て</w>
lit y</w>
上 手</w>
メ アリー</w>
ho me
cof fee</w>
f lo
do ing</w>
動 物</w>
ま ま</w>
じ ゃ</w>
z ed</w>
tru th</w>
spe e
s how</w>
fe lt</w>
al one</w>
ti ve</w>
su p
ni ce</w>
li ves</w>
ま っ
く り</w>
週 間</w>
rou ght</w>
女 性</w>
win do
見 つけ</w>
十 分</w>
d ur
arri ved</w>
続 け</w>
ra id</w>
di st
a ir
な ぜ</w>
た し</w>
a go</w>
天 気</w>
し み</w>
wi sh</w>
pla ying</w>
af raid</w>
た ら</w>
whe ther</w>
every one</w>
e p
c s</w>
s ci
clo ck</w>
ジ ェ
w ing</w>
け ど</w>
minu tes</w>
ci al</w>
重 要</w>
し ば
pp ed</w>
dea th</w>
知 らせ</w>
危 険</w>
さ え</w>
dur ing</w>
ン ド
f ree</w>
c ra
求 め</w>
テ ー
shor t</w>
se l
li ved</w>
説 明</w>
su n</w>
o ver
mar ried</w>
f re
con cer
b rought</w>
ヒ ー</w>
コー ヒー</w>
と う</w>
ジ ャ
trou ble</w>
ke pt</w>
意 味</w>
sor ry</w>
no on</w>
hear t</w>
stor e</w>
po lit
k in
every body</w>
en ti
bo th</w>
be come</w>
plan e</w>
こ んな</w>
fe el
er ed</w>
vi e
li st
fa ct</w>
自 由</w>
ma king</w>
l ing</w>
pic ture</w>
ld ing</w>
fu ll</w>
っ くり</w>
l un
star t</w>
s ea
ro ss</w>
op in
ad vice</w>
女 の子</w>
毎 日</w>
si x</w>
g ing</w>
質 問</w>
く ら</w>
din ner</w>
テ ル</w>
wor king</w>
t ment</w>
st ea
li ving</w>
fin e</w>
受 け
ラ イ
ち ゃ
w ed</w>
nu mber</w>
l li
立 ち
小 説</w>
vi sit
pro mi
ce ss
t v</w>
mo vi
ら か</w>
は ず</w>
lan gu
ch ing</w>
ac ross</w>
ab road</w>
事 実</w>
な し</w>
こ う</w>
t re
st e
c ked</w>
欲 し</w>
ー ド</w>
シ ー</w>
た く</w>
cti on
ang ry</w>
sha ll</w>
comp le
手 伝</w>
わ たし</w>
s si
n s</w>
ei g
it al</w>
gen er
ca p
si ck</w>
p ea
ho te
examin ation</w>
料 理</w>
mi ght</w>
b r
時 代</w>
引 き
イ ン
v y</w>
h or
b li
st ru
spee ch</w>
reme mber</w>
fr ench</w>
c y
宿 題</w>
反 対</w>
付 け</w>
ホ テル</w>
wa t
in for
e mp
t ran
po pu
for eig
ameri ca</w>
正 し</w>
par k</w>
k o</w>
d an
bi ll</w>
st ood</w>
m en
di ction
d le</w>
食 事</w>
ろ し</w>
sh ing</w>
sa ys</w>
h our</w>
h ind</w>
c ho
v el
ta king</w>
ta ken</w>
ho t</w>
be hind</w>
い に</w>
l ts</w>
i s
f l
ce i
生 まれ</w>
最 近</w>
新 聞</w>
人 生</w>
まっ たく</w>
y en</w>
under stand</w>
s now</w>
p aper</w>
happ ened</w>
ca tch</w>
a ted</w>
wh ite</w>
to ge
toge ther</w>
star ted</w>
kno wn</w>
drin k</w>
わ せ</w>
n or
辞 書</w>
ス ー
ち ゃ</w>
tal king</w>
o c
li kes</w>
ani ma
過 ぎ</w>
r ound</w>
qu a
hote l</w>
ex peri
d ra
at ten
ad v
か げ</w>
い くら</w>
t ou
ne e
全 部</w>
t y
pu bli
pa ss</w>
min e</w>
th ough</w>
su d
ri ch</w>
出 席</w>
ab o
午 後</w>
クラ ス</w>
わ れ</w>
マ イ
spo n
ou s
di sa
心 配</w>
home work</w>
g y</w>
cu sto
wo man</w>
windo w</w>
wa it</w>
se cre
ne i
覚 え</w>
間 違い</w>
シ ョ
t un
決 め</w>
sun day</w>
ss es</w>
me ans</w>
un cle</w>
tri p</w>
sen se</w>
p ur
ef for
政 治</w>
可 能</w>
swi m</w>
gran d
ex pen
e du
diction ary</w>
d rea
sle ep</w>
ear th</w>
e f</w>
開 け</w>
differ ent</w>
ck et</w>
ch ang
s y
責 任</w>
リ ス</w>
ケ ー
し ゃ
き り</w>
あ る</w>
th ir
clea r</w>
car ry</w>
c at</w>
最 初</w>
少 な</w>
ら え</w>
wan ted</w>
母 親</w>
戦 争</w>
幸 せ</w>
ピ ア
な ど</w>
v al
tra f
ss ing</w>
pro du
pos e</w>
ll ars</w>
go ver
fa v
al ready</w>
ゆ る</w>
や す</w>
い か
traf fic</w>
有 名</w>
pos ition</w>
hea vy</w>
ha lf</w>
do llars</w>
d ou
金 持ち</w>
kno ws</w>
her self</w>
mista ke</w>
lear n</w>
e ven
c ks</w>
ne cess
ea si
提 案</w>
み な</w>
vi sit</w>
ou th</w>
i g
c ent</w>
野 球</w>
行 動</w>
正 直</w>
ブ ル</w>
ちょ う
wa iting</w>
some one</w>
re spon
pa ti
ou t
li es</w>
bui lding</w>
落 ち</w>
夕 食</w>
あ ら
be came</w>
b ring</w>
af ter
変 わ</w>
い く</w>
t ree</w>
ou ldn</w>
fi sh</w>
ac count</w>
研 究</w>
fa iled</w>
c oo
ba se
t rea
ra ther</w>
opin ion</w>
deci ded</w>
dar k</w>
写 真</w>
ボ ール</w>
こ え</w>
理 由</w>
価 値</w>
ビ ル</w>
spea king</w>
se ver
m ous</w>
gh ts</w>
c ri
al so</w>
自 転</w>
te mp
t end</w>
c er</w>
a r</w>
公 園</w>
他 人</w>
チ ーム</w>
ど れ</w>
re la
ho ld</w>
co ver
近 く</w>
y er</w>
i m</w>
gover n
st ri
ex ce
base ball</w>
最 も</w>
つ か</w>
wor ked</w>
lon ger</w>
l la
ケ ット</w>
l ine</w>
風 邪</w>
見 せ</w>
レ ス</w>
n ear</w>
j an
ag ree</w>
0 00</w>
す ば
さ な</w>
pos ed</w>
la ugh
l in
tea m</w>
ld er</w>
he ld</w>
al most</w>
電 車</w>
話 し
聞 こえ</w>
父 親</w>
ンド ン</w>
k et</w>
interest ing</w>
e s
com pu
小 さな</w>
ロ ンドン</w>
太 陽</w>
賛 成</w>
ど う
who le</w>
str ong</w>
polit i
pa ssed</w>
ne w
lon don</w>
fa u
an o</w>
fu lly</w>
abo ve</w>
usu ally</w>
pra cti
langu age</w>
以 前</w>
wan ts</w>
t ty</w>
see ing</w>
moun tain</w>
ho sp
ha ir</w>
fr on
f our</w>
間 違</w>
突 然</w>
合 わせ</w>
互 い</w>
st op
pre si
散 歩</w>
かな り</w>
ir s</w>
cy cle</w>
cro w
気 分</w>
わ れ
あ り
満 足</w>
持 ち
到 着</w>
キ ー</w>
われ われ</w>
ちょう ど</w>
on d</w>
g ro
fa mous</w>
f low
bo ys</w>
b and</w>
some times</w>
even ing</w>
&apos; clock</w>
succe ed</w>
sa ying</w>
i ll
han ds</w>
ar m</w>
場 所</w>
イ ト</w>
p le</w>
medi c
after noon</w>
vie w</w>
lun ch</w>
ch es</w>
ar e
会 議</w>
sk y</w>
c le
ab i
老 人</w>
科 学</w>
た が</w>
der ed</w>
忠 告</w>
予 定</w>
ニュー ス</w>
e con
econ o
da ugh
b ra
二 人</w>
wal ked</w>
medic ine</w>
m ents</w>
fu ture</w>
授 業</w>
利 用</w>
キ ャ
ほ し</w>
ぱ い</w>
vi lla
te a</w>
stran ge</w>
run ning</w>
de li
bo x</w>
ポ ー
ら く</w>
ま ず</w>
won der</w>
ton ight</w>
th ank</w>
tele phone</w>
外 出</w>
ひ と
st e</w>
se a</w>
s at</w>
mo ment</w>
fa ll</w>
colle ge</w>
bor n</w>
どう ぞ</w>
限 り</w>
交 通</w>
ちゃ ん</w>
ta kes</w>
for ward</w>
dri ve</w>
思い 出</w>
く な</w>
お も
ma ch
間 に
過 ご</w>
すば らし</w>
s mi
re cei
k a</w>
fini sh</w>
c our
間に 合</w>
向 か</w>
借 り</w>
si l
for get</w>
do m</w>
care ful</w>
興 味</w>
ピア ノ</w>
vi sion</w>
si ve</w>
sever al</w>
s on
３ ０</w>
銀 行</w>
た い</w>
お かげ</w>
う れ
t t
se con
presi dent</w>
k a
govern ment</w>
gar den</w>
g er
事 件</w>
テー ブル</w>
いっ ぱい</w>
t tle</w>
rea son</w>
la tion</w>
dou b
cer tain</w>
始 ま</w>
sho es</w>
publi c</w>
no ti
foreig n</w>
flow ers</w>
全 て</w>
休 み</w>
ッ プ</w>
stud ying</w>
re st</w>
k er</w>
easi ly</w>
b l
２ ０</w>
うれ し</w>
d es</w>
カ ー</w>
た だ</w>
sh es</w>
s ki
i ons</w>
i ma
hu s
認 め</w>
方 法</w>
政 府</w>
元 気</w>
世 話</w>
シ ャ
th y</w>
th i
ter ed</w>
t ro
surpri sed</w>
k new</w>
ha ven</w>
g es</w>
訪 れ</w>
経 済</w>
止 め</w>
今 度</w>
タ イ
ん 坊</w>
き っと</w>
お り</w>
ti s
for tun
co at</w>
ヨー ク</w>
し かし</w>
resu lt</w>
por ts</w>
pi ano</w>
mi ss</w>
li e</w>
道 路</w>
ニュー ヨーク</w>
ッ ド</w>
ま し</w>
あり が
y or
te ars</w>
ex pre
1 9
ti onal</w>
s ity</w>
jan e</w>
dea l</w>
cover ed</w>
b ank</w>
ar t</w>
赤 ん坊</w>
社 会</w>
幸 福</w>
ー ジ</w>
yor k</w>
wo men</w>
ta ll</w>
su pp
pri ce</w>
慣 れ</w>
ロ ー
デ ィ
も らえ</w>
w ind</w>
m p</w>
in di
hosp ital</w>
fron t</w>
co st</w>
運 動</w>
経 験</w>
昨 夜</w>
場 合</w>
th s</w>
stan ding</w>
s m
no body</w>
le ss
ge ts</w>
ピ ュー
kno w
h it</w>
dis cu
dea d</w>
brea k
調 べ</w>
コン ピュー
れ い</w>
っ た</w>
movi e</w>
en ty</w>
clo th
ba g</w>
行 け</w>
u m</w>
tri es</w>
pp ing</w>
know le
hus band</w>
de sk</w>
気 持ち</w>
合 格</w>
コンピュー ター</w>
ti ll</w>
ma tion</w>
di re
daugh ter</w>
b er
ap pro
ameri can</w>
話 せ</w>
最 後</w>
当 然</w>
ク リ
っ きり</w>
fi ed</w>
降 り</w>
小 さ</w>
は じ
wor ks</w>
so ci
mm ing</w>
la ter</w>
初 めて</w>
t ters</w>
mista kes</w>
it u
bi cycle</w>
無 駄</w>
楽 しみ</w>
大 切</w>
ジェ ーン</w>
ru le</w>
pi e
ct ory</w>
cloth es</w>
援 助</w>
帽 子</w>
リ ア</w>
tra vel
sa tis
pa id</w>
for m</w>
break fast</w>
２ 人</w>
地 球</w>
へ ん</w>
win ter</w>
uni ver
re turn</w>
pl es</w>
gi ven</w>
difficu l
clo se</w>
sel ves</w>
p ho
no ise</w>
new sp
com pla
今 年</w>
き れい</w>
sho p</w>
par ti
ar gu
１ ９
途 中</w>
訪 ね</w>
よ ろし</w>
づ け</w>
d ition</w>
面 白</w>
to p</w>
g g
f ran
返 事</w>
男 の子</w>
フ ァ
あら ゆる</w>
visit ed</w>
qui ck
pre tty</w>
da te</w>
brea k</w>
ac cor
教 育</w>
年 間</w>
ミ ス</w>
たい へん</w>
hur ry</w>
cu l
実 際</w>
今 朝</w>
s end</w>
b lo
b ar
静 か</w>
簡 単</w>
帰 宅</w>
writ ten</w>
mi lk</w>
la ke</w>
infor mation</w>
ch ance</w>
b lu
anima ls</w>
adv an
滞 在</w>
ra di
am ong</w>
スト ラ
ギ リス</w>
fe ct</w>
e ty</w>
会 合</w>
ン ド</w>
イ ギリス</w>
ありが とう</w>
ve lo
tele vision</w>
ta l</w>
secon d</w>
gu i
ar ti
ac t</w>
困 難</w>
ー ター</w>
カ メ
writ ing</w>
wi se</w>
swi mming</w>
se ven</w>
pa st</w>
oo ds</w>
gir ls</w>
w ro
wro te</w>
n ers</w>
ho li
ex am</w>
議 論</w>
習 慣</w>
villa ge</w>
ta x
stop ped</w>
sta yed</w>
pos al</w>
ex cu
app ear
an x
ti c</w>
sig n</w>
oun ds</w>
necess ary</w>
be ha
変 え</w>
ス ピ
あ れ</w>
s ound</w>
mea n</w>
lea ves</w>
la y</w>
ke y</w>
in crea
im possible</w>
ey e</w>
ct u
, 000</w>
伝 え</w>
い ろ
thin king</w>
ro pe</w>
ha t</w>
食 べ
残 念</w>
日 曜</w>
実 行</w>
タ ク
ぼ く</w>
そ して</w>
し ば</w>
w in</w>
val u
th er
ta ge</w>
sub ject</w>
s eat</w>
no vel</w>
mach ine</w>
ill ness</w>
f lu
ま い</w>
va cation</w>
quick ly</w>
po n</w>
ll a</w>
en ing</w>
朝 食</w>
ニ ー</w>
wa sn</w>
spea ks</w>
s li
fa il</w>
coun tries</w>
ca mer
連 絡</w>
要 求</w>
秘 密</w>
機 械</w>
情 報</w>
ブ ラ
カメ ラ</w>
ま え</w>
か わ
sol ve</w>
sit u
hon est</w>
har dly</w>
en e
dan ger</w>
clu b</w>
al s</w>
言 い
オ ー
ま る
ほ か</w>
wor th</w>
sp ring</w>
re ma
p rin
ea se</w>
cti ve</w>
air port</w>
自 動</w>
決 心</w>
休 暇</w>
ド レス</w>
pla yed</w>
k yo
iti es</w>
d ness</w>
目 的</w>
リ ン
ス ポー
tu ra
tou ch</w>
re fu
promi se</w>
n one</w>
離 れ</w>
買 い
ケー キ</w>
しば しば</w>
け れ
p ted</w>
mo ve</w>
mi ssed</w>
lea st</w>
la w</w>
hu man</w>
現 在</w>
尋 ね</w>
今 夜</w>
不 足</w>
ン ス</w>
けれ ど</w>
か れ</w>
いた だ</w>
い た</w>
u mb
se ar
re spe
mar ket</w>
knowle dge</w>
fin ally</w>
f ur
f un
drea m</w>
. .
来 週</w>
我 慢</w>
ジ ム</w>
t rying</w>
succe e
s ou
re port</w>
f la
ex c
ep ing</w>
clea n</w>
bla ck</w>
bir th
５ ０</w>
食べ 物</w>
相 手</w>
パ リ</w>
た と
vo ice</w>
tra vel</w>
stor m</w>
on es</w>
j im</w>
誕 生</w>
将 来</w>
京 都</w>
ヶ 月</w>
wat ching</w>
t or
su f
re co
min i
mi d
li br
fa il
du e</w>
飛 び
警 官</w>
し ゃ</w>
v al</w>
secre t</w>
pea ce</w>
en s</w>
ch in
car ried</w>
c up</w>
ad dress</w>
選 手</w>
規 則</w>
結 局</w>
タ バ
まる で</w>
て い</w>
par is</w>
kyo to</w>
cont in
連 れ</w>
準 備</w>
ペ ン</w>
は っきり</w>
いか が</w>
wha te
whate ver</w>
we l
u pon</w>
ta tion</w>
sc en
r on
pre ci
poli ce
i ly</w>
expen sive</w>
ei ght</w>
compu ter</w>
clo sed</w>
abi lity</w>
な あ</w>
か わ</w>
あ と</w>
wal king</w>
mo ved</w>
m er</w>
fi f
camer a</w>
any one</w>
真 実</w>
偶 然</w>
修 理</w>
タバ コ</w>
スポー ツ</w>
tran s
on ed</w>
nei gh
libr ary</w>
at ta
a w
１ ００</w>
昼 食</w>
尊 敬</w>
参 加</w>
さ し</w>
い ろ</w>
sc ri
pro posal</w>
it a
hi gh
ei ther</w>
di es</w>
chang ed</w>
ca ke</w>
bro ken</w>
空 港</w>
数 学</w>
建 物</w>
っ ぱ
wa ll</w>
th an
re cor
popu lar</w>
al ity</w>
期 待</w>
平 和</w>
ゆ っくり</w>
sud den
sudden ly</w>
li ed</w>
k ers</w>
hi ll</w>
fail ure</w>
experi ence</w>
e u
de p
悲 し</w>
umb re
re gre
ra ining</w>
lo se</w>
lo gi
gla d</w>
ex t
bui lt</w>
bo ss</w>
bir ds</w>
ar re
都 市</w>
解 決</w>
激 し</w>
嫌 い</w>
ど も</w>
か し
stu died</w>
low ed</w>
f le
時 々</w>
ま さ
ず かし</w>
st er
s ence</w>
pos t</w>
ne ar
l m</w>
k o
feel ing</w>
de velo
comm it
car s</w>
ー ス</w>
ぶ ん</w>
y es</w>
umbre lla</w>
s ons</w>
s ong</w>
pati ent</w>
beau ty</w>
な く</w>
t wi
situ ation</w>
poin ted</w>
dri ving</w>
bri dge</w>
.. .</w>
向 け</w>
労 働</w>
ロ ッ
ん と</w>
や さし</w>
せ い</w>
す っかり</w>
いろ いろ</w>
univer sity</w>
ir ed</w>
fu n</w>
c r
１ 人</w>
病 院</w>
値 段</w>
ス キー</w>
たと え</w>
succee ded</w>
sh u
ra te</w>
po e
m or</w>
m it
in ten
han d
ea ting</w>
e g
che ck</w>
bo b</w>
1 0</w>
貧 し</w>
気 づ</w>
sp ent</w>
proble ms</w>
on er</w>
l end</w>
concer t</w>
birth day</w>
受け 取</w>
偉 大</w>
チ ャ
tre es</w>
j i</w>
h ood</w>
e ps</w>
blu e</w>
beha vi
ab sent</w>
a gre
統 領</w>
大 統領</w>
ボ ブ</w>
っ しゃ</w>
pa ss
o l
na tura
ll er</w>
in du
hi story</w>
a tely</w>
若 者</w>
火 事</w>
図 書</w>
人 気</w>
しば らく</w>
rea l</w>
qui et</w>
mo on</w>
lo ss</w>
d ang
b ear</w>
暮 ら</w>
先 週</w>
乗 り
プ レ
な れ</w>
たい てい</w>
あ んな</w>
ti es</w>
radi o</w>
d a</w>
cl ou
法 律</w>
招 待</w>
ラ ジ
タク シー</w>
ス ミス</w>
ケ ン</w>
li ar</w>
ki lled</w>
ex pla
enjo y</w>
e qu
am oun
逃 げ</w>
海 外</w>
感 謝</w>
一 杯</w>
た ま</w>
w ouldn</w>
spo ke</w>
m b</w>
lea ving</w>
emp lo
di e</w>
c ing</w>
arri ve</w>
誤 り</w>
空 気</w>
影 響</w>
合 い</w>
z y</w>
smo ke</w>
mi c</w>
go d</w>
fa ir</w>
expe cted</w>
comple tely</w>
behavi or</w>
atten tion</w>
an ing</w>
馬 鹿</w>
演 説</w>
普 通</w>
大 いに</w>
ラジ オ</w>
コ ート</w>
pa in</w>
p ing</w>
gu e</w>
g ent</w>
eng land</w>
crow d</w>
ac cu
分 け</w>
v ar
th ous
t ter
sp i
s .</w>
police man</w>
ma il</w>
m r
gla ss</w>
f ru
ci an</w>
財 産</w>
歴 史</w>
つ き</w>
っ とも</w>
おも しろ</w>
re cen
recen tly</w>
of fer</w>
l ou
g round</w>
en tly</w>
el se</w>
contin u
b ac
次 第</w>
明 らか</w>
事 業</w>
予 約</w>
ご ろ</w>
interest ed</w>
effor ts</w>
e vi
cla ss
char ac
教 師</w>
同 意</w>
te m
sti c</w>
so lu
s co
rea ched</w>
pro vi
m ing</w>
g ers</w>
d ence</w>
遅 刻</w>
込 み</w>
む しろ</w>
ざ る</w>
sta ur
sm ith</w>
s an
re staur
quest ions</w>
m a</w>
le ep</w>
ke ts</w>
hel ped</w>
happ en</w>
gra du
fa ctory</w>
en ded</w>
e ly</w>
cou ra
as leep</w>
買い 物</w>
暖 か</w>
一 般</w>
ッ ク
ta ins</w>
see m</w>
pro fe
pre par
p en</w>
list en</w>
ex er
bir d</w>
b an
赤 ちゃん</w>
切 れ</w>
や っと</w>
が い</w>
お じ</w>
ven ted</w>
u p
sta tes</w>
pri ces</w>
m ur
lear ned</w>
ge st</w>
enjo yed</w>
ear th
ci r
ad mi
郵 便</w>
全 員</w>
バ ー</w>
コン サ
sin ger</w>
sh ou
newsp aper</w>
mb ers</w>
j ur
edu cation</w>
comm on</w>
ar en</w>
a ma
迎 え</w>
当 て</w>
原 因</w>
フ ィ
ア ル
ひと り</w>
さ ら
い ら
who se</w>
un ited</w>
ti cket</w>
o h</w>
nee ds</w>
n ar
ke eps</w>
de par
ap ers</w>
anx ious</w>
能 力</w>
尽 く</w>
ロッ パ</w>
ヨー ロッパ</w>
ve ly</w>
ter ri
sor t</w>
si st
s me
pro ject</w>
na tional</w>
mon ths</w>
ga z
dist ance</w>
cour se</w>
荷 物</w>
確 か</w>
機 会</w>
完 全</w>
中 国</w>
テ スト</w>
コンサ ート</w>
ほ ん
こ ちら</w>
your s</w>
we ver</w>
w ine</w>
usu al</w>
p rou
in ess</w>
ho wever</w>
excu se</w>
earth qua
e v
負 け</w>
読 書</w>
態 度</w>
委 員</w>
地 震</w>
ア ン</w>
thir ty</w>
su gg
sugg est
lli on</w>
la dy</w>
kin dness</w>
i dea
f f</w>
f ear</w>
do gs</w>
con ven
説 得</w>
自 身</w>
現 れ</w>
歌 手</w>
叔 父</w>
ご ざ</w>
wor se</w>
sho wed</w>
ser ve</w>
o lder</w>
es ca
drin king</w>
at tend</w>
ag es</w>
ad vi
知 識</w>
捨 て</w>
さ せ</w>
x ed</w>
won der
s we
s is</w>
re gar
prou d</w>
inter est</w>
in no
hor se</w>
be y
全 然</w>
かし ら</w>
we ight</w>
twi ce</w>
stan ds</w>
sho pping</w>
re qu
li ke
in y</w>
flo or</w>
doub t</w>
d red</w>
cr iti
c rying</w>
bey ond</w>
ans w
部 分</w>
収 入</w>
war m</w>
te e</w>
s low
recei ved</w>
re ly</w>
pur pose</w>
li st</w>
bo at</w>
acce pt</w>
自 慢</w>
い や</w>
ro b
re pa
po n
o sa
ma j
hur t</w>
gre w</w>
er ous</w>
effor t</w>
ca ted</w>
訪 問</w>
人 口</w>
パ ン</w>
さら に</w>
か かわ</w>
ter ms</w>
sc ho
sa d</w>
oun ded</w>
in jur
hun dred</w>
g rou
foo t</w>
f it</w>
deci sion</w>
ch oo
ソ ン</w>
お い
w ear</w>
sit ting</w>
ser ious</w>
practi ce</w>
out side</w>
me mor
lo gy</w>
i ls</w>
for d</w>
fol low</w>
com pe
b al
言 語</w>
男 性</w>
レ ン
イ ツ</w>
り 返</w>
ま す</w>
ま す
ます ます</w>
つ いに</w>
だ め</w>
sh ar
see med</w>
restaur ant</w>
re p
noti ce</w>
ha bit</w>
du ty</w>
di ence</w>
de ep</w>
cti ons</w>
c ture</w>
ag ed</w>
落 ち
留 守</w>
状 態</w>
才 能</w>
事 務</w>
い え</w>
tax i</w>
so oner</w>
slow ly</w>
pri ze</w>
na ture</w>
exer ci
en tered</w>
dang erous</w>
違 え</w>
冗 談</w>
リ ン</w>
ド イツ</w>
ば ん</w>
か ま</w>
u se
t ar
su it</w>
s sa
rea ch</w>
in tro
im pro
idea s</w>
fi shing</w>
e ld</w>
ch ri
an cy</w>
詩 人</w>
感 じ</w>
今 晩</w>
ス マ
す ご</w>
ご と</w>
ぐ らい</w>
vo l
tw enty</w>
ter i
t or</w>
sci enti
pie ce</w>
o il</w>
natura l</w>
in de
f ool</w>
b s</w>
行 為</w>
決 定</w>
喫 煙</w>
勇 気</w>
判 断</w>
マイ ル</w>
クラ ブ</w>
た ば
shi r
rea li
r ent</w>
op er
cor re
beg in</w>
紹 介</w>
止 ま</w>
住 所</w>
う そ</w>
t ary</w>
op ened</w>
ma te</w>
ma gaz
lear ning</w>
intro du
grand father</w>
ch ur
ca te</w>
bo ard</w>
a head</w>
近 づ</w>
発 見</w>
申し 出</w>
注 文</w>
欠 点</w>
国 民</w>
回 復</w>
バ イ
や か</w>
は い</w>
sci ence</w>
ma ti
m it</w>
in come</w>
fav or</w>
d ers</w>
a ture</w>
０ ００</w>
番 号</w>
熱 心</w>
打 ち
弁 護</w>
建 て</w>
天 候</w>
ア イ
たば こ</w>
un ity</w>
sp a
s ports</w>
ru les</w>
n er
m eat</w>
ig nor
ge ment</w>
eu rope</w>
en er
disa p
c lear
正 確</w>
掃 除</w>
大 好き</w>
レ ストラ
レストラ ン</w>
パ ート</w>
はじ め</w>
しゃ べ</w>
man a
j ack</w>
expe ct</w>
ene my</w>
beg in
au dience</w>
are a</w>
accor ding</w>
調 査</w>
考 慮</w>
掛 け</w>
ル ー
ハ ン
ゲ ーム</w>
な に</w>
っ ち</w>
た ま
the ory</w>
like ly</w>
fir m</w>
consi der
com for
ch ea
述 べ</w>
故 障</w>
工 場</w>
学 者</w>
大 阪</w>
去 年</w>
勤 勉</w>
ポ ート</w>
ショ ン</w>
いっ しょ</w>
y u
with in</w>
tal ked</w>
sin g
re turned</w>
ous ly</w>
osa ka</w>
l ying</w>
ga r</w>
fortun e</w>
f ly</w>
f ar
d ance</w>
char ge</w>
b ru
流 れ</w>
泥 棒</w>
書 き
晴 れ</w>
教 会</w>
助 言</w>
以 外</w>
ニ ック</w>
も と</w>
te lling</w>
sud den</w>
si bi
satis fied</w>
plea sed</w>
n y</w>
m t</w>
lo ves</w>
k it
fav or
fau lt</w>
c ry</w>
bro wn</w>
言 え</w>
立 派</w>
田 舎</w>
年 齢</w>
代 わり</w>
ー ク</w>
ひ と</w>
つ い</w>
た ん</w>
pi ck</w>
low ing</w>
happ iness</w>
den ti
conven i
cha ir</w>
c kets</w>
行 き</w>
絶 対</w>
給 料</w>
患 者</w>
喜 び</w>
マイ ク</w>
ト ラ
シャ ツ</w>
キャ ン
than ks</w>
re mar
neigh bor
n ine</w>
mu se
in su
gre en</w>
f light</w>
dro p</w>
dri ver</w>
d iti
a live</w>
3 0</w>
高 校</w>
集 め</w>
案 内</w>
ス ペ
と り
お 前</w>
writ er</w>
st one</w>
sp ite</w>
sear ch</w>
resu lts</w>
mo der
differ ence</w>
de f
con ver
間 違え</w>
趣 味</w>
知 り
環 境</w>
理 論</w>
信 頼</w>
ッ グ</w>
ら ん</w>
で に</w>
stea d</w>
poin tment</w>
pla yer</w>
p tion</w>
nei ther</w>
la w
l ted</w>
jo in</w>
it self</w>
har der</w>
g oods</w>
en ga
commit tee</w>
chur ch</w>
care fully</w>
a vo
苦 労</w>
自 然</w>
あ いつ</w>
te en</w>
sy ste
s car
run s</w>
pre fer</w>
m outh</w>
la ck</w>
ima g
fri en
difficul ty</w>
an ts</w>
確 信</w>
実 験</w>
存 在</w>
子 ども</w>
婦 人</w>
同 様</w>
切 手</w>
会 え</w>
ジャ ック</w>
ウ ン</w>
わ し</w>
も っとも</w>
おい し</w>
い わ
wa ke</w>
wa ited</w>
thous and</w>
sle eping</w>
p er</w>
mi ke</w>
ga te</w>
earthqua ke</w>
ctu res</w>
cou ple</w>
comm uni
ar ing</w>
an ger</w>
早 起き</w>
抜 け</w>
後 悔</w>
引 っ
地 域</w>
作 家</w>
ー ト
ラン ド</w>
ラ ス</w>
ほん の</w>
か く</w>
tru st</w>
the m
them selves</w>
st y
si mp
po wer</w>
l thy</w>
in stead</w>
hou ses</w>
fau lts</w>
ca st</w>
b ound</w>
浮 か</w>
毎 朝</w>
暮 らし</w>
卒 業</w>
切 り
主 張</w>
に く</w>
こ そ</w>
ta sk</w>
sup port</w>
sta te</w>
st ry</w>
ri es</w>
popu lation</w>
jo y</w>
flo wer</w>
cli mb
c ting</w>
bla me</w>
au th
ap preci
a po
２ 、
２、 ３</w>
飲 み
雑 誌</w>
果 た</w>
恥 ずかし</w>
土 地</w>
切 符</w>
主 義</w>
フ ォ
ナ イ
ご らん</w>
き み</w>
あ き
t ball</w>
sta irs</w>
sh ouldn</w>
ro r</w>
po et</w>
hear ing</w>
exerci se</w>
dre ssed</w>
出 会</w>
ベ ル</w>
テ ン</w>
つ め</w>
tu ally</w>
sta te
st ing</w>
spe ci
ser ved</w>
sa ve</w>
sa l
ri se</w>
ri ce</w>
pro gra
minu te</w>
is land</w>
g row</w>
fe et</w>
ac tion</w>
a li
落 と</w>
興 奮</w>
延 期</w>
増 え</w>
単 語</w>
信 用</w>
ッ カー</w>
わ ず
つ つ</w>
wee k
to ward</w>
surpri se</w>
sh e
s wea
mp ed</w>
l en
injur ed</w>
in te
da ma
b les</w>
ap ples</w>
any body</w>
amoun t</w>
昨 年</w>
提 出</w>
希 望</w>
報 告</w>
商 売</w>
信 じ</w>
ダ イ
ば か</w>
じ っと</w>
y si
wor kers</w>
ser v
man aged</w>
lo ved</w>
fi g
concer ned</w>
comp ani
チ ェ
な かな
なかな か</w>
t le
ra ins</w>
mon day</w>
me ters</w>
ma s</w>
m i</w>
inv ited</w>
i sed</w>
fre sh</w>
eng th</w>
cont ro
ci pa
bl ood</w>
製 品</w>
月 曜</w>
晴 らし</w>
ビ ール</w>
ら め</w>
ta x</w>
sta ying</w>
sp end</w>
ser vice</w>
ru mor</w>
re s
mar ri
ma tch</w>
m ers</w>
jo ke</w>
im medi
holi day</w>
g ni
fi lled</w>
en ter</w>
ear li
de ta
con tra
ba th</w>
b or</w>
af ford</w>
関 心</w>
閉 め</w>
買 え</w>
芸 術</w>
便 り</w>
ル ク</w>
プレ ゼ
ト ニー</w>
カ ー
う わ
wonder ful</w>
sty le</w>
shir t</w>
s m</w>
ra ce</w>
movi es</w>
l en</w>
en vi
cir cu
bur st</w>
argu ment</w>
advan tage</w>
2 0</w>
調 子</w>
状 況</w>
気 候</w>
来 年</w>
最 高</w>
手 伝
手伝 い</w>
厳 し</w>
全 体</w>
エ ン
wa sh</w>
w it
ton y</w>
syste m</w>
sin ging</w>
shu t</w>
ro se</w>
qua in
plea sure</w>
ph ysi
pain ting</w>
ob je
mo de
inv est
hun g
grand mother</w>
gener al</w>
gen tle
ga ge</w>
fru it</w>
ener gy</w>
eg gs</w>
di sp
con su
cle ver</w>
care less</w>
最 善</w>
思 え</w>
怒 り</w>
得 意</w>
優 れ</w>
ワ イン</w>
サ ッカー</w>
め った</w>
ち がい</w>
だ ま</w>
あ たり</w>
vi ol
su e</w>
spo ken</w>
spe cial</w>
s ant</w>
regre t</w>
re gu
pre ssed</w>
mini ster</w>
mid dle</w>
lo ws</w>
la ted</w>
ct ly</w>
cor ner</w>
be er</w>
ac quain
追 い
英 国</w>
社 長</w>
発 明</w>
殺 人</w>
文 化</w>
押 し
恐 れ</w>
変 化</w>
土 曜</w>
亡 くな</w>
事 態</w>
ッ チ</w>
タ イ</w>
と う
し っかり</w>
wa ste</w>
ta in
sa tion</w>
re li
pre vented</w>
pass eng
p es</w>
mi llion</w>
me mbers</w>
in si
hea t</w>
gh t
d ding</w>
con du
ca lly</w>
c king</w>
a tions</w>
見 つか</w>
育 て</w>
程 度</w>
祖 父</w>
書 類</w>
日 間</w>
ナ ー</w>
も ち
つ く</w>
か つ
wea lth</w>
su per
respe ct</w>
ni c</w>
magaz ine</w>
ma ster</w>
k i</w>
it e
g gage</w>
dro pped</w>
com par
can s</w>
b read</w>
at or</w>
面 倒</w>
練 習</w>
成 長</w>
夢 中</w>
上 司</w>
一 致</w>
ベ ッド</w>
ッ ト
ん ざ
わず か</w>
し も</w>
th ea
so c
soc cer</w>
pro gre
pla ys</w>
or ity</w>
o w
j un
hung ry</w>
fi eld</w>
cri me</w>
c ru
bea t</w>
1 00</w>
貧 乏</w>
経 営</w>
異 な</w>
明 る</w>
当 た</w>
プレゼ ント</w>
wh en
when ever</w>
wat ched</w>
t itu
suf fer
sa tur
qu arre
mar ry</w>
ju d
in st
e ss
cro ss</w>
coo king</w>
choo se</w>
ca used</w>
非 難</w>
釣 り</w>
避 け</w>
遠 く</w>
義 務</w>
乗 り</w>
す でに</w>
し た</w>
t oo
t an
stu dies</w>
sto len</w>
some body</w>
s no
plan s</w>
op port
n or</w>
le tters</w>
law yer</w>
la id</w>
k ni
fig ure</w>
coura ge</w>
adv ance</w>
話し かけ</w>
終 わり</w>
消 え</w>
権 利</w>
思 い</w>
宇 宙</w>
カ ナ
り 物</w>
かわ い</w>
い ま</w>
wor ry</w>
un t</w>
sp ir
scho lar</w>
plea sant</w>
mi les</w>
le g</w>
il ing</w>
gre e
g r
fami liar</w>
c ook</w>
騒 音</w>
話し 合</w>
用 意</w>
教 授</w>
失 礼</w>
ミ ルク</w>
も たら</w>
まさ に</w>
ぶ り</w>
かつ て</w>
うわ さ</w>
t ten</w>
st le</w>
sibi lity</w>
ra iny</w>
per su
pen ci
me aning</w>
marri age</w>
k ate</w>
i st</w>
grou p</w>
gi ving</w>
gi ves</w>
app le</w>
an n
ab sence</w>
種 類</w>
最 大</w>
市 場</w>
受け 入れ</w>
借 金</w>
ン ズ</w>
ど き</w>
つ れ</w>
wel come</w>
terri ble</w>
t a</w>
su it
str on
soci ety</w>
sil ent</w>
sa lt</w>
sa fe
recor d</w>
pi ctures</w>
pain ted</w>
p id</w>
or ig
hon est
gu n</w>
d ents</w>
a va
財 布</w>
支 払</w>
安 全</w>
サ ー
ろ ん</w>
み たい</w>
た った</w>
wi de</w>
who m</w>
w ood</w>
tri bu
ti v
thi ef</w>
ssa ge</w>
sol di
sho t</w>
sa fe</w>
na med</w>
laugh ed</w>
gener ally</w>
g as</w>
fre e
equ al</w>
d ry</w>
corre ct</w>
con ta
col or</w>
b en
0 ,000</w>
魅 力</w>
活 動</w>
フ レ
ど おり</w>
け が</w>
wee ks</w>
use ful</w>
ti e</w>
sea son</w>
r en
na tion</w>
lu ck</w>
gran ted</w>
fl ying</w>
ex p
chri st
b ad
選 挙</w>
詳 し</w>
比 べ</w>
植 物</w>
曲 が</w>
我 が</w>
国 際</w>
以 来</w>
人 形</w>
丈 夫</w>
た び</w>
titu de</w>
stra ight</w>
sp read</w>
sh el
ma l</w>
ld ed</w>
feel ings</w>
est s</w>
econo my</w>
de si
as ha
acce pted</w>
苦 し</w>
耐 え</w>
無 理</w>
流 行</w>
泳 げ</w>
感 情</w>
幸 運</w>
加 え</w>
ペ ージ</w>
ク ニック</w>
もち ろん</w>
は や</w>
sou p</w>
passeng ers</w>
mon y</w>
me tho
ll en</w>
list ening</w>
in ci
fu ji</w>
fran ce</w>
fif ty</w>
exce pt</w>
ex am
earli er</w>
e t
de b
asha med</w>
ar ms</w>
ameri cans</w>
a unt</w>
犯 罪</w>
想 像</w>
恐 ろし</w>
性 格</w>
富 士</w>
向 こう</w>
取 り</w>
別 れ</w>
光 景</w>
ケ イト</w>
カナ ダ</w>
ず れ</w>
valu e</w>
swe et</w>
sig ned</w>
ran g</w>
pro te
pre sen
parti cu
m .</w>
laugh ing</w>
in clu
ho b
for e
fa shi
di et</w>
de st
ci ent</w>
christ mas</w>
charac ter</w>
advi sed</w>
１ ２</w>
鉛 筆</w>
越 え</w>
誇 り</w>
競 争</w>
明 かり</w>
支 配</w>
振 る
技 術</w>
家 庭</w>
台 風</w>
午 前</w>
出 せ</w>
備 え</w>
わ ざ
り ん
し く</w>
さ あ</w>
こ り</w>
あ い
ve ment</w>
tal ks</w>
stran ger</w>
ss or</w>
so ld</w>
sme ll</w>
sing le</w>
pro bab
pic nic</w>
mea l</w>
l low</w>
ju dge</w>
in es</w>
dep ends</w>
de scri
ck y</w>
begin ning</w>
be side</w>
anima l</w>
af fe
ab sor
. m.</w>
４ ０</w>
集 ま</w>
通 り
良 く</w>
冷 た</w>
先 月</w>
兄 弟</w>
中 止</w>
ー ズ</w>
プ ロ
ピ クニック</w>
スペ イン</w>
は る
な くな</w>
い ち
un less</w>
tra de</w>
te ch
sup posed</w>
smi le</w>
s man</w>
re min
p ac
oc cur
muse um</w>
ma tters</w>
import ance</w>
i .</w>
gra ss</w>
g ly</w>
foo lish</w>
fi lm</w>
f ond</w>
ef fect</w>
appro a
al though</w>
立 場</w>
昨 晩</w>
叔 母</w>
利 益</w>
出 身</w>
ナイ フ</w>
スマ ス</w>
クリ スマス</w>
オ ン</w>
び っくり</w>
た て</w>
し か
き どき</w>
y outh</w>
w et</w>
su gar</w>
si ze</w>
satur day</w>
sal ary</w>
ne y</w>
honest y</w>
fa cts</w>
ele c
elec tri
e th</w>
de ep
ca ts</w>
ca lls</w>
b right</w>
ar ran
ap pointment</w>
5 0</w>
都 合</w>
過 去</w>
物 価</w>
欠 席</w>
愚 か</w>
容 易</w>
作 文</w>
乗 客</w>
ナ ン
ジ ン</w>
サ イ
んざ り</w>
りん ご</w>
や り
こ の
う んざり</w>
ty pho
tur ns</w>
so cial</w>
ri de</w>
promi sed</w>
profe ssor</w>
ma in</w>
lit er
kit ch
ha ll</w>
gu ess</w>
gla sses</w>
expre ss</w>
di shes</w>
ct ors</w>
conver sation</w>
clou ds</w>
贈 り物</w>
紳 士</w>
素 晴らし</w>
砂 糖</w>
生 産</w>
思 議</w>
地 位</w>
不 思議</w>
リ スト</w>
ブラ ウン</w>
ギ ー</w>
っぱ り</w>
た ず
そ ば</w>
さ ま</w>
あ あ</w>
the mati
tem per
ski ing</w>
sel dom</w>
se ll</w>
reco gni
qu it</w>
p apers</w>
ma themati
immedi ately</w>
ha sn</w>
g ri
favor ite</w>
de man
b ly</w>
ad a</w>
電 気</w>
邪 魔</w>
週 末</w>
表 現</w>
精 神</w>
犠 牲</w>
特 に</w>
煙 草</w>
毎 年</w>
地 図</w>
兵 士</w>
上 着</w>
ラ ー</w>
タ ン</w>
と め</w>
っ ぽ</w>
お い</w>
youn ger</w>
we aring</w>
sto ck</w>
star s</w>
sol ved</w>
scen e</w>
s low</w>
refu sed</w>
o be
la u
l lar</w>
kitch en</w>
exc ited</w>
envi ron
en ter
belie ved</w>
bad ly</w>
apo logi
accu sed</w>
物 語</w>
燃 え</w>
来 月</w>
曜 日</w>
払 い</w>
当 時</w>
再 び</w>
傾 向</w>
付 き
万 一</w>
ジ ュ
と おり</w>
だ ん</w>
た え</w>
か え</w>
いっ たい</w>
who ever</w>
trea ted</w>
teach ing</w>
ta st
sa ved</w>
respon sible</w>
progre ss</w>
pro per
poli cy</w>
or dered</w>
n it
n ancy</w>
ma p</w>
li ked</w>
kni fe</w>
j our
gu it
gentle man</w>
ele cted</w>
di li
con dition</w>
cho ice</w>
cha ir
be ll</w>
後 ろ</w>
向 き</w>
倒 れ</w>
一 言</w>
バ ラ</w>
ゴ ル
な り</w>
あき らめ</w>
var ious</w>
ta ught</w>
probab ly</w>
poe m</w>
mur der</w>
lin es</w>
lau gh</w>
in e
guit ar</w>
difficul ties</w>
criti ci
chin a</w>
c ta
進 歩</w>
生 き
大 事</w>
具 合</w>
供 給</w>
不 幸</w>
バ ッグ</w>
ネ ク
ネク タイ</w>
イ タ
は ま</w>
ず つ</w>
z en</w>
under stood</w>
thin ks</w>
rema ined</w>
o k</w>
mit ted</w>
inter national</w>
er y</w>
deep ly</w>
d run
con v
can cer</w>
b it
ap art</w>
ac tually</w>
a ting</w>
１ ５</w>
１ １</w>
聴 衆</w>
秘 書</w>
手 段</w>
恐 怖</w>
周 り</w>
優 し</w>
使 え</w>
スー プ</w>
ギ ター</w>
しゃ べ
さ ら</w>
wo ke</w>
u sing</w>
u ses</w>
te x
stor ies</w>
secre tary</w>
s qu
progra m</w>
opport unity</w>
n ur
mana ger</w>
le cture</w>
inte lli
in flu
i ve</w>
expla in</w>
ex plan
ex ac
crow ded</w>
can ada</w>
brea th</w>
at tra
are ly</w>
appear ance</w>
agre ed</w>
ac custo
退 屈</w>
追 いつ</w>
舞 い</w>
留 め</w>
最 終</w>
文 学</w>
価 格</w>
ル ギー</w>
ダ ー</w>
よ ろ
とう とう</w>
たず ね</w>
た た</w>
し め</w>
が ち</w>
week end</w>
travel ing</w>
ta ste</w>
ssi ve</w>
sk in</w>
sch edu
ru de</w>
ra ined</w>
per for
mr .</w>
moder n</w>
memor y</w>
l se</w>
j ac
hea lthy</w>
ga mes</w>
fi ll</w>
exce ll
com position</w>
cli mate</w>
chin ese</w>
ca stle</w>
c ard</w>
app li
ann oun
軽 蔑</w>
証 拠</w>
留 学</w>
半 分</w>
区 別</w>
個 人</w>
似 合</w>
世 紀</w>
レ ー
や り</w>
だ ん
そ ろ
y ers</w>
ty pe</w>
ti on
thea ter</w>
th ro
te eth</w>
stan ces</w>
st ep</w>
ro of</w>
pon d</w>
pic ked</w>
per fect</w>
ob ject</w>
mathemati cs</w>
ll u
ger man</w>
for est</w>
for ced</w>
exac tly</w>
enga ged</w>
bir th</w>
avo id</w>
appear ed</w>
al low</w>
記 憶</w>
美 人</w>
祖 母</w>
石 油</w>
特 別</w>
牛 乳</w>
泊 ま</w>
歓 迎</w>
椅 子</w>
教 室</w>
感 動</w>
奇 妙</w>
大 声</w>
台 所</w>
作 品</w>
今 週</w>
人 前</w>
ート ル</w>
メ ートル</w>
ナン シー</w>
な か</w>
だん だん</w>
そ ろ</w>
いら っしゃ</w>
temp er</w>
tast es</w>
spa ce</w>
some where</w>
ro ck</w>
ri l</w>
ri d</w>
plan ts</w>
pl enty</w>
pa le</w>
men tion</w>
m n</w>
le st</w>
i i</w>
ho k
go ld</w>
ea ten</w>
con fi
c he</w>
b y
al lowed</w>
a side</w>
読 め</w>
許 可</w>
見 かけ</w>
無 視</w>
指 導</w>
成 績</w>
契 約</w>
利 口</w>
先 日</w>
余 裕</w>
仕 方</w>
ロー マ</w>
ス ター</w>
ゴル フ</w>
イタ リア</w>
の う</w>
そ れ
tt on</w>
ton gue</w>
thir d</w>
th ou
t ence</w>
so f
sil ence</w>
si des</w>
sho wer</w>
rob bed</w>
qui ck</w>
p uni
near ly</w>
mp s</w>
mo tion</w>
ma th</w>
li ghts</w>
for got</w>
fin ding</w>
f y</w>
explan ation</w>
excell ent</w>
ea n</w>
b ran
at temp
ap ril</w>
ac hi
賢 明</w>
痛 み</w>
支 持</w>
意 識</w>
年 上</w>
大 人</w>
会 話</w>
リン ゴ</w>
バ ー
ト ン</w>
シ ン
z z
y e
typho on</w>
tur y</w>
t on</w>
moun tains</w>
man ners</w>
le gs</w>
ju sti
inno cent</w>
hea da
fur ther</w>
fl at</w>
dist ri
cre d
cen tury</w>
cap tain</w>
beg ins</w>
ac ted</w>
a de</w>
貿 易</w>
無 事</w>
悲 しみ</w>
引 き</w>
屋 根</w>
変 更</w>
否 定</w>
取 れ</w>
出 来
不 平</w>
レン ジ</w>
トラ ック</w>
キ ング</w>
カ ード</w>
しゃべ り</w>
お かし</w>
wea k</w>
th re
ten ed</w>
suggest ed</w>
serv ation</w>
pu tting</w>
politi cal</w>
or g
ka i
il ty</w>
gu ilty</w>
gu ests</w>
fol lowing</w>
fi xed</w>
f ed</w>
er ing</w>
econo mic</w>
car ds</w>
c ried</w>
be comes</w>
ab solu
a th
風 呂</w>
願 い</w>
閉 じ</w>
遅 く</w>
現 代</w>
洗 濯</w>
仲 間</w>
人 物</w>
下 が</w>
ボ ート</w>
わ が</w>
と きどき</w>
て はま</w>
じ め</w>
tu e</w>
sto ma
spe ed</w>
se tt
re g
pen dent</w>
n al</w>
mi ssing</w>
kin ds</w>
increa se</w>
in stru
go lf</w>
foo tball</w>
exam ple</w>
er ry</w>
en ces</w>
do ll</w>
di r
de cl
d less</w>
con diti
comp li
comfor table</w>
bo t
ble w</w>
appreci ate</w>
記 録</w>
見 つめ</w>
看 護</w>
吹 き
タイ プ</w>
や ら</w>
め ん</w>
だ い</w>
たま たま</w>
y a
w n
ri sk</w>
re gi
pri me</w>
po llu
occur red</w>
maj or</w>
m pa
lo cal</w>
ir e</w>
i ety</w>
grea tly</w>
go tten</w>
fer ence</w>
e ts</w>
dro w
con st
cli mb</w>
chi ef</w>
bro thers</w>
bo a
answ ered</w>
近 所</w>
観 光</w>
結 構</w>
眺 め</w>
発 表</w>
歩 け</w>
勇 敢</w>
フ ット
ック ス</w>
ス タ
と こ</w>
か い</w>
い ぶん</w>
z ation</w>
sen tence</w>
no se</w>
mar k</w>
ma tes</w>
lea der</w>
kai do</w>
hun g</w>
heada che</w>
fin an
fi ght</w>
en tran
depar tment</w>
deci de</w>
contro l</w>
c les</w>
bui ld</w>
be lon
aw are</w>
achi e
accusto med</w>
食 料</w>
議 長</w>
海 道</w>
泳 ぎ</w>
水 泳</w>
役 立</w>
実 現</w>
大 丈夫</w>
壊 れ</w>
商 品</w>
使 用</w>
レ ポート</w>
フット ボール</w>
つ ま</w>
が っかり</w>
va in</w>
sta ge</w>
sa ke</w>
requ est</w>
reg ard</w>
pho to
penci l</w>
p ment</w>
ma d</w>
lo vely</w>
j a
in vol
gen i
ex per
emp ty</w>
discu ssion</w>
disap pointed</w>
de m
da l</w>
cul ture</w>
consi der</w>
cer tain
bor row</w>
bo ttle</w>
be coming</w>
ad ver
ad d</w>
acci dents</w>
費 用</w>
解 け</w>
体 重</w>
ー ンズ</w>
ン チ</w>
サ ン
や つ</w>
ぞ れ</w>
それ ぞれ</w>
stoma ch</w>
re lie
ran k</w>
ra ise</w>
our selves</w>
mode l</w>
lea d</w>
high er</w>
grea test</w>
gh tly</w>
g n
ele ction</w>
dis ease</w>
ci ous</w>
can ce
bu ying</w>
bu tter</w>
bu l
ba ggage</w>
app ly</w>
ap ar
air plane</w>
運 命</w>
足 り</w>
触 れ</w>
覚 め</w>
禁 止</w>
礼 儀</w>
知り 合い</w>
産 業</w>
望 み</w>
何 事</w>
ー チ</w>
セ ーター</w>
ス カ
ょ う</w>
っ たり</w>
かわ い
いわ ゆる</w>
いち ばん</w>
wi ld</w>
ter min
teach ers</w>
succe ss
su peri
s an</w>
s a</w>
rep ly</w>
re search</w>
qu ality</w>
por ted</w>
politi cian</w>
pie ces</w>
peri o
orig in
of f
o we</w>
it ation</w>
i or</w>
hok kaido</w>
fa llen</w>
experi ment</w>
e mer
e mb
dra w</w>
de vo
conveni ent</w>
co p
child hood</w>
care less
bu n
as soci
ap t</w>
an ed</w>
遂 げ</w>
素 敵</w>
紅 茶</w>
文 句</w>
故 郷</w>
夫 婦</w>
増 加</w>
合 衆</w>
博 物</w>
北 海道</w>
中 心</w>
両 方</w>
コ ン</w>
オ レンジ</w>
ふ り</w>
つ き
ず いぶん</w>
いか に</w>
y ment</w>
w oods</w>
ve ge
th row</w>
ta ller</w>
supp er</w>
st y</w>
sle pt</w>
sh are</w>
sc or
politi cs</w>
o d
man u
list ened</w>
la test</w>
l er</w>
kno wing</w>
indu stry</w>
gi ft</w>
fol lows</w>
evi dence</w>
do llar</w>
condu ct</w>
class room</w>
ca l
boo k
bea ch</w>
ac coun
資 金</w>
評 価</w>
落ち 着</w>
相 談</w>
申し 訳</w>
生 物</w>
決 ま</w>
横 断</w>
完 成</w>
企 業</w>
ポ ケット</w>
セ ント</w>
ス テ
ス ケ
ア パート</w>
ど ころ</w>
と れ</w>
そろ そろ</w>
き のう</w>
お き</w>
あ が</w>
yo r</w>
x i
vo lu
un able</w>
tre ss</w>
sup pose</w>
s onal</w>
pa ge</w>
mea ls</w>
lu cky</w>
lo ts</w>
la zy</w>
hob by</w>
feel s</w>
consi dered</w>
comple te</w>
co ver</w>
circu m
certain ly</w>
ca lm</w>
c ool</w>
be low</w>
b er</w>
au to
app ears</w>
apar tment</w>
番 組</w>
汽 車</w>
換 え</w>
差 し
専 門</w>
女 優</w>
候 補</w>
人 類</w>
パ ー</w>
わ ざ</w>
せ よ</w>
あ そこ</w>
ti ckets</w>
thre w</w>
t ted</w>
si mi
s so
s la
rin gs</w>
provi de</w>
p hi
no i
mi s
lit ies</w>
langu ages</w>
is sue</w>
in side</w>
geni us</w>
ge or
g l
fri day</w>
environ ment</w>
entran ce</w>
drin ks</w>
dist in
conv in
con clu
compu ters</w>
chang es</w>
ad ed</w>
a mb
送 り</w>
眠 れ</w>
新 車</w>
意 志</w>
夏 休み</w>
地 方</w>
唯 一</w>
入 学</w>
ド ライ
ジョ ージ</w>
ア ン
よろ しく</w>
す り</w>
が り</w>
か な</w>
お っしゃ</w>
い れ</w>
we dding</w>
ver s</w>
swea ter</w>
sh y</w>
sh i</w>
pu lled</w>
po cket</w>
particu lar</w>
nee ded</w>
ma in
lo cked</w>
li a</w>
i la
g ence</w>
f ra
do wn
conta ct</w>
compe t
com mo
climb ed</w>
chair man</w>
ch erry</w>
cer e
cap able</w>
atten ded</w>
at titude</w>
５ ００</w>
飲み 物</w>
金 曜</w>
講 義</w>
計 算</w>
見 込み</w>
裁 判</w>
文 字</w>
市 長</w>
取り 戻</w>
公 平</w>
入 院</w>
交 換</w>
一 体</w>
マ ー
パ イ
バ ター</w>
グ ルー
エ ネ
ウ ィ
ん ど
や が
はじ めて</w>
つ づけ</w>
た め
た ぶん</w>
ぜ ひ</w>
じ ゃ
お そ
z ing</w>
wh er
we st</w>
visit ing</w>
tu res</w>
spea ker</w>
smi led</w>
shi ps</w>
s mar
re du
r a</w>
prepar ed</w>
oc ca
obe y</w>
noti ced</w>
mr s.</w>
mo ving</w>
ma yor</w>
lou d</w>
in k</w>
har d
gu y</w>
geor ge</w>
ga in</w>
fa st
f at</w>
f arm</w>
ev ent</w>
esca pe</w>
drun k</w>
dre w</w>
cra zy</w>
co a
ac tiv
駐 車</w>
貯 金</w>
論 文</w>
職 業</w>
立ち 寄</w>
確 認</w>
直 面</w>
疑 い</w>
汚 染</w>
家 具</w>
太 郎</w>
地 下</w>
全 力</w>
余 地</w>
不 安</w>
ペ ット</w>
チ ョ
ス イ
グルー プ</w>
エネ ルギー</w>
やが て</w>
ま あ</w>
なん か</w>
か せ</w>
y a</w>
vi ous</w>
tru ck</w>
th ered</w>
temper ature</w>
sur r
su spe
stu pid</w>
simp le</w>
shar p</w>
schedu le</w>
sa les</w>
re pu
pu pi
pro ved</w>
pri v
per sonal</w>
nor th</w>
na tive</w>
mi ssion</w>
me ssage</w>
me mber</w>
ma teri
m ble</w>
la yed</w>
hur ried</w>
ho le</w>
esca ped</w>
di vi
di a
de sp
dama ge</w>
cri min
consi sts</w>
compar ed</w>
chea p</w>
cen ter</w>
blo sso
b lan
ani sh</w>
an n</w>
ad dition</w>
ad ded</w>
a ver
a mu
首 相</w>
野 菜</w>
遠 慮</w>
輸 入</w>
距 離</w>
真 っ
替 え</w>
料 金</w>
当 地</w>
危 機</w>
動 か</w>
任 せ</w>
主 人</w>
一 部</w>
ワ イ</w>
レ ン</w>
ショ ック</w>
ケー ス</w>
ガ ン</w>
ア フ
はる か</w>
ち ら
u .
tea ch</w>
sti ck</w>
s ca
re comm
pre ssion</w>
pre sence</w>
pos t
per cent</w>
our s</w>
org ani
metho d</w>
k u
ju mped</w>
hea vi
har m</w>
fol lowed</w>
fashi on</w>
expla ined</w>
ex change</w>
do ctors</w>
disa pp
de ser
cred it</w>
con ne
circum stances</w>
che mi
cere mony</w>
cap ital</w>
bot tom</w>
ava ila
au stra
at es</w>
any where</w>
ac tress</w>
ac tor</w>
都 会</w>
現 実</w>
演 奏</w>
条 件</w>
名 声</w>
勝 利</w>
劇 場</w>
上 昇</w>
一 人
デ ザ
スピ ード</w>
ストラ リア</w>
シ ェ
オー ストラリア</w>
エン ジン</w>
ぼ れ</w>
と たん</w>
さ も</w>
ご めん</w>
こ と
か ぶ</w>
い ら</w>
い いえ</w>
tur ed</w>
stru ck</w>
sh in
ser i
produ cts</w>
poin ts</w>
pain t</w>
p ity</w>
or ed</w>
oc cu
la tely</w>
jun e</w>
invest i
in ven
holi days</w>
frien dly</w>
fer red</w>
f ers</w>
ea st</w>
cont ent</w>
con stru
con fu
co sts</w>
bur ning</w>
as king</w>
app ea
absor bed</w>
a da
離 陸</w>
解 雇</w>
自 殺</w>
競 技</w>
爆 発</w>
海 岸</w>
機 嫌</w>
概 し</w>
暮 れ</w>
明 け</w>
政 策</w>
振 り</w>
扱 い</w>
廃 止</w>
小 屋</w>
嬉 し</w>
地 面</w>
告 げ</w>
ビ ス</w>
わ た</w>
ふ さ
け ん
く つ
お まえ</w>
wal let</w>
wa shing</w>
vel s</w>
tar o</w>
se mb
sa le</w>
quarre l</w>
pla ces</w>
p un
ne l</w>
l ds</w>
ju mp</w>
inci dent</w>
in ation</w>
fe llow</w>
f are</w>
eng ine</w>
econo mi
e m
clear ly</w>
class mates</w>
che e
cen tra
bur ned</w>
bra ve</w>
availa ble</w>
ac tive</w>
頭 痛</w>
辞 め</w>
責 め</w>
見 知</w>
結 論</w>
無 し</w>
暗 記</w>
景 色</w>
天 才</w>
呼 び
出 し</w>
信 号</w>
予 想</w>
ボ タン</w>
プ ラ
スピ ーチ</w>
ば かげ</w>
ば あ</w>
ち んと</w>
き ちんと</w>
が け</w>
あ て</w>
wor e</w>
u. s.</w>
tra ins</w>
success ful</w>
spo t</w>
sp anish</w>
soldi ers</w>
sea ts</w>
sc ra
s outh</w>
respon sibility</w>
repu tation</w>
pre s
our ces</w>
less on</w>
in t</w>
hi b
han g</w>
h y
ga ined</w>
fa ir
ess enti
ef fe
de mo
da ily</w>
d ru
contra ct</w>
con sci
compla ining</w>
ben ef
bac k
aver age</w>
au tu
arre sted</w>
af ri
遊 び</w>
逮 捕</w>
途 方</w>
試 み</w>
親 し</w>
行 儀</w>
物 事</w>
悪 口</w>
寄 り</w>
召 し
協 力</w>
初 め</w>
ー ル
レ ース</w>
ポ ンド</w>
ホ ワ
ウ ェ
ひ ょ
と に
ち こ
ぐ れ</w>
か め</w>
い す</w>
tal ent</w>
t ings</w>
suffer ing</w>
sta r</w>
so ft</w>
s na
s in</w>
ra ised</w>
perio d</w>
o l</w>
invol ved</w>
g oo
for ms</w>
fa lse</w>
do cu
discu ssed</w>
de st</w>
d are</w>
cro ssing</w>
clo th</w>
６ ０</w>
階 段</w>
被 害</w>
発 展</w>
果 物</w>
最 新</w>
日 曜日</w>
引き 起こ</w>
多 数</w>
出来 事</w>
仕 上げ</w>
交 渉</w>
リ ー
ボ ー
ホワ イト</w>
ト ラン
テ ィ</w>
サー ビス</w>
コ ップ</w>
イン ド</w>
アフ リカ</w>
とに かく</w>
で も</w>
つ まり</w>
いっ そう</w>
ver ty</w>
tur ning</w>
th rea
supp ly</w>
superi or</w>
sp are</w>
sk ir
si ons</w>
sha pe</w>
s wit
r ary</w>
pro ce
po verty</w>
ner v
lar ger</w>
introdu ce</w>
insi sted</w>
imag ine</w>
im ed</w>
hou se
happ ens</w>
gro w
for ce</w>
ext ent</w>
ei gh
dir ty</w>
a d</w>
立ち 上が</w>
禁 煙</w>
発 言</w>
気 付</w>
比 較</w>
愛 情</w>
心 臓</w>
微 笑</w>
当 てはま</w>
建 設</w>
季 節</w>
処 理</w>
ル ト</w>
ペ ン
ニ スト</w>
キ ロ</w>
おそ らく</w>
あ た</w>
wher ever</w>
ten ded</w>
t ched</w>
sho ws</w>
sco lded</w>
s er</w>
reli gi
reali zed</w>
re ti
produ ct</w>
pati ence</w>
or din
opin ions</w>
nit ure</w>
nerv ous</w>
men tal</w>
me ant</w>
ke eping</w>
ita ly</w>
i z
i dle</w>
han ded</w>
fur niture</w>
free dom</w>
fle w</w>
fin al</w>
fi x</w>
fa irs</w>
ex i
deb t</w>
custo mers</w>
bor ro
bl ind</w>
autu mn</w>
austra lia</w>
arti st</w>
af fairs</w>
af fair</w>
acquain ted</w>
食 物</w>
退 職</w>
訴 え</w>
見 送り</w>
繰 り返</w>
神 戸</w>
生 命</w>
正 午</w>
捕 まえ</w>
抑 え</w>
売 り
優 勝</w>
作 法</w>
ま れ
ふ れ</w>
ther wise</w>
solu tion</w>
sho ck</w>
shel f</w>
s ke
ro me</w>
p et</w>
o therwise</w>
man ner</w>
m pi
lo ck</w>
liter ature</w>
li ber
ko be</w>
justi ce</w>
inten ded</w>
for ty</w>
denti st</w>
cont rary</w>
cla ssi
ca ses</w>
c ence</w>
bu tton</w>
bu d
belon gs</w>
ath le
arri val</w>
app ear</w>
apologi ze</w>
al ter
a do
貴 重</w>
翻 訳</w>
神 経</w>
生 まれ
日 記</w>
損 害</w>
投 げ</w>
所 有</w>
従 業</w>
平 均</w>
化 学</w>
制 度</w>
分 別</w>
俳 優</w>
乗 れ</w>
乗 せ</w>
世 間</w>
ユ ー
ポ ール</w>
ハ イ
ニ ング</w>
アル バ
と り</w>
っ ぱ</w>
か ばん</w>
あ け</w>
wor n</w>
ter m</w>
ta bles</w>
simi lar</w>
sett led</w>
s ounds</w>
s en</w>
re fle
re ce
pre ss</w>
influ ence</w>
indu stri
i c</w>
hon or</w>
ho lds</w>
ha wa
gre es</w>
gh tened</w>
g ree</w>
g ho
fi re
fi gh
fe ver</w>
emplo ye
emb ar
e qui
do ors</w>
dest ro
de termin
con ference</w>
c ure</w>
c ities</w>
b re
app lied</w>
ac tions</w>
航 空</w>
舞 台</w>
空 腹</w>
確 かめ</w>
物 理</w>
書き 留め</w>
強 盗</w>
基 づ</w>
保 険</w>
伸 ば</w>
付き 合</w>
不 満</w>
一 方</w>
フ ェ
ハ ワイ</w>
ん ば</w>
ろ う
ふ う</w>
と ど
て き</w>
ちゃ んと</w>
た だ
ぜ い</w>
さ さ
けん か</w>
か ね</w>
う る
う け</w>
windo ws</w>
wi lling</w>
thou ghts</w>
str ength</w>
sp en
scienti st</w>
san g</w>
safe ty</w>
regu lar</w>
recogni zed</w>
polit e</w>
pla in</w>
ordin ary</w>
op ening</w>
neighbor s</w>
na mes</w>
ki lo
intelli gent</w>
i ed</w>
gro wn</w>
gar et
g ged</w>
f ted</w>
est ab
dem and</w>
de te
custo m</w>
cur rent</w>
ci garet
chi ck
careless ness</w>
bi g
an ti
advan ced</w>
込 め</w>
美 術</w>
独 立</w>
民 主</w>
効 果</w>
努 め</w>
使 い</w>
以 内</w>
ペン キ</w>
プ ロ</w>
んど ん</w>
ち に</w>
す てき</w>
き れ</w>
が れ</w>
が た</w>
うる さ</w>
vi du
u l
to wer</w>
seri ously</w>
pi ani
par ts</w>
pa ir</w>
no vels</w>
lo sing</w>
li ft</w>
li d</w>
indi vidu
gh ted</w>
expen ses</w>
essenti al</w>
ea ger</w>
di ary</w>
de pri
de layed</w>
de grees</w>
con tribu
ca b
c o</w>
bi ke</w>
ba sed</w>
afri ca</w>
飽 き</w>
関 わ</w>
重 大</w>
農 場</w>
販 売</w>
誤 解</w>
誠 実</w>
自 ら</w>
画 家</w>
暗 闇</w>
景 気</w>
方 向</w>
手 術</w>
同 然</w>
出 版</w>
入 り</w>
レ コー
ファ ー</w>
タ ー
ほ ぼ</w>
つ な</w>
せ い
き つ</w>
か ん
か らか</w>
wor ried</w>
we ars</w>
war ds</w>
w a</w>
vi l</w>
ten ds</w>
sur vi
state ment</w>
se par
satis factory</w>
ro ses</w>
repa ired</w>
remin ds</w>
ra b
qu e
pri de</w>
po w
plan ning</w>
or i
oc ean</w>
newsp apers</w>
musi cian</w>
ll o</w>
l er
inter pre
inno cence</w>
grow th</w>
fe sti
fa lling</w>
exc iting</w>
e ment</w>
dro ve</w>
di v
deman ded</w>
cu ri
cro ssed</w>
crimin al</w>
by e</w>
arti cle</w>
高 価</w>
講 演</w>
評 判</w>
記 事</w>
米 国</w>
犯 人</w>
洪 水</w>
様 子</w>
書 き</w>
攻 撃</w>
夕 方</w>
勤 め</w>
ー タ</w>
スカ ート</w>
サ ー</w>
サ ム</w>
も はや</w>
ふ る
ぬ れ</w>
ど んどん</w>
え ば</w>
y i
vi r
trea t</w>
ti ves</w>
thi ck</w>
ta il</w>
t r
t ors</w>
stri ke</w>
ster y</w>
ster n</w>
sta mps</w>
smar t</w>
sit ive</w>
sist ers</w>
shou lder</w>
she ep</w>
sh ook</w>
sh ine</w>
se ction</w>
sch oo
ri ghts</w>
r are</w>
priv ate</w>
piani st</w>
per son
ou se</w>
neighbor hood</w>
jour ney</w>
inde pendent</w>
he sit
hawa ii</w>
gu ar
ga thered</w>
fo g</w>
fi cient</w>
fa ster</w>
exp lo
en se</w>
distin gui
di sh</w>
di sc
deta il</w>
dep end</w>
demo cra
cour t</w>
consider ation</w>
ce ly</w>
care er</w>
ca sh</w>
ca lling</w>
as su
ad mit</w>
達 成</w>
返 し</w>
警 告</w>
複 雑</w>
組 織</w>
無 実</w>
深 刻</w>
検 査</w>
成 り
思 いつ</w>
役 割</w>
専 攻</w>
夫 人</w>
大 勢</w>
多 額</w>
命 令</w>
パ イ</w>
ッ プ
ダ ル</w>
カ ン
み え</w>
ちこ ち</w>
せい ぜい</w>
か ん</w>
おも ちゃ</w>
あ ちこち</w>
tou ri
sun days</w>
su spi
su m</w>
star ts</w>
si x
resu lted</w>
re qui
pri son
pra ise</w>
pla yers</w>
p .m.</w>
nur se</w>
nu clear</w>
noi sy</w>
ne g
k ne
j ones</w>
gro wing</w>
go ti
gener ation</w>
g or
evi l</w>
er ful</w>
disapp ear
cor respon
continu ed</w>
continu e</w>
compani es</w>
be have</w>
ba ttle</w>
an no
adver ti
acce ss</w>
２ ００</w>
貴 方</w>
訓 練</w>
自 己</w>
知 れ</w>
用 い</w>
欠 け</w>
有 罪</w>
旧 友</w>
慎 重</w>
忍 耐</w>
広 告</w>
夜 更
勧 め</w>
免 許</w>
ロ ック</w>
ュ ー</w>
メ ール</w>
ホ ーム</w>
パ ン
ノ ート</w>
チ ーズ</w>
つ ら</w>
だ ら
ず ら</w>
sha ke</w>
re servation</w>
r .</w>
provi ded</w>
pollu tion</w>
mo tor
less ons</w>
inv itation</w>
har v
gra tu
ga l</w>
frien d
fer ed</w>
el s</w>
dili gent</w>
devo ted</w>
descri ption</w>
da d</w>
con test</w>
c ea
brea king</w>
be t</w>
as sist
ad mitted</w>
ab an
5 00</w>
頂 上</w>
逃 げ
覚 ま</w>
知 ら</w>
目 標</w>
田 中</w>
残 り</w>
幽 霊</w>
帰 り</w>
宗 教</w>
好 み</w>
基 本</w>
喧 嘩</w>
同 時</w>
同 情</w>
合 図</w>
医 師</w>
侮 辱</w>
ロ ン</w>
バイ オ
ネ ット</w>
チェ ック</w>
ジョ ーンズ</w>
ガ ス</w>
わざ わざ</w>
り 込</w>
が んば</w>
いら いら</w>
あ り</w>
writ es</w>
va se</w>
tan a
s wee
res cu
qu ired</w>
qu e</w>
pupi ls</w>
pre p
prep are</w>
on i
o o</w>
no ve
ne goti
na tions</w>
medi cal</w>
mb ling</w>
l ength</w>
k id</w>
k en
fre qu
fran k
fl ood</w>
fin ger</w>
festi val</w>
est ima
er r
dis covered</w>
d ying</w>
can di
cal cu
blosso ms</w>
b low</w>
b loo
b its</w>
atta ck</w>
ar ily</w>
appli cation</w>
ac commo
absolu tely</w>
1 0
隠 れ</w>
資 源</w>
財 政</w>
笑 い</w>
相 当</w>
珍 し</w>
横 切</w>
有 効</w>
放 課</w>
挨 拶</w>
投 げ
多 分</w>
品 物</w>
味 方</w>
召し 上が</w>
勘 定</w>
休 日</w>
ライ オン</w>
ボ ン</w>
ベ ス</w>
ピア ニスト</w>
ス テー
よ う
が め</w>
お よ
お も</w>
vi ctory</w>
v ere</w>
th in</w>
teach es</w>
sur face</w>
su res</w>
sou l</w>
si lly</w>
sha me</w>
se vere</w>
se ly</w>
s port</w>
s can
ri sing</w>
reali ze</w>
re cent</w>
pur se</w>
proper ty</w>
po t</w>
ph y</w>
origin al</w>
oper ation</w>
no te</w>
ne t</w>
my stery</w>
loo se</w>
li cen
ki ll</w>
he llo</w>
gra p
g ging</w>
fortun ately</w>
fe ed</w>
f ence</w>
f ea
ele ven</w>
dire ction</w>
custo ms</w>
consci ous</w>
con gratu
bor ed</w>
bo w</w>
b ite</w>
arri ving</w>
ap par
announ ced</w>
a woke</w>
a im</w>
１ ８</w>
閉 ま</w>
迷 惑</w>
負 傷</w>
裕 福</w>
睡 眠</w>
率 直</w>
片 付け</w>
焼 け</w>
消 費</w>
次 々</w>
握 手</w>
振る 舞い</w>
投 票</w>
批 判</w>
怪 我</w>
思い 出せ</w>
強 調</w>
引っ 越</w>
対 処</w>
友 情</w>
切 り</w>
共 通</w>
仲 良く</w>
代 わ</w>
今 ごろ</w>
マ ン</w>
ビ ー</w>
ニ ア</w>
デ ィ</w>
チ ケット</w>
ダ ンス</w>
グ ラス</w>
ク ト</w>
ガ ラス</w>
カー テン</w>
な る
っ ち
っ こ</w>
この 世</w>
win ning</w>
whi ch
which ever</w>
wa ves</w>
vi de
vege tables</w>
ti ed</w>
stu ck</w>
ssi ons</w>
ru pt</w>
roo ms</w>
regar ds</w>
rea m</w>
pri son</w>
p ron
p an
nor mal</w>
no te
m ance</w>
li shed</w>
li on</w>
le vel</w>
hu mor</w>
hu ge</w>
ha dn</w>
finan cial</w>
f li
emer gen
electri city</w>
du st</w>
depri ved</w>
depar ture</w>
de cei
dan cing</w>
cro ps</w>
compla in</w>
cla sses</w>
car rying</w>
bru sh</w>
bi o
be th</w>
be long</w>
auth or</w>
ar my</w>
ac he</w>
a i
８ ０</w>
道 具</w>
記 者</w>
製 造</w>
管 理</w>
直 接</w>
現 場</w>
渋 滞</w>
済 ま</w>
構 成</w>
待 ち
建 築</w>
幸 い</w>
冒 険</w>
休 憩</w>
今 回</w>
下 げ</w>
ロー プ</w>
ト ー
も ん</w>
に おい</w>
とど ま</w>
え え</w>
z er
wa shed</w>
th ly</w>
ta ined</w>
sm oo
sig n
sha ke
sh ining</w>
sen sitive</w>
se lling</w>
rema ins</w>
rea son
pu sh</w>
presen ted</w>
pre di
persu ade</w>
ne ck</w>
n on
ma t
lon ely</w>
le y</w>
lar ly</w>
la bor</w>
in se
hel ping</w>
han dle</w>
h ey</w>
gu ard</w>
gradu ated</w>
friend ship</w>
dou ble</w>
develo ped</w>
den ied</w>
b ench</w>
affe cted</w>
a st
１９ ９
香 り</w>
話 し</w>
診 察</w>
見 分け</w>
花 瓶</w>
玄 関</w>
有 能</w>
支 払い</w>
指 摘</w>
持ち 合わせ</w>
宝 石</w>
大 金</w>
売 り</w>
印 象</w>
勝 て</w>
内 容</w>
会 員</w>
予 報</w>
世 の
世の 中</w>
ワ ー</w>
ワ ー
ベ ンチ</w>
ネ ル</w>
ツ ケース</w>
スー ツケース</w>
スピ ア</w>
ク スピア</w>
ウ イ
や れ</w>
に わか</w>
ど っち</w>
たい した</w>
z u
war mer</w>
ven ture</w>
valu able</w>
twe l
too th</w>
tech no
tana ka</w>
t in</w>
t ful</w>
suit able</w>
suggest ion</w>
state sman</w>
st on</w>
spir it</w>
spe are</w>
sp here</w>
sor row</w>
sle ep
shake speare</w>
scan dal</w>
sa le
res ources</w>
repa ir</w>
re v
ra tion</w>
pu ll</w>
pl ant</w>
perfor mance</w>
pa th</w>
near est</w>
me ter</w>
ma y
licen se</w>
lar gest</w>
k ness</w>
jac ket</w>
ita in</w>
introdu ced</w>
indi a</w>
increa sed</w>
hun ger</w>
for med</w>
figh ting</w>
fi red</w>
expen se</w>
employe es</w>
embar ra
easi er</w>
de ba
cu te</w>
critici sm</w>
communi cate</w>
clear ed</w>
cl er
br itain</w>
borro wed</w>
al y
agre ement</w>
admi re</w>
19 9
駆 け
頑 張</w>
証 明</w>
群 衆</w>
眠 り</w>
無 罪</w>
本 物</w>
時 刻</w>
抱 え</w>
投 資</w>
恥 じ</w>
夜更 かし</w>
夜 中</w>
国 家</w>
取り 除</w>
博 士</w>
今 後</w>
事 情</w>
不 明</w>
一 目</w>
ミ ー</w>
バ ス
デ ート</w>
スト ン</w>
ス コ
ジ ア</w>
サ ギ</w>
コ レ
り 出</w>
ふ け</w>
な お</w>
ち が</w>
さ ま
が 家</w>
yu ko</w>
wor thy</w>
wor st</w>
wa days</w>
un ion</w>
twel ve</w>
to i
ti ght</w>
th u
te lls</w>
supp lies</w>
super market</w>
st ers</w>
sof a</w>
sma ller</w>
regar ded</w>
ran ce</w>
ra il
r arely</w>
produ ction</w>
prepar ing</w>
no wadays</w>
nar row</w>
n a</w>
mu st
mit ting</w>
lo wer</w>
hu man
ho lding</w>
hel ps</w>
heavi ly</w>
ha te</w>
f lies</w>
expre ssed</w>
div or
discu ss</w>
cra sh</w>
cou sin</w>
confi dence</w>
com man
climb ing</w>
ap pointed</w>
ad u
１ ０００</w>
長 年</w>
署 名</w>
破 壊</w>
疑 わし</w>
浪 費</w>
治 療</w>
暴 力</w>
持ち 上げ</w>
拒 否</w>
従 事</w>
当 たり</w>
引き 受け</w>
姉 妹</w>
原 子</w>
下 手</w>
モ ア</w>
ド ラ
ッ キー</w>
チャ ンス</w>
ソ リン</w>
サイ ズ</w>
ガ ソリン</w>
エ ット</w>
ウ サギ</w>
イン フ
イ ル</w>
っぱ なし</w>
っ こり</w>
た れ</w>
が し</w>
あ く
z oo</w>
we i
v ent</w>
travel ed</w>
toi let</w>
to tal</w>
th or
stea ling</w>
shor e</w>
reme ly</w>
re si
qu ar
puni shed</w>
necess arily</w>
mo bi
mar ch</w>
ld ings</w>
la un
ir on</w>
investi ga
infor med</w>
ha u
ha l
ha ir
grap h</w>
gi c</w>
ger many</w>
f ought</w>
f its</w>
ext remely</w>
enti rely</w>
eng ine
en cy</w>
emp ha
ea ts</w>
drea ms</w>
dra wing</w>
determin ed</w>
destro yed</w>
d rank</w>
d r.</w>
d on
cop y</w>
ci ans</w>
chick en</w>
c iti
bo ston</w>
attemp t</w>
Ｃ Ｄ</w>
顔 色</w>
開 発</w>
貴 社</w>
誉 め</w>
見 物</w>
裏 切</w>
芝 居</w>
航 海</w>
立 ち</w>
知り 合</w>
申し 上げ</w>
服 装</w>
昇 進</w>
新 鮮</w>
数 え</w>
提 供</w>
打 ち</w>
急 速</w>
怠 け</w>
失 望</w>
傷 つけ</w>
ボ ストン</w>
フレ ンド</w>
ピ ー</w>
パ ス
ソ ファー</w>
シ ック</w>
サ イン</w>
エ イ
や は
やは り</w>
め で
む だ</w>
む ずかし</w>
ま わ</w>
の み</w>
さ っ
き わ
いた ずら</w>
y el
wi shes</w>
w oo
up stairs</w>
u nex
tri f
t it
sy mpa
stru gg
stre ets</w>
sta ff</w>
ski ll</w>
scen ery</w>
scar cely</w>
s ers</w>
s day</w>
que en</w>
prin ci
pp er</w>
ph oned</w>
p ounds</w>
of fered</w>
li sh
ki ds</w>
hand some</w>
foreig ners</w>
for give</w>
emergen cy</w>
el ds</w>
dif fer</w>
d it
bo y
bla med</w>
be gun</w>
b rain</w>
a like</w>
２ ５</w>
障 害</w>
配 達</w>
適 切</w>
近 頃</w>
辺 り</w>
豊 富</w>
豊 か</w>
芝 生</w>
自 信</w>
現 金</w>
無 礼</w>
検 討</w>
教 科</w>
控 え</w>
抗 議</w>
取 引</w>
動 き</w>
加 わ</w>
下 ろ</w>
レコー ド</w>
ユ コ</w>
メ ン
マ ユコ</w>
バイオ リン</w>
スー ザ
スーザ ン</w>
スケ ート</w>
ジ ー</w>
シ ア</w>
ガ イ
カ ゴ</w>
エ レ
っ すり</w>
ご く</w>
ぐ っすり</w>
き 回</w>
か た</w>
い で</w>
あ い</w>
z z</w>
yel low</w>
vide o</w>
under standing</w>
tech ni
te ful</w>
t tered</w>
t ance</w>
suit case</w>
su san</w>
son gs</w>
sli pped</w>
se ven
ro le</w>
reme mb
reco very</w>
recei ve</w>
re covered</w>
pun ctu
practi cal</w>
pra ised</w>
physi cs</w>
per si
pa ins</w>
mo vement</w>
ma yuko</w>
laugh ter</w>
l ent</w>
kin dly</w>
iti ve</w>
iti sh</w>
inv ite</w>
high ly</w>
gui de</w>
gri ef</w>
gl ance</w>
fun ny</w>
fri ghtened</w>
fi gu
en ced</w>
en ab
do w</w>
distri ct</w>
da tes</w>
da ta</w>
coun ts</w>
conveni ence</w>
bui ldings</w>
bu ses</w>
br itish</w>
ba th
b led</w>
al co
acce p
ac compani
７ ０</w>
驚 き</w>
預 け</w>
離 婚</w>
追い かけ</w>
輸 出</w>
超 え</w>
賞 賛</w>
詳 細</w>
話 題</w>
討 論</w>
解 釈</w>
笑 み</w>
突 き
税 金</w>
真 相</w>
病 人</w>
生 涯</w>
独 り</w>
無 料</w>
浴 び</w>
有 利</w>
時 期</w>
支 え</w>
持ち 主</w>
怠 惰</w>
徐 々</w>
巻 き
小 麦</w>
女 子</w>
大 臣</w>
保 証</w>
以 下</w>
代 表</w>
今 月</w>
一 行</w>
ン ネル</w>
ホ ール</w>
ドライ ブ</w>
トラン プ</w>
デ ータ</w>
ッ シ
スー ツ</w>
ウ ン
イ エ
ア ジア</w>
ほ ら</w>
つ ぶ
じ き</w>
しか も</w>
こ し</w>
こ う
お と
あ ん
z ens</w>
vo te</w>
unex pe
un happy</w>
travel s</w>
throu gh
t ent</w>
suspe ct</w>
spe ll</w>
ser va
sen ior</w>
roa ds</w>
rin ging</w>
r is</w>
pro posed</w>
pro per</w>
pro motion</w>
po ckets</w>
pi cal</w>
pe t
ou red</w>
occa sion</w>
mu l
liber ty</w>
li fe
lea ding</w>
la tions</w>
la ce</w>
ke en</w>
jo bs</w>
gradu ally</w>
g est
g en</w>
frank ly</w>
for th</w>
fair ly</w>
fa me</w>
fa lls</w>
ex hau
ear ns</w>
develo pment</w>
desi re</w>
deli cious</w>
dea ls</w>
de e
d oned</w>
d ant</w>
conclu sion</w>
cle aned</w>
che ese</w>
bo ther</w>
amb ition</w>
a to
青 年</w>
震 え</w>
集 中</w>
選 択</w>
詰 め</w>
言い 訳</w>
衝 突</w>
苦 手</w>
疑 問</w>
物 質</w>
日 光</w>
振る 舞</w>
指 示</w>
戦 い</w>
少 々</w>
大 雨</w>
名 誉</w>
世 代</w>
不 可
レ ー</w>
ユー モア</w>
ベ ルト</w>
プ ライ
バス ケット</w>
ト イ
ディ ー</w>
デ パート</w>
コ ール</w>
オ フィ
ほ め</w>
す ぐれ</w>
じ い</w>
し ょ
さ っぱり</w>
ぎ り</w>
か ご</w>
お お
いわ ば</w>
い ずれ</w>
y ama
vir tue</w>
vi cti
ver ed</w>
to es</w>
t our</w>
simp ly</w>
sh oo
sea s</w>
s light</w>
remar ks</w>
rema in</w>
rea ds</w>
re semb
re f
rab bit</w>
r it
pos se
pea ce
p lo
p it
ob li
neg le
ne st</w>
mista ken</w>
may be</w>
jud ging</w>
i denti
h in
gra m
for gotten</w>
figu res</w>
estab lished</w>
err ors</w>
er t</w>
drow ned</w>
divi ded</w>
disappear ed</w>
deli ghted</w>
de lay</w>
d den</w>
cta tions</w>
cor po
con centra
cho se</w>
be ings</w>
ba si
ang es</w>
a wake</w>
a h</w>
2 0
黄 色</w>
身 体</w>
締 め</w>
立ち 去</w>
生まれ つき</w>
片 づけ</w>
法 案</w>
汚 れ</w>
気 の
本 気</w>
期 間</w>
日 々</w>
文 法</w>
快 適</w>
広 が</w>
常 識</w>
寂 し</w>
定 刻</w>
安 心</w>
吠 え</w>
勤 務</w>
制 限</w>
主 要</w>
主 な</w>
ー ブ</w>
メ ント</w>
ソ フ
スー パー</w>
ジ ル</w>
ク リス</w>
イエ ス</w>
わざ と</w>
ゅ う</w>
ぴ ったり</w>
な お
け 合</w>
くつ ろ</w>
か え
々 し</w>
through out</w>
tex t
techno logy</w>
sub way</w>
squ are</w>
sno w
sleep y</w>
skir t</w>
sc re
sa u
rou gh</w>
remar k</w>
rea sons</w>
re st
ra pi
pass port</w>
pa ssing</w>
or anges</w>
note book</w>
mi ld</w>
mi d</w>
mana gement</w>
ke ys</w>
inde ed</w>
in vented</w>
hor ses</w>
ho ped</w>
hi ro
ha m
gra de</w>
gen tle</w>
fi cial</w>
dra ma</w>
distingui sh</w>
disp u
de gree</w>
cre w</w>
convin ced</w>
communi cation</w>
chan ces</w>
cha mpi
ce le
car ries</w>
ca s
bran ch</w>
bea ting</w>
bal ance</w>
answ ers</w>
al arm</w>
長 生き</w>
軍 隊</w>
赤 字</w>
請 求</w>
観 察</w>
臆 病</w>
背 中</w>
確 実</w>
申し 分</w>
満 ち</w>
沈 黙</w>
気の 毒</w>
新 た</w>
放 送</w>
揺 れ</w>
指 輪</w>
思 想</w>
広 ま</w>
失 業</w>
大 会</w>
国 会</w>
回 り</w>
医 学</w>
保 護</w>
便 利</w>
例 えば</w>
伝 言</w>
ー ム
メ グ</w>
ボー イ</w>
パス ポート</w>
トイ レ</w>
ッシ ュ</w>
セ ン
ジ ネ
シ カゴ</w>
クリ ーム</w>
ク レ
オフィ ス</w>
り 合</w>
も ど</w>
まっ すぐ</w>
ふ と</w>
ひ っ
だら け</w>
さ が</w>
か ぎ</w>
お 腹</w>
あい にく</w>
あ ふれ</w>
あ す</w>
we l</w>
w ound</w>
vie ws</w>
v ac
ur a</w>
tu es
tter y</w>
trou bles</w>
trea tment</w>
thro at</w>
speci ally</w>
sp ends</w>
sh ment</w>
scienti sts</w>
sa v
s our</w>
s n
rela ted</w>
ref rain</w>
recor ds</w>
ra w</w>
qui e
plan es</w>
pla ced</w>
parti cipa
p ha
od d</w>
mon stra
mid night</w>
me g</w>
li m
insu rance</w>
increa sing</w>
in tend</w>
im p
hea ds</w>
ha ste</w>
foreig ner</w>
for ever</w>
fin gers</w>
ext ra</w>
expe ctations</w>
ev ents</w>
dete ctive</w>
cle aning</w>
chi ca
chica go</w>
ch ris</w>
bur g
brea ks</w>
be tty</w>
b one</w>
auth ority</w>
atta ched</w>
ast oni
ar ed</w>
appro ve</w>
anx iety</w>
an cient</w>
am a</w>
a .m.</w>
飛び 出</w>
頼 り</w>
鉄 道</w>
逃げ 出</w>
資 格</w>
誘 惑</w>
記 念</w>
緊 急</w>
続 き</w>
組 み
範 囲</w>
発 音</w>
用 心</w>
混 乱</w>
永 久</w>
未 来</w>
採 用</w>
我 が家</w>
寄 付</w>
女 王</w>
報 道</w>
双 子</w>
冷 静</w>
何 処</w>
ロ ー</w>
ブ ル
ビ ジネ
ス コ</w>
ジョ ギ
ジョギ ング</w>
ショ ー</w>
グ ランド</w>
グ ラ
エレ ベ
ぶ ら
ふさ わし</w>
は ずれ</w>
の ぼ</w>
つ か
だ り</w>
ざ ま</w>
z es</w>
w ra
volu tion</w>
viol in</w>
tues day</w>
tax es</w>
sun der
star ed</w>
safe ly</w>
requi res</w>
recomm end</w>
rea lity</w>
re tired</w>
re serve</w>
pro cess
preci ous</w>
pre vent</w>
persu aded</w>
p sy
obje ction</w>
o x
nove list</w>
mi sunder
mi r
materi al</w>
manu fa
ma le</w>
li t</w>
kno cked</w>
k an
it a</w>
in f
im pression</w>
ill u
ignor ance</w>
i son</w>
hor iz
grea ter</w>
gra teful</w>
gh ly</w>
fro zen</w>
fif teen</w>
fi c
en coura
ele v
e specially</w>
dis gu
de monstra
de fin
d ged</w>
crea m</w>
constru ction</w>
const itu
conditi ons</w>
comp are</w>
col ors</w>
cler k</w>
classi cal</w>
ch i</w>
ca p</w>
c lar
be tra
an ds</w>
accompani ed</w>
a si
2 00</w>
1 5</w>
1 ,000</w>
飛 ば</w>
需 要</w>
隣 人</w>
違 反</w>
通 し</w>
賃 金</w>
表 情</w>
考 え
火 曜</w>
漫 画</w>
満 た</w>
注 目</w>
急 ぎ</w>
延 ば</w>
年 寄り</w>
平 等</w>
天 然</w>
変 わり</w>
埋 め
周 囲</w>
収 穫</w>
占 め</w>
匂 い</w>
内 気</w>
入 場</w>
乗り 換え</w>
ン ソン</w>
デザ イン</w>
タイ ル</w>
スマ ン</w>
キ ス</w>
や く</w>
まさ か</w>
とり わけ</w>
つ ぶ</w>
たま に</w>
そ り</w>
す ら</w>
し たが</w>
こ たえ</w>
け っ
き ゃ</w>
か わり</w>
か ぜ</w>
あ っ</w>
tem por
ta lly</w>
surr ounded</w>
sk i</w>
sk et</w>
sco pe</w>
sa ving</w>
rela tion
rapi dly</w>
ra ge</w>
pro fit</w>
pres sure</w>
pre vious</w>
po ol</w>
per sons</w>
per ha
perha ps</w>
pe ter</w>
or ies</w>
mo m</w>
mi ser
mer cy</w>
m on</w>
m ere</w>
lo an</w>
ke i
joh n
j ea
j am</w>
inven tion</w>
impro ved</w>
im pressed</w>
her o</w>
harv est</w>
exa ms</w>
ex ist</w>
enti re</w>
eg g</w>
de pos
cur tain</w>
cru el</w>
coo ki
comple ted</w>
commit ted</w>
colle cting</w>
cipa l</w>
charac teri
char ged</w>
chang ing</w>
bud get</w>
bor ing</w>
ba gs</w>
b arely</w>
attra ctive</w>
at tribu
at mo
ar ch
accor d</w>
aban doned</w>
4 0</w>
飢 え</w>
部 下</w>
覚 悟</w>
聞 き
答 案</w>
直 ちに</w>
発 生</w>
永 遠</w>
毎 週</w>
様 々</w>
最 良</w>
早 寝</w>
応 募</w>
微 笑み</w>
就 職</w>
売 れ</w>
古 代</w>
受 か</w>
割 り
刑 務</w>
分 野</w>
作 物</w>
伸 び</w>
不 利</w>
一 時</w>
モ ン</w>
マ ン
ピ カ
ネ コ</w>
ティ ング</w>
ス タイル</w>
ジャ ズ</w>
ウ ト</w>
イン ク</w>
よう やく</w>
ま わり</w>
ま さ</w>
ひと り
ぜ ん</w>
こ ぼ</w>
が え</w>
お こ</w>
い まだ</w>
wor ker</w>
war ned</w>
touri sts</w>
tou ched</w>
su mm
stri ct</w>
st ly</w>
sme lls</w>
sig ns</w>
sen ten
se i
s wal
resemb les</w>
rela tions</w>
re pea
re mind</w>
ra in
per mission</w>
per fe
or an
oran ge</w>
n t</w>
must n</w>
mir ror</w>
mar ks</w>
man age</w>
m ood</w>
k u</w>
ju ly</w>
je cted</w>
ja zz</w>
ita li
individu al</w>
impro ve</w>
i ci
happ i
gro ws</w>
go al</w>
gener ous</w>
g y
fore cast</w>
for mer</w>
fa ith</w>
f ancy</w>
er ror</w>
dire ct</w>
deta ils</w>
coo ked</w>
compla ined</w>
co pi
cla imed</w>
ca t
boy friend</w>
bo ar
big ger</w>
benef it</w>
belie ves</w>
belie f</w>
be sides</w>
ban k
ba sket</w>
b ent</w>
auto mobi
ar ies</w>
ac ity</w>
1 8
過 ち</w>
辞 職</w>
表 面</w>
習 得</w>
眼 鏡</w>
減 ら</w>
洋 服</w>
改 善</w>
恵 まれ</w>
忠 実</w>
心 理</w>
市 民</w>
山 田</w>
小 鳥</w>
小 切手</w>
容 疑</w>
完 璧</w>
奴 隷</w>
天 井</w>
大 量</w>
外 交</w>
埋め 合わせ</w>
反 応</w>
割 れ</w>
冷 蔵</w>
優 秀</w>
万 事</w>
メン バー</w>
ブ ライ
ステ ム</w>
ス キャン
スキャン ダル</w>
シ ステム</w>
ギ リ
ゆ う
なお さら</w>
そ っくり</w>
す き</w>
さま ざま</w>
さ わ</w>
く わ
き ょう</w>
か ら
あ え
yu mi</w>
yama da</w>
wi de
wa ter
visit ors</w>
viol ence</w>
villa gers</w>
u l</w>
swea t</w>
suffer ed</w>
sub st
su s</w>
sto le</w>
ste ps</w>
star ting</w>
sta tue</w>
so a
ske tball</w>
shou ted</w>
shor tage</w>
se ttle</w>
scar ed</w>
sa ble</w>
re lu
relu ct
re lea
pu ts</w>
proper ly</w>
promi ses</w>
prin cipal</w>
pa ying</w>
pa ges</w>
op pos
no tes</w>
neigh bor</w>
mp ing</w>
mi le</w>
lea ds</w>
le gal</w>
interest s</w>
im patient</w>
horiz on</w>
ho pes</w>
ha bits</w>
gir l
fami lies</w>
fa i
expre ssion</w>
du ll</w>
dri ves</w>
doub tful</w>
dis count</w>
dia mon
di plo
de vil</w>
const ant</w>
con tains</w>
con se
comm unity</w>
clou d</w>
cele bra
bur n</w>
bloo m</w>
bit ter</w>
ba sketball</w>
b lowing</w>
atmo sphere</w>
associ ate</w>
arran ged</w>
an aly
amu sed</w>
ac ts</w>
ac ting</w>
通 学</w>
費 や</w>
話し 掛け</w>
設 立</w>
観 客</w>
自 体</w>
群 集</w>
精 通</w>
生 計</w>
混 雑</w>
浮 か
毎 月</w>
村 人</w>
損 失</w>
意 気</w>
心 地</w>
奈 良</w>
大 雪</w>
大 戦</w>
外 見</w>
囚 人</w>
名 づけ</w>
出 世</w>
何 百</w>
企 画</w>
ヘ レン</w>
ビ デ
ネ ズ
ネズ ミ</w>
テー プ</w>
ダイ エット</w>
ク ッキー</w>
キャン プ</w>
エレベ ーター</w>
エ ジ
エ ア
ア リス</w>
ア ド
も の
み つけ</w>
ま ね</w>
ま け</w>
ひょ っと</w>
ね え</w>
なる ほど</w>
た わ</w>
そ く</w>
ぜ ん
せ っ
ご み</w>
こ ん
およ そ</w>
wi s
war ning</w>
ver b</w>
var iety</w>
use less</w>
ur gent</w>
un usual</w>
tu al</w>
tru sted</w>
thous ands</w>
th ri
te en
suspi ci
stop s</w>
stea l</w>
stan tly</w>
some how</w>
soldi er</w>
shou ld
sen ted</w>
ru shed</w>
ru sh</w>
rev ea
requ ired</w>
re ment</w>
qua li
qu o
prote ct</w>
pos sibility</w>
physi cal</w>
par king</w>
pa ul</w>
over seas</w>
op position</w>
n on</w>
lo cated</w>
le i
la ws</w>
inten tion</w>
infor m</w>
in ts</w>
ignor ant</w>
hel en</w>
h i</w>
fo lded</w>
fa in
f oun
ex hib
elev ator</w>
e li
e ding</w>
di ly</w>
develo p</w>
de ca
da tion</w>
cro p</w>
coun ter</w>
coo per
com b
co pe</w>
co ins</w>
char ming</w>
ce iling</w>
car pet</w>
ca kes</w>
be d
aw a</w>
approa ch</w>
ali ce</w>
admi ssion</w>
ad dressed</w>
activ ities</w>
achie ved</w>
a tive</w>
a id</w>
6 0</w>
1 1</w>
順 調</w>
走 れ</w>
行 方</w>
納 得</w>
無 く</w>
涼 し</w>
模 様</w>
枯 れ</w>
書 物</w>
是 非</w>
批 評</w>
少 数</w>
専 念</w>
名 古
名古 屋</w>
危 う</w>
信 念</w>
伝 統</w>
人 種</w>
主 に</w>
一 家</w>
ワー プロ</w>
ロ ボ
ボ ス</w>
ベ ン</w>
バイ ク</w>
バ イ</w>
ノ ック</w>
ダ ン
ステー キ</w>
シ ート</w>
めで と</w>
み つ</w>
ま して</w>
ほ こり</w>
た た
し 遂げ</w>
け さ</w>
かわい そう</w>
か つ</w>
お お</w>
い とこ</w>
wor k
wis dom</w>
wei gh
we stern</w>
wa it
w l</w>
vi li
up set</w>
to wards</w>
thu si
tal lest</w>
t ity</w>
surpri sing</w>
su ici
stran gers</w>
st ream</w>
si ghts</w>
se cur
schoo ls</w>
s lo
ri ch
reli able</w>
regar dless</w>
reason able</w>
re sign</w>
psy cho
por ter</w>
par ce
pain tings</w>
na go
nago ya</w>
maj ority</w>
logi cal</w>
li ght
lei sure</w>
jud gement</w>
jo kes</w>
ite ment</w>
ho l</w>
hi d</w>
girl friend</w>
fu l
fif th</w>
exper t</w>
exhau sted</w>
exc itement</w>
en thusi
emplo yed</w>
ear nest</w>
docu ment</w>
distri bu
dist ur
dis like</w>
dili gence</w>
deser t</w>
de crea
dama ged</w>
d der</w>
cri sis</w>
con fe
co lder</w>
ci es</w>
cho co
chemi stry</w>
chee ks</w>
ch ess</w>
cap acity</w>
candi date</w>
c d</w>
bri ef</w>
book store</w>
bo x
bo il</w>
be half</w>
argu ed</w>
ama zed</w>
alco hol</w>
a o
a bun
諸 国</w>
記 入</w>
親 友</w>
要 素</w>
衣 服</w>
行 き
英 雄</w>
苦 痛</w>
肉 体</w>
節 約</w>
監 督</w>
物 音</w>
無 知</w>
濡 れ</w>
消 防</w>
改 革</w>
掛 か</w>
振 り返</w>
挙 げ</w>
成り 立</w>
成 し遂げ</w>
惑 星</w>
寄 せ</w>
定 期</w>
学 習</w>
妨 げ</w>
多 少</w>
呼 吸</w>
合 計</w>
単 位</w>
勝 手</w>
制 服</w>
体 育</w>
不可 欠</w>
一 面</w>
メ ット</w>
プロ ジェ
プロジェ クト</w>
フォ ーク</w>
ピ ーター</w>
ジ ュー
シ ー
ザ ー</w>
サ ラ
キ リスト</w>
キ シ
ょ う
も うけ</w>
ぶ つか</w>
な ぁ</w>
つ う</w>
ち っとも</w>
だ い
た び
きわ めて</w>
か き
う ん</w>
y ard</w>
wh eat</w>
wa ges</w>
vo y
un fortunately</w>
tra ck</w>
th under</w>
ta pe</w>
t ough</w>
suici de</w>
stea k</w>
st ered</w>
smi ling</w>
sli p</w>
sig ni
sear ched</w>
se ts</w>
s wa
s its</w>
s ite</w>
remin ded</w>
refu ge
produ ced</w>
produ ce</w>
prison er</w>
poe ms</w>
pi e</w>
pi ck
pho to</w>
phi lo
pet ite</w>
parti es</w>
p oured</w>
o t</w>
nar a</w>
lu cy</w>
lo b
light ning</w>
li qu
lan ds</w>
k able</w>
in et</w>
ima ge</w>
gui lt</w>
guar an
gho st</w>
fortun ate</w>
fi elds</w>
fa ils</w>
f f
ex tra
ex e
every where</w>
electri c</w>
e dge</w>
divor ce</w>
dis co
disco very</w>
dire ctly</w>
diamon d</w>
decei ved</w>
da wn</w>
crea ted</w>
colle ct</w>
clo thing</w>
cla im</w>
ci vili
che erful</w>
cance led</w>
c tur
burg lar</w>
bu ried</w>
ber t</w>
be lt</w>
be ars</w>
b ing</w>
avo i
ato mic</w>
as sign
al bu
advi se</w>
activ ity</w>
ab ly</w>
１ ６</w>
顔 つき</w>
適 用</w>
速 度</w>
逃 れ</w>
購 入</w>
読 み
行 い</w>
老 い</w>
維 持</w>
絶 え</w>
等 し</w>
笑 い
積 も</w>
社 員</w>
爆 弾</w>
洗 い</w>
沢 山</w>
民 族</w>
横 たわ</w>
極 めて</w>
校 長</w>
書 け</w>
敏 感</w>
振 り
手 助け</w>
待 ち</w>
張 り</w>
座 席</w>
団 体</w>
向 こう
同 士</w>
取り 出</w>
体 験</w>
住 民</w>
任 命</w>
付 き</w>
中 央</w>
両 手</w>
不 正</w>
ルー シー</w>
ル ール</w>
ヨ ット</w>
ヤ ー</w>
ベ スト</w>
プ ール</w>
ブライ アン</w>
ファ イル</w>
ピカ ソ</w>
ビデ オ</w>
パ ソ
パソ コン</w>
バ ッ
ッ セ
セ ール
ジャ ン
シ ャ</w>
コ ピー</w>
ク ス</w>
ガ ー</w>
エ ル</w>
ウ ス</w>
アド バイ
ア ウト</w>
た り
た やす</w>
す わ</w>
ざ め</w>
さ て</w>
こ な</w>
こ っち</w>
あ ら</w>
y ama</w>
wel fare</w>
voy age</w>
val ley</w>
tun e</w>
tru ly</w>
temp le</w>
swit ch</w>
sun ny</w>
st in
spa in</w>
should ers</w>
sa il</w>
ru b
ro bo
religi on</w>
rela x</w>
re vi
re sort</w>
ra pid</w>
quie tly</w>
pur cha
pu shed</w>
pron oun
philo so
perfe ctly</w>
pac i
paci fic</w>
pa yment</w>
ou ra
o sity</w>
nee dn</w>
ma tic</w>
ma g
m ly</w>
li ps</w>
lan d
im ports</w>
home town</w>
har m
happ ily</w>
h ang
g an
far mers</w>
far mer</w>
f red</w>
f our
f an
explo sion</w>
ex tre
ea s</w>
dire ctor</w>
deb ts</w>
dar kness</w>
d les</w>
comple x</w>
co ward</w>
che cked</w>
cha ll
cab inet</w>
ca uses</w>
bri an</w>
bo mb</w>
blo wn</w>
basi c</w>
bar king</w>
b rings</w>
b on</w>
appro pri
ap petite</w>
anti cipa
anno yed</w>
am es</w>
al together</w>
ada pt</w>
ac cent</w>
a stron
1 0,000</w>
食 卓</w>
野 心</w>
野 原</w>
通り 過ぎ</w>
身 長</w>
走 り
貧 困</w>
負 え</w>
見 当</w>
見 せ
科 目</w>
盗 み</w>
申し 込み</w>
用 紙</w>
熱 中</w>
易 し</w>
明 確</w>
愉 快</w>
店 員</w>
帰 国</w>
尊 重</w>
家 事</w>
学 期</w>
婚 約</w>
妥 協</w>
太 平</w>
大 半</w>
営 業</w>
同 社</w>
収 集</w>
化 粧</w>
初 心</w>
切 望</w>
依 頼</w>
事 柄</w>
予 算</w>
ロボ ット</w>
ロ ット</w>
メ キシ
メキシ コ</w>
ポ スト</w>
フレ ッド</w>
パー セント</w>
ハイ キング</w>
ト ンネル</w>
ップ ル</w>
チェ ス</w>
ズ ボン</w>
グ リ
ク ロ
カン ニング</w>
アイ ス</w>
や せ</w>
ほ ど
ふ つう</w>
の ん
た って</w>
ず る</w>
こ っ
お け</w>
wor th
whe el</w>
we ls</w>
w ounded</w>
w er
unexpe cted</w>
un easy</w>
ugh ty</w>
tw ins</w>
tra ining</w>
ti ger</w>
tele phoned</w>
su its</w>
stri ctly</w>
stre ss</w>
sti cks</w>
stea dy</w>
stan d
sta mp</w>
sta di
stadi um</w>
sho wn</w>
scienti fic</w>
scho lar
san d
sale sman</w>
sa il
ro man
rescu e</w>
punctu al</w>
publi shed</w>
pu zz
process or</w>
po ta
pi lot</w>
pi cas
picas so</w>
parce l</w>
par don</w>
pa tter
over come</w>
organi zation</w>
mon key</w>
me xi
mb led</w>
m ouse</w>
lu ggage</w>
li mit</w>
l ous</w>
k ar
j uni
inst ant</w>
inclu de</w>
in different</w>
h en
gree ted</w>
gra ve</w>
gra ce</w>
gr ounds</w>
fun ds</w>
f loo
experi enced</w>
ex pl
eng lish
el der</w>
effe ctive</w>
edu ca
ear n</w>
e ve</w>
e di
drow ning</w>
disa ster</w>
der ly</w>
democra cy</w>
deli cate</w>
de spite</w>
de light</w>
custo mer</w>
compe lled</w>
co ws</w>
ce ment</w>
arch ite
any way</w>
ado pted</w>
ad venture</w>
ac compli
1 2</w>
４ ５</w>
１ ９</w>
騒 ぎ</w>
食 糧</w>
飛び 込</w>
風 景</w>
電 報</w>
賭 け</w>
論 争</w>
見 舞い</w>
見 渡</w>
見 回</w>
見 事</w>
茶 色</w>
緊 張</w>
絶 望</w>
立ち 止ま</w>
着 陸</w>
理 想</w>
溺 れ</w>
浮か べ</w>
残 酷</w>
権 力</w>
栽 培</w>
果 て</w>
最 悪</w>
日 常</w>
文 章</w>
文 明</w>
捧 げ</w>
拍 手</w>
折 れ</w>
投 函</w>
承 認</w>
承 知</w>
成 田</w>
感 心</w>
意 思</w>
当 惑</w>
当 分</w>
巻き 込</w>
小 包</w>
好 奇</w>
大 気</w>
外 れ</w>
口 論</w>
取り 上げ</w>
危 な</w>
分 間</w>
入 り
克 服</w>
住 宅</w>
会 計</w>
代 理</w>
人 格</w>
久 し</w>
ル ス</w>
プ テン</w>
ファ ン</w>
ビ ン</w>
パイ ロット</w>
ジョ ンソン</w>
ジュー ス</w>
サ リー</w>
クラ シック</w>
キャ プテン</w>
オー バー</w>
アドバイ ス</w>
アイ デ
よ なら</w>
め い</w>
ま とめ</w>
ぷ り</w>
ぬ け</w>
そ ちら</w>
す こし</w>
し だい</w>
さ よなら</w>
さ か
こと ば</w>
け 者</w>
かえ って</w>
お び
う な
いっ たん</w>
wea lthy</w>
vi o
u ary</w>
tro op
troop s</w>
tri cks</w>
tri al</w>
tra ined</w>
tra diti
to y</w>
to a
the sis</w>
text book</w>
tempor ary</w>
supp lied</w>
su m
stu ff</w>
stor es</w>
sti cs</w>
spir its</w>
smoo th</w>
si bly</w>
see ds</w>
se tting</w>
sa m</w>
ri ding</w>
respe cted</w>
re move</w>
re fri
refri ger
re ck
ra tes</w>
post po
pac k
pa ssage</w>
p ear
op posed</w>
on to</w>
ol y
ob served</w>
o wing</w>
necess ity</w>
nar ita</w>
m bo
lea ther</w>
le g
la dies</w>
la bor
juni or</w>
ju ice</w>
ju dy</w>
jan uary</w>
j et</w>
ir rit
in ch</w>
hun dre
hi stor
h ers</w>
gu st</w>
grou ps</w>
gra y</w>
g le</w>
fun d</w>
fin ed</w>
fe bru
febru ary</w>
exi st
ex act</w>
dis missed</w>
dire ctions</w>
deman ds</w>
cu tting</w>
cu s</w>
compet ition</w>
comfor t</w>
colle ction</w>
char m</w>
busin ess
bur nt</w>
be ef</w>
ar i
approa ching</w>
albu m</w>
ac quired</w>
ac knowle
進 め</w>
逆 ら</w>
貢 献</w>
規 制</w>
莫 大</w>
聞 き</w>
翌 日</w>
経 由</w>
級 友</w>
移 動</w>
祭 り</w>
砂 漠</w>
知 恵</w>
目 撃</w>
毛 布</w>
歩 き回</w>
数 字</w>
救 助</w>
徹 底</w>
引 用</w>
広 げ</w>
年 代</w>
実 業</w>
大 衆</w>
善 悪</w>
向こう 側</w>
名 付け</w>
助 力</w>
判 決</w>
代 金</w>
付 け
乗り 込</w>
上 達</w>
レ ット</w>
リー ダー</w>
マ ー</w>
ベ ティ</w>
フィ ート</w>
ピ ック</w>
ビジネ ス</w>
ト マ
チョ コレ
チョコレ ート</w>
セ ンス</w>
ス メ
ジ ット</w>
シェ イ
サ ンド
コン テスト</w>
クラ スメ
カ ーン</w>
カ ン</w>
カ ップ</w>
エ メット</w>
ウ ッド</w>
イン ター
イン グランド</w>
アル コール</w>
アイデ ア</w>
ア レ
ア ク
り つけ</w>
ゆう べ</w>
み せ</w>
ま とも</w>
な が</w>
つ り</w>
だ いた
だいた い</w>
し きり</w>
さ め</w>
さ し
ぐ る
かな る</w>
う え</w>
い かなる</w>
あく まで</w>
z ea
z a
y al</w>
win gs</w>
wer en</w>
ve ments</w>
val s</w>
univer se</w>
tri ck</w>
trea sure</w>
tor e</w>
ther ing</w>
temp tation</w>
st eri
sp len
some day</w>
sno wing</w>
sho wing</w>
scor e</w>
sc rea
ru p
refriger ator</w>
re volution</w>
re served</w>
pro mo
por tion</w>
person ality</w>
pe ts</w>
pati ents</w>
pain ter</w>
pa sses</w>
our ce</w>
op pon
on ing</w>
on e
obli ged</w>
ob serve</w>
no ted</w>
musi cal</w>
mi lli
mea sures</w>
lou dly</w>
la p
kilo meters</w>
insu lt</w>
hor ri
ha t
h it
h eight</w>
g li
g lan
fir med</w>
fi le</w>
fast en</w>
f ounded</w>
ey e
es say</w>
embarra ssed</w>
em met</w>
do me
din gs</w>
desi red</w>
con fli
co t
clo sely</w>
cigaret te</w>
choco late</w>
cho sen</w>
chea per</w>
bu tter
bu sh</w>
bro ad</w>
bro ad
bla ck
be l</w>
ba r</w>
atten ding</w>
asi a</w>
al le
acquain tance</w>
a de
駄 目</w>
首 都</w>
食 欲</w>
順 番</w>
陽 気</w>
関 連</w>
閉 じ
金 銭</w>
郊 外</w>
通り 抜け</w>
議 会</w>
見 送</w>
見 失</w>
蓄 え</w>
著 者</w>
聖 書</w>
組 合</w>
着 け</w>
目 覚め</w>
盛 り</w>
登 山</w>
異 常</w>
由 美</w>
獲 得</w>
火 災</w>
流 暢</w>
気 温</w>
気 味</w>
昆 虫</w>
探 し</w>
悪 化</w>
怠 け者</w>
引っ 張</w>
小 川</w>
安 定</w>
孤 独</w>
妊 娠</w>
前 進</w>
冷 え</w>
儲 け</w>
傾 け</w>
不 在</w>
下 り</w>
リ ング</w>
メ モ</w>
ハ ー
ディ ック</w>
タ オ
セ ル</w>
セ ット</w>
スイ ス</w>
シェイ クスピア</w>
ゴ ミ</w>
グリ ーン</w>
グ ル</w>
クレ ジット</w>
ガ ール</w>
オ リン
ウ エ
わ くわ
わくわ く</w>
ほ お</w>
び し</w>
の 毛</w>
と ま</w>
っ ぷり</w>
す め</w>
じ ょう
し ょう</w>
が り
が かり</w>
かわい らし</w>
か け
か ぎり</w>
う っ
い や
あ わせ</w>
あ や
woo den</w>
wide ly</w>
wal ks</w>
w it</w>
vi ces</w>
than ked</w>
th ur
te dly</w>
swee ts</w>
summ it</w>
suf fer</w>
st ro
splen did</w>
sor e</w>
sig nal</w>
si r</w>
si ck
sha de</w>
secur ity</w>
sa iled</w>
s ank</w>
run ner</w>
remar kable</w>
relie ved</w>
refuge es</w>
refu se</w>
reco ver</w>
re ferred</w>
ra l</w>
pu s</w>
profe ssi
pro of</w>
pro hib
pi c</w>
par ade</w>
p ly</w>
ner ves</w>
n in
moder ate</w>
mi cro
mer ely</w>
memor ies</w>
materi als</w>
lu x
la dder</w>
je sus</w>
in fer
hundre ds</w>
hosp it
high est</w>
hesit ate</w>
gu es</w>
gra pes</w>
fa ces</w>
f ts</w>
exper im
exist ence</w>
eu ro
enter pri
encoura ged</w>
ele ph
ea ble</w>
e state</w>
disap pointment</w>
dis ci
di sh
dea f</w>
de sign</w>
de pressed</w>
daugh ters</w>
da ted</w>
d ear</w>
d dy</w>
copi es</w>
conse qu
con cea
compli cated</w>
cigaret tes</w>
char ity</w>
blan ket</w>
back ground</w>
bab ies</w>
arti cles</w>
ap pla
an ces</w>
amoun ts</w>
al low
ad ju
abi de</w>
19 8
19 7
革 命</w>
進 行</w>
討 議</w>
視 力</w>
締 め
結 び
福 祉</w>
着 物</w>
男 子</w>
申し 込</w>
理 性</w>
独 特</w>
温 か</w>
死 後</w>
武 器</w>
柔 らか</w>
材 料</w>
書 斎</w>
指 揮</w>
拒 絶</w>
抱 き
感 覚</w>
思い やり</w>
巨 大</w>
好 意</w>
大 陸</w>
大 した</w>
墜 落</w>
呼 び</w>
助 け合</w>
分 析</w>
働 き</w>
保 存</w>
余 り</w>
位 置</w>
人 工</w>
一 種</w>
ー カー</w>
ン ブ
ロ グ</w>
レ ード</w>
レ ッ
ポー ズ</w>
バ ート</w>
デ ー</w>
タオ ル</w>
ス ティ
ジャ ー</w>
ジェ ット</w>
シ ュ
インター ネット</w>
アルバ ム</w>
わ が
わが まま</w>
ろう そく</w>
ら げ</w>
ゅ う
ふる まい</w>
な る</w>
つ かま</w>
じ て</w>
ご 飯</w>
き っぱり</w>
か た
う ら
あ わ
w are</w>
vo lun
victi ms</w>
ty pical</w>
trou bled</w>
trif les</w>
too ls</w>
ti al</w>
thur sday</w>
th us</w>
stron ger</w>
spen sable</w>
six ty</w>
shor ter</w>
sho cked</w>
sei zed</w>
se lls</w>
sco t
s and</w>
ru ssi
ru pted</w>
relie f</w>
rela tion</w>
regi on</w>
recogni ze</w>
quar ter</w>
professi onal</w>
prin ce</w>
postpo ned</w>
pos sibly</w>
pi pe</w>
per mitting</w>
p ound</w>
p ants</w>
or ders</w>
natura lly</w>
motor cycle</w>
mon thly</w>
mag ne
lou der</w>
lin col
lincol n</w>
lim ited</w>
li fted</w>
john son</w>
jo gging</w>
je cts</w>
ir ing</w>
inse cts</w>
indi spensable</w>
in cl
ig n</w>
hur ts</w>
ha tes</w>
glan ced</w>
ge ous</w>
gar den
frequ ently</w>
fo x</w>
flo ws</w>
fa te</w>
fa ced</w>
expe cting</w>
ex clu
enter ing</w>
engine er</w>
dif fers</w>
decl ine</w>
curi ous</w>
concer n</w>
con stantly</w>
con ce
compla ints</w>
comm er
comm and</w>
cli ff</w>
choo sing</w>
ch eating</w>
can dle</w>
bor e</w>
bi ble</w>
astoni shed</w>
appropri ate</w>
appea l</w>
appar ently</w>
alter native</w>
alter na
ac comp
absolu te</w>
2 5</w>
１ ７</w>
高 速</w>
青 ざめ</w>
難 民</w>
階 級</w>
開 催</w>
金 融</w>
金 属</w>
野 生</w>
酸 素</w>
通 行</w>
迷 子</w>
越 し</w>
衰 え</w>
色 々</w>
職 場</w>
穏 やか</w>
硬 貨</w>
目 覚
目 立</w>
発 達</w>
痛 め</w>
牧 師</w>
燃 料</w>
活 気</w>
泣 き
気 楽</w>
横 浜</w>
植 え</w>
施 設</w>
新 型</w>
探 検</w>
挑 戦</w>
押し 入</w>
意 図</w>
悩 み</w>
待 た</w>
当 たり
引 退</w>
市 内</w>
対 象</w>
家 賃</w>
学 問</w>
大 嫌い</w>
器 用</w>
喫 茶</w>
哲 学</w>
向 かい</w>
同 僚</w>
取り 組</w>
及 ぼ</w>
勝 ち
創 造</w>
共 同</w>
働 け</w>
値 引き</w>
倒 産</w>
依 存</w>
伝 わ</w>
一 層</w>
ンド バッグ</w>
リン カーン</w>
リ ッ
プラ ン</w>
ブ レー
ハン サム</w>
ハ ンドバッグ</w>
ト ロ
ダ ン</w>
ダ メ</w>
セール スマン</w>
ス チ
コ ロ
ギリ シャ</w>
キ ン</w>
オリン ピック</w>
アルバ イト</w>
わ ち</w>
よ し</w>
も て
も たれ</w>
ま ん</w>
ほ え</w>
ぶ ら</w>
ば る</w>
はる ばる</w>
な わち</w>
と も
ため ら</w>
ぜん ぜん</w>
す なわち</w>
じゃ あ</w>
じ み</w>
お ろ</w>
yo ko</w>
yo ko
yoko ha
yokoha ma</w>
y gen</w>
wonder ing</w>
w ns</w>
tun nel</w>
trans lated</w>
to wel</w>
ther e
tex t</w>
terri bly</w>
te ll
t iny</w>
sun set</w>
stra tion</w>
ss ert</w>
sp lit</w>
sin s</w>
sil ver</w>
sha dow</w>
sh u</w>
sc o</w>
sa to</w>
sa tell
sa lly</w>
s ks</w>
ro ll</w>
ro cks</w>
reti rement</w>
requ ire</w>
rep lied</w>
relation ship</w>
re sig
re jected</w>
re fre
pre tended</w>
poe try</w>
po ns</w>
pla t
photo graph</w>
perfor med</w>
par t
p ure</w>
ox ygen</w>
oura ged</w>
oppos ite</w>
occu pi
ob vious</w>
o s</w>
no where</w>
nee dless</w>
na ughty</w>
n ings</w>
mor al</w>
mexi co</w>
me l
me an
lu mp</w>
la tter</w>
la d</w>
la cks</w>
l or
ki lling</w>
kei ko</w>
k y</w>
k er
jo ined</w>
jo e</w>
itali an</w>
indu l
i d
horri ble</w>
hard ships</w>
gh test</w>
g loves</w>
foo ds</w>
flu ently</w>
exhib ition</w>
en velo
en ted</w>
educa tional</w>
economi cs</w>
ear ned</w>
du ties</w>
docu ments</w>
do or
disc ouraged</w>
deli vered</w>
def ea
deba te</w>
d dle</w>
d ded</w>
criti cal</w>
contribu ted</w>
conne ction</w>
comman ds</w>
col lea
cle an
cir cle</w>
car es</w>
c ran
bre e
bra z
boa sts</w>
bi llion</w>
ban ks</w>
bac ks</w>
ba sis</w>
ba se</w>
b en</w>
automobi le</w>
au gust</w>
attribu ted</w>
atta cked</w>
assist ant</w>
argu ing</w>
ar eas</w>
any more</w>
analy sis</w>
ad just</w>
accu rate</w>
accoun ts</w>
accomp lish</w>
a bu
１ 日</w>
電 子</w>
開 始</w>
道 徳</w>
見 守</w>
衛 星</w>
罰 金</w>
絶 滅</w>
穀 物</w>
瞬 間</w>
真 剣</w>
発 行</w>
症 状</w>
町 中</w>
特 徴</w>
災 害</w>
決 断</w>
水 準</w>
死 刑</w>
木 曜</w>
担 当</w>
技 師</w>
打ち 明け</w>
悲 劇</w>
急 行</w>
年 下</w>
山 頂</w>
存 知</w>
外 食</w>
参 り</w>
医 療</w>
分 かれ</w>
作 業</w>
何 故</w>
二 十</w>
両 国</w>
世 論</w>
不 況</w>
ロ バート</w>
ラ ン</w>
ラ ケット</w>
ム ズ</w>
ビ ア</w>
ノ ル
ディ ナー</w>
スイ ッチ</w>
ジョ ー</w>
コ イン</w>
カ リ
カ チ</w>
ろう じて</w>
よ こ</w>
み 出</w>
ま ちが</w>
ま ち</w>
ま じめ</w>
ぶ どう</w>
び 声</w>
び り</w>
ひ き
に っこり</w>
で かけ</w>
っち ゅう</w>
ちら っ</w>
ち な</w>
たび たび</w>
すば や</w>
しょ っちゅう</w>
しゃ く</w>
ご 覧</w>
け な</w>
か ろうじて</w>
か ろ</w>
お なか</w>
い ざ</w>
won dered</w>
wi ld
vi ously</w>
u sa</w>
u res</w>
u ne
ty pe
trans lation</w>
to ys</w>
ti re</w>
threa t</w>
thor ou
thorou ghly</w>
there fore</w>
ter nal</w>
surr oun
suf ficient</w>
su g
su bur
stra ct</w>
shi ma</w>
sh out</w>
ser ies</w>
sel fish</w>
scholar ship</w>
sch e
sc ent</w>
sand wi
sa l</w>
ru st</w>
ru ined</w>
ro bert</w>
rememb ered</w>
re signed</w>
re ports</w>
re ported</w>
ra cket</w>
pro ve</w>
pro fits</w>
plat form</w>
ph ra
per man
penci ls</w>
peace ful</w>
pe cu
pecu liar</w>
pa ssion</w>
p r
ow ner</w>
over coat</w>
on y</w>
nu mbers</w>
non sense</w>
mu sc
mu m</w>
mon i
min ds</w>
mach ines</w>
lun g</w>
lit ary</w>
ki cked</w>
je ans</w>
is su
inter f
interf ere</w>
intelli gence</w>
instru ctions</w>
insi st</w>
inf lation</w>
industri al</w>
impro vement</w>
im pre
hu mble</w>
hor ror</w>
hi dden</w>
harm ful</w>
har bor</w>
happ ening</w>
gra phy</w>
ge ly</w>
g un
fe wer</w>
favor able</w>
experi ences</w>
exe cu
examin ations</w>
enjo ying</w>
en o
eigh teen</w>
earthqua kes</w>
e mo
e mi
down stairs</w>
desp air</w>
deli very</w>
defea ted</w>
de pen
dan ced</w>
cur ed</w>
cover s</w>
cooki es</w>
consider able</w>
con fron
colle cted</w>
col lap
clou dy</w>
ck er</w>
citi zens</w>
ch or
cance l</w>
ca u
ca ttle</w>
ca mpa
ba ge</w>
b es</w>
as si
al l
accommo date</w>
３ ００</w>
１ ８
順 応</w>
靴 下</w>
降 ろ</w>
連 想</w>
通 常</w>
農 業</w>
貯 め</w>
議 員</w>
設 計</w>
規 模</w>
要 点</w>
被 告</w>
船 長</w>
組 み</w>
真 珠</w>
現 象</w>
独 身</w>
減 少</w>
毎 晩</w>
死 亡</w>
機 関</w>
権 威</w>
格 好</w>
根 拠</w>
本 屋</w>
早 め</w>
操 作</w>
抵 抗</w>
所 属</w>
戸 口</w>
意 地</w>
後 者</w>
当 社</w>
左 右</w>
寛 大</w>
宿 泊</w>
奨 学</w>
夕 べ</w>
地 元</w>
吸 収</w>
叫 び声</w>
取り 引き</w>
厳 密</w>
単 に</w>
刺 激</w>
偏 見</w>
体 温</w>
伝 達</w>
人 民</w>
事 項</w>
乗 組</w>
並 べ</w>
両 替</w>
丁 寧</w>
一 歩</w>
ロ シア</w>
ライ ト</w>
ュー ジ
ミ ン</w>
ミ ュージ
マー ケット</w>
ヘ ビ</w>
ブラ ジル</w>
フラン シ
フランシ スコ</w>
フォ ード</w>
ピ ザ</w>
ドラ マ</w>
ト ラ</w>
タイ ヤ</w>
スト レス</w>
ジ ー
シャ ワー</w>
カー ペット</w>
カ タ
ウイ スキー</w>
インフ レ</w>
わ っと</w>
わ き</w>
り 上げ</w>
よ く
は め</w>
は ね</w>
は し
の ど</w>
た っぷり</w>
く わ</w>
く せ</w>
く じ</w>
が ん</w>
が まん</w>
か 月</w>
か まし</w>
zer land</w>
z a</w>
worth while</w>
wor rying</w>
wea pons</w>
we b</w>
vi d</w>
v an
up side</w>
uni forms</w>
thir sty</w>
t our
sympa thy</w>
swit zerland</w>
sun shine</w>
stea m</w>
sof tw
so il</w>
sk ating</w>
serva tive</w>
see king</w>
se le
ru mor
ru in</w>
ri ly</w>
ra i
qu ate</w>
pro portion</w>
pp y</w>
politi cians</w>
po le</w>
pla te</w>
pic s</w>
pi zz
ph eno
pheno men
pen s</w>
pe st</w>
pa ce</w>
p in</w>
offi cer</w>
occu r</w>
obje cted</w>
ni ghts</w>
near by</w>
my steri
mur der
min or</w>
min ation</w>
mi xed</w>
men tary</w>
me ss</w>
main ly</w>
magaz ines</w>
ma gic</w>
m my</w>
lo ses</w>
lo s</w>
ld en</w>
kno ck</w>
ju di
j im
inter net</w>
incl ined</w>
imag ination</w>
house hold</w>
hi de</w>
govern or</w>
ge o
gar age</w>
ga tion</w>
fun ction</w>
fran ci
franci sco</w>
fo cus</w>
fl u</w>
fin ds</w>
fi ction</w>
fast est</w>
far ther</w>
fain ted</w>
excu sed</w>
ex changed</w>
equi pment</w>
envelo pe</w>
enjo ys</w>
english man</w>
enga gement</w>
enab led</w>
el derly</w>
eigh ty</w>
dru g</w>
dri vers</w>
drea med</w>
dome stic</w>
dispu te</w>
dish on
di ck</w>
develo ping</w>
der i
de er</w>
da i
curi osity</w>
cur tains</w>
cul tures</w>
consu lt</w>
constitu tion</w>
confu sion</w>
confli ct</w>
con ten
con servative</w>
chri sti
cha irs</w>
ch er</w>
can dy</w>
bur ns</w>
brea the</w>
b at</w>
aw ful</w>
attemp ted</w>
athle tic</w>
assist ance</w>
arti ficial</w>
al ty</w>
adu lts</w>
ade quate</w>
ad mini
abi lities</w>
ab sur
a ko</w>
a imed</w>
１ ３</w>
黒 板</w>
騒 がし</w>
食 品</w>
顧 客</w>
預 金</w>
頂 け</w>
電 灯</w>
過 労</w>
通 過</w>
試 し</w>
証 言</w>
見 解</w>
菓 子</w>
立ち 直</w>
積 極</w>
石 炭</w>
知 事</w>
目 指</w>
生 え</w>
潔 白</w>
温 暖</w>
温 度</w>
機 能</w>
模 型</w>
楽 しめ</w>
木 々</w>
最 中</w>
搭 乗</w>
推 測</w>
捜 し</w>
捕 ま</w>
抜 け
手 放</w>
戦 後</w>
情 勢</w>
悩 ま</w>
徹 夜</w>
当たり 前</w>
弾 け</w>
年 金</w>
差 し</w>
左 側</w>
尽 き</w>
小 道</w>
封 筒</w>
対 応</w>
好 機</w>
報 酬</w>
固 め</w>
品 質</w>
取り 消</w>
収 め</w>
反 抗</w>
単 なる</w>
勢 い</w>
務 め</w>
入 浴</w>
保 守</w>
伏 せ</w>
今 頃</w>
交 わ</w>
予 測</w>
中 古</w>
ー ティング</w>
ー ション</w>
ン ク</w>
ミ ーティング</w>
ポ ット</w>
ホ ーム
プライ ター</w>
ブレー キ</w>
パ レード</w>
ディ ア</w>
ダイ ヤ</w>
タイ ム</w>
タイ プライター</w>
ソフ ト</w>
セン ター</w>
ス プ
ス ク
ジョ ーク</w>
サンド イ
サンドイ ッチ</w>
サン フランシスコ</w>
サラ ダ</w>
サ ル</w>
コ ミ
オー ト
オ レ</w>
エジ ソン</w>
ア ー</w>
ア ム</w>
ア ップ</w>
やり 遂げ</w>
ぶら ぶら</w>
ふる ま</w>
ひ ざ</w>
な ぞ</w>
つか まえ</w>
っぱ ら</w>
っ 子</w>
っ つ</w>
ち そう</w>
だい ぶ</w>
た ど
そ つき</w>
そ っと</w>
さっ き</w>
さ え
さ い</w>
この ごろ</w>
こ も</w>
げ ん</w>
け ち</w>
か ど</w>
う そつき</w>
あわ て</w>
zer o</w>
yi eld</w>
win s</w>
wel com
welcom ed</w>
wa ve</w>
w ned</w>
viol ent</w>
vie wed</w>
u mp
tra ge
tor n</w>
too th
toa st</w>
ther n</w>
t ments</w>
t less</w>
t ine</w>
swi mmer</w>
suspici on</w>
su rely</w>
stron gly</w>
spe ct</w>
sp ac
softw are</w>
so lid</w>
sli ghtly</w>
sick ness</w>
sibi lities</w>
si lk</w>
ser ves</w>
separ ate</w>
sav ings</w>
sa lad</w>
s ought</w>
ro lled</w>
ri ses</w>
rep eat</w>
reluct ant</w>
relea sed</w>
redu ced</w>
recei ving</w>
re ward</w>
ran dom</w>
r ine</w>
qu an
profe ssion</w>
pro mp
princi ples</w>
pre judi
po p</w>
po ison</w>
pla y
photo s</w>
particu larly</w>
pa ys</w>
p ink</w>
over work</w>
occupi ed</w>
ni a</w>
ner ve</w>
ne u
ne ck
mi ra
metho ds</w>
me tal</w>
ma ture</w>
ma r</w>
m enti
li gh
lea ders</w>
kne es</w>
infer ior</w>
im port</w>
ignor ed</w>
hel p
he ll</w>
hand ker
h a</w>
gu est</w>
goo d
gli mp
gho sts</w>
ga ther</w>
ga ins</w>
fran k</w>
f it
f are
fare well</w>
examin ed</w>
ex posed</w>
ele ment</w>
effe cts</w>
edi son</w>
doub ts</w>
do zen</w>
discu ssing</w>
depos it</w>
den cy</w>
de signed</w>
de pendent</w>
da shed</w>
d ne
correspon d</w>
convin ce</w>
con ci
comm it</w>
com posed</w>
co lu
che cks</w>
characteri stic</w>
ca mp</w>
ca ge</w>
business man</w>
bul let</w>
bri lli
bri ghtly</w>
bo wed</w>
benef its</w>
begin ners</w>
be g</w>
bar gain</w>
b roo
b are</w>
attra cted</w>
athle te</w>
assign ment</w>
arri ves</w>
an nu
ag ing</w>
abun dant</w>
a muse
4 5</w>
1 st</w>
９ ０</w>
２ ４</w>
２ １</w>
麻 薬</w>
鈴 木</w>
酔 っ
適 応</w>
適 度</w>
連 続</w>
連 中</w>
農 家</w>
賄 賂</w>
負 か</w>
課 題</w>
詰 ま</w>
観 点</w>
表 せ</w>
虫 歯</w>
苦 難</w>
細 か</w>
筋 肉</w>
笑 顔</w>
破 産</w>
真っ 赤</w>
登 場</w>
生 か</w>
王 子</w>
特 有</w>
演 技</w>
漏 ら</w>
混 ぜ</w>
流 れ
活 用</w>
決 意</w>
正 当</w>
様 式</w>
来 れ</w>
時 折</w>
昼 間</w>
明 か</w>
日 暮らし</w>
断 念</w>
整 頓</w>
整 え</w>
捕 らえ</w>
担 任</w>
手 袋</w>
戦 闘</w>
成 人</w>
意 外</w>
必 死</w>
引き 継</w>
弁 当</w>
実 施</w>
学 識</w>
始 発</w>
地 上</w>
国 々</w>
固 執</w>
商 人</w>
合 意</w>
口 答え</w>
単 純</w>
動 機</w>
助 か</w>
加 減</w>
依 然</w>
作 成</w>
佐 藤</w>
争 い</w>
予 言</w>
一 見</w>
一 員</w>
ル ニア</w>
リン ダ</w>
マ ラ
ボ ク
プロ ポーズ</w>
パイ プ</w>
ハン カチ</w>
ニ ュー</w>
トマ ト</w>
ト ップ</w>
デ モ</w>
テ ント</w>
テ ッド</w>
ック ス
ッ ション</w>
ダイ ヤ
ダ ー
スト ライ
ス ー</w>
ジュ ディ</w>
ジ ーンズ</w>
エア コン</w>
ウ ム</w>
ん やり</w>
や まし</w>
や が</w>
も し
め い
めい めい</w>
ま と</w>
ひ げ</w>
ば ら</w>
はし ご</w>
とん でも</w>
と げ</w>
つ なが</w>
ちら り</w>
ちょう だい</w>
ため 息</w>
す り
す すめ</w>
さ つ</w>
こ わ</w>
こ め</w>
き け</w>
おび え</w>
お まけ</w>
お ぼれ</w>
いろ んな</w>
ありが た</w>
あ る
あ した</w>
zu ki</w>
yo shi
x ing</w>
wa ved</w>
wa sted</w>
vi sa</w>
ven u
u gly</w>
tour na
to ma
th ed</w>
ta ke
ta ges</w>
t ear</w>
sun light</w>
sub jects</w>
sta ys</w>
spo iled</w>
spen ding</w>
speci es</w>
spe cta
some time</w>
sna kes</w>
sin c
sinc ere</w>
ser vices</w>
senten ces</w>
sea ted</w>
se p
sa iling</w>
s p</w>
s ource</w>
ro tten</w>
ro de</w>
religi ous</w>
re porter</w>
quali fied</w>
produ ces</w>
proce ss</w>
pri est</w>
pres ents</w>
pos es</w>
perman ent</w>
par ted</w>
par ent</w>
pack age</w>
pa lace</w>
o ka</w>
ne ga
nega tive</w>
mu d</w>
mi es</w>
menti oned</w>
mar i
m at</w>
lin da</w>
la sted</w>
jea lous</w>
is lands</w>
ir o</w>
inter view</w>
inst in
injur y</w>
im posed</w>
i di
hu t</w>
hea ven</w>
he els</w>
happi est</w>
hal f
hair cut</w>
h ong</w>
h en</w>
gree k</w>
gram mar</w>
gra m</w>
go lden</w>
ght ful</w>
gen u
ge on</w>
ga wa</w>
g ru
fi sh
fi ci
fai th
fa ctor</w>
f an</w>
excu ses</w>
ex tended</w>
ex tend</w>
emplo y</w>
ea th</w>
e ves</w>
e d
dra wn</w>
dist ant</w>
diction aries</w>
di cta
def ense</w>
decl ined</w>
de pression</w>
con sent</w>
con firm</w>
col lar</w>
co al</w>
civili zation</w>
chan nel</w>
champi on
cha t</w>
ch est</w>
centra l</w>
cap tured</w>
ca tions</w>
ca li
c ke
bri ef
bran ches</w>
bo ld</w>
bed room</w>
bea ten</w>
b an</w>
appea led</w>
ang el
amu sing</w>
adu lt</w>
admi red</w>
１ ４</w>
餓 死</w>
飲 酒</w>
飲 め</w>
預 か</w>
面 目</w>
雰 囲
雰囲 気</w>
重 視</w>
釈 放</w>
適 当</w>
辞 任</w>
身 振り</w>
贅 沢</w>
諦 め</w>
調 和</w>
詫 び</w>
設 備</w>
言い 張</w>
親 戚</w>
職 務</w>
緑 色</w>
移 民</w>
祝 い</w>
破 滅</w>
真 ん
相 続</w>
皿 洗い</w>
登 校</w>
発 車</w>
熱 帯</w>
無 理
浜 辺</w>
没 頭</w>
母 語</w>
死 に</w>
欠 陥</w>
極 端</w>
暴 動</w>
散 髪</w>
支 援</w>
掲 示</w>
推 薦</w>
探 偵</w>
押 さえ</w>
展 示</w>
寝 室</w>
完 了</w>
嫉 妬</w>
場 面</w>
国 境</w>
可 愛</w>
口 座</w>
印 刷</w>
前 者</w>
処 分</w>
全 焼</w>
全 国</w>
作 り</w>
企 て</w>
予 期</w>
主 婦</w>
不 意</w>
上 京</w>
上 がり</w>
ロ ーン</w>
ロ ケット</w>
フ ロ
ピ ング</w>
デザ ート</w>
デ ル</w>
テ キ
タ イン</w>
ス ン</w>
ス ク</w>
シェ ー
ゴ ール</w>
コ コ</w>
ギ ャ
キャン セル</w>
キャ ロ
キ ー
エイ ズ</w>
アイ ロン</w>
る 気</w>
る し</w>
ぼ んやり</w>
ほ っと</w>
ぶ つけ</w>
び らか</w>
は さ</w>
のん びり</w>
に ち
にち は</w>
た か</w>
す ま</w>
す っ
じ っくり</w>
しか た</w>
ざ っと</w>
ざ け</w>
こん にちは</w>
くつ ろ
く ら
お さま</w>
い は</w>
ある いは</w>
writ ers</w>
wo lf</w>
wi shed</w>
whi sp
wat ches</w>
w ool</w>
v ity</w>
une mp
unemp lo
type writer</w>
trage dy</w>
to tally</w>
to pic</w>
ten se</w>
te sti
ta sted</w>
ta le</w>
sy mp
survi ved</w>
subur bs</w>
subst itu
su zuki</w>
ste pped</w>
sta in</w>
sp ed</w>
sol ving</w>
sin k</w>
shoo ting</w>
sho ps</w>
sche me</w>
sau ce</w>
s cu
ru den
robo t</w>
ri di
rela xed</w>
refre shed</w>
re quest
re fer</w>
re be
pu lse</w>
pro test</w>
pro sp
princi ple</w>
pri mary</w>
orig in</w>
or ities</w>
op ti
ob viously</w>
ob tain</w>
nar ro
na tion
na ked</w>
murder er</w>
mp tion</w>
mo stly</w>
misunder standing</w>
mi st
mee tings</w>
main tain</w>
ma il
m its</w>
la cking</w>
kne e</w>
ki ssed</w>
k ward</w>
k ong</w>
k nit
je wels</w>
iti ons</w>
ite ms</w>
inclu des</w>
in iti
in her
in ha
im mi
il legal</w>
ignor e</w>
hi ding</w>
hat red</w>
handker chief</w>
han ako</w>
gra ms</w>
gra in</w>
good bye</w>
glimp se</w>
gi fts</w>
g ton</w>
fur ni
fu el</w>
foun dation</w>
foo t
fla g</w>
fl our</w>
fini shing</w>
fe male</w>
fa ci
ext in
ex ag
exag ger
even tually</w>
estima te</w>
enterpri se</w>
ene mies</w>
en d
el ly</w>
e e
din ing</w>
desp er
deser ves</w>
de ssert</w>
de clar
d or</w>
cul tura
cu ts</w>
coun ted</w>
cot tage</w>
confron ted</w>
conditi oner</w>
con cre
co lon
co in</w>
chemi cal</w>
chee k</w>
campa ign</w>
ca tes</w>
brilli ant</w>
braz il</w>
bo mb
ble ssed</w>
bio logy</w>
bi lls</w>
betra yed</w>
ber y</w>
beg ged</w>
be e</w>
bath room</w>
bank rupt</w>
bac ked</w>
b ones</w>
aw kward</w>
ar ro
ama zing</w>
ai ds</w>
ada pted</w>
absur d</w>
ab stract</w>
a k
a di
飼 い
限 界</w>
間 柄</w>
金 額</w>
金 庫</w>
酔 い</w>
選 出</w>
遣 い</w>
運 べ</w>
農 夫</w>
見 逃</w>
見 な</w>
西 洋</w>
荒 れ</w>
花 子</w>
自 発</w>
職 員</w>
素 早</w>
紛 争</w>
粉 々</w>
空 け</w>
現 状</w>
漏 れ</w>
溶 け</w>
済 み</w>
清 潔</w>
添 え</w>
沸 騰</w>
気 難し</w>
業 績</w>
業 界</w>
植 民</w>
株 式</w>
株 価</w>
有 益</w>
有 害</w>
最 低</w>
明 白</w>
敬 意</w>
放 し</w>
支 度</w>
支 出</w>
指 名</w>
押 し</w>
承 諾</w>
手 品</w>
所 得</w>
憲 法</w>
感 銘</w>
愛 想</w>
悪 魔</w>
後 日</w>
差 別</w>
居 間</w>
審 判</w>
孤 児</w>
大 胆</w>
多 大</w>
地 理</w>
地 平</w>
回 し</w>
商 用</w>
合 併</w>
助 手</w>
到 達</w>
切り 倒</w>
出 生</w>
具 体</w>
入り 口</w>
修 正</w>
信 仰</w>
作 曲</w>
他 方</w>
交 際</w>
九 州</w>
一人 一人</w>
一 瞬</w>
ー ナ
レ モン</w>
ル ーム</w>
リ ック</w>
ラ ッシュ</w>
ラ ク
マ マ</w>
マ ネ
マ ッチ</w>
プ ス</w>
フォ ルニア</w>
デ イ
ズ ム</w>
スー ジー</w>
ストライ キ</w>
ス リ</w>
ス ラ
ス パイ</w>
ジュ ール</w>
ジ ミー</w>
コー チ</w>
キャロ ル</w>
カ レー</w>
オート バイ</w>
わ る</w>
み 合</w>
ま か</w>
ほん とう</w>
ほ んと</w>
ほ っ
ひょ っこり</w>
に ぎ
つ づ
たど り
ず み</w>
す べ</w>
す か</w>
じ ゅう
し よう</w>
こ い</w>
け い</w>
く よく
が ね</w>
か っと</w>
お し
お ご</w>
うな ず</w>
い な</w>
あん まり</w>
あん た</w>
ya ch
wor ries</w>
wha le</w>
wait er</w>
w rest
volu me</w>
vac ant</w>
un g</w>
u shu</w>
u r</w>
u f
traditi onal</w>
tourna ment</w>
to ler
ti vely</w>
ti p</w>
ti de</w>
tea ms</w>
te sts</w>
te mber</w>
suspe cted</w>
survi ve</w>
sug gest</w>
su al</w>
sna ke</w>
sing ly</w>
sin cer
si zed</w>
sep tember</w>
se cure</w>
sca le</w>
ruden ess</w>
ro yal</w>
resig nation</w>
resi st</w>
ren ted</w>
regre ts</w>
refle ct</w>
redu ce</w>
re presen
re moved</w>
re form</w>
rail way</w>
quest i
qu ire</w>
pro verb</w>
pre ce
pow erful</w>
police men</w>
pla stic</w>
pizz a</w>
pic king</w>
phra se</w>
ph e
p an</w>
ou ri
oppon ent</w>
offi cial</w>
no dded</w>
na p</w>
mp le</w>
mo ves</w>
mist ook</w>
mea su
mar ked</w>
man kind</w>
ma id</w>
lon gest</w>
liqu id</w>
lea n</w>
ky ushu</w>
ko ko</w>
ki ck</w>
jim my</w>
j iro</w>
inclu ded</w>
in tent</w>
immedi ate</w>
i cy</w>
hy po
hun ting</w>
human ity</w>
ho mes</w>
ham bur
half way</w>
gran ts</w>
gradu ate</w>
gra ph
gra des</w>
gh ed</w>
genu ine</w>
gen tly</w>
gar bage</w>
ga thering</w>
ga mbling</w>
fre ely</w>
extre me</w>
expe dition</w>
estima ted</w>
er al</w>
equi pped</w>
en vy</w>
en tit
eleph ant</w>
e lo
du g</w>
dri ven</w>
down town</w>
do wed</w>
dis posal</w>
def end</w>
de cor
dang ers</w>
da y
cur ry</w>
cultura l</w>
coun ci
cor n</w>
continu es</w>
consider ing</w>
con qu
collea gues</w>
coa st</w>
coa ch</w>
che er</w>
car ol</w>
c tation</w>
bur den</w>
bo iling</w>
bo dies</w>
black board</w>
big gest</w>
bi es</w>
beha ved</w>
b ringing</w>
b on
astron o
as signed</w>
as semb
ar med</w>
answ ering</w>
allow ance</w>
affe ction</w>
adju sted</w>
abo ard</w>
ab ounds</w>
5 th</w>
1 4</w>
２ ０００</w>
２ 、</w>
黒 人</w>
骨 折</w>
香 港</w>
飛 べ</w>
電 池</w>
集 団</w>
随 分</w>
邪 気</w>
適 任</w>
進 学</w>
通 知</w>
通 れ</w>
農 民</w>
軌 道</w>
路 線</w>
足 元</w>
資 本</w>
話し 合い</w>
試 着</w>
診 断</w>
見せ びらか</w>
見 積も</w>
見 捨て</w>
見 上げ</w>
臭 い</w>
翌 朝</w>
絵 画</w>
精 力</w>
粗 末</w>
禎 子</w>
神 社</w>
着 実</w>
男 女</w>
生 存</w>
独 自</w>
物 体</w>
焼 き
無 邪気</w>
沖 縄</w>
本 能</w>
本 棚</w>
期 末</w>
有 り
普 段</w>
時 勢</w>
文 通</w>
整 理</w>
支 給</w>
支 店</w>
損 な</w>
推 理</w>
接 触</w>
拾 い
拡 大</w>
折 り
払 え</w>
成 年</w>
慌 て</w>
惜 し</w>
恋 人</w>
怪 し</w>
性 質</w>
強 風</w>
帝 国</w>
差し 出</w>
居 眠り</w>
大 使</w>
夜 明け</w>
堂 々</w>
埋 め</w>
地 区</w>
国 内</w>
名 詞</w>
取り 壊</w>
取り かか</w>
収 容</w>
動 詞</w>
創 立</w>
割り 当て</w>
出 くわ</w>
処 置</w>
共 和</w>
促 進</w>
余 分</w>
何 千</w>
人 込み</w>
人 柄</w>
予 防</w>
中 断</w>
両 者</w>
レ スト</w>
ル エン
ルエン ザ</w>
ュ ニ
ミ ング</w>
ベ ット</w>
ブ ド
ブド ウ</w>
フ ル</w>
パ パ</w>
ハン バー
ハ ム
ト ル</w>
ツ アー</w>
ダ ース</w>
スー パー
スト ーブ</w>
スタ ンド</w>
シン ガ
シンガ ポール</w>
シェー クスピア</w>
コミ ュニ
ケー ション</w>
クラスメ ート</w>
インフ ルエンザ</w>
ア ー
ア ナ
わ き
り 道</w>
やり くり</w>
や る気</w>
や っぱり</w>
む け</w>
まさ しく</w>
ほ の
び ん</w>
ば ったり</w>
ぬ ぼれ</w>
な まり</w>
ど なた</w>
と び
つき あ</w>
ち まち</w>
ただ ちに</w>
そ ら</w>
ず う
じょう ず</w>
く し</w>
く さ</w>
かん しゃく</w>
お れ</w>
う ぬぼれ</w>
い 合</w>
あえ て</w>
あい さつ</w>
yi el
wi ves</w>
weigh s</w>
we pt</w>
we dne
wa sting</w>
wa lls</w>
wa ist</w>
volun te
vi sible</w>
ve hi
va gue</w>
ur ged</w>
uni form</w>
under stands</w>
un pleasant</w>
un ities</w>
un conscious</w>
ty pes</w>
tw enti
travel ers</w>
trans late</w>
trans ferred</w>
tra it</w>
tra ding</w>
ti me
ther mo
ten sion</w>
ten ing</w>
teen th</w>
techni cal</w>
tar get</w>
ta ka
t re</w>
sy mbo
swal low</w>
surroun dings</w>
sup ported</w>
su shi</w>
stea dily</w>
ste el</w>
st ac
ss ors</w>
sp y</w>
slo pe</w>
skir ts</w>
sin ga
singa po
singapo re</w>
signi fic
signific ant</w>
si e</w>
sho e</w>
shel ter</w>
shar ed</w>
sh rine</w>
serv ant</w>
se x
screa med</w>
sch ar
sc in
russi an</w>
rumor s</w>
rou te</w>
ri sen</w>
reti re</w>
rescu ed</w>
repa iring</w>
regu larly</w>
regre tted</w>
rece ption</w>
ran ge</w>
rail road</w>
r at</w>
quan tity</w>
purcha se</w>
puni shment</w>
progra ms</w>
prin ce
prince ss</w>
pota toes</w>
por tation</w>
plan ets</w>
plan et</w>
philoso phy</w>
per mitted</w>
per mit</w>
pen sion</w>
ow ned</w>
or ch
ol dest</w>
offi ci
obje cts</w>
o kin
okin awa</w>
no ble</w>
negoti ations</w>
mu tual</w>
miser able</w>
mi litary</w>
mar vel
manu al</w>
ma ster
lo aded</w>
lo ad</w>
len ess</w>
len ding</w>
lea f</w>
le aned</w>
laun dry</w>
lar ity</w>
lan ded</w>
la tin</w>
la s</w>
k or
jud ged</w>
jour na
it es</w>
investiga tion</w>
investi gate</w>
interpre ted</w>
inten se</w>
insu lted</w>
increa ses</w>
inclu ding</w>
in quired</w>
impro ving</w>
im it
hob bies</w>
ho st</w>
histor i
high way</w>
hi lls</w>
hea ted</w>
gy m</w>
gn ant</w>
gentle men</w>
fro st</w>
fa ti
fa ct
f ans</w>
ex ports</w>
ever est</w>
enab les</w>
en ess</w>
elo qu
edu cated</w>
dre sses</w>
differ ences</w>
di schar
der ive</w>
def eat</w>
dea lt</w>
dea ling</w>
dea d
de fic
de ce
dan cer</w>
d th</w>
d an</w>
cul ous</w>
crea ture</w>
counci l</w>
confu sed</w>
concre te</w>
concentra te</w>
con firmed</w>
col ds</w>
co tton</w>
co mic</w>
cl in
ci vil</w>
cho p
char med</w>
cat ching</w>
cali for
bu cket</w>
brea st</w>
bo iled</w>
blo ws</w>
blo ck</w>
ber ries</w>
ben eath</w>
be es</w>
bar ber</w>
avoi ded</w>
ar row</w>
approa ched</w>
appro ved</w>
appar ent</w>
angel es</w>
ag ri
ag gre
ag ent</w>
accep ting</w>
６ ５</w>
魚 釣り</w>
食 堂</w>
頼 み</w>
頻 繁</w>
頑 固</w>
面 接</w>
雑 草</w>
雄 弁</w>
降 参</w>
過 ぎ
連 れ
通 訳</w>
通 勤</w>
通 信</w>
途 上</w>
近 代</w>
近 ごろ</w>
身 なり</w>
踏 み
起 源</w>
資 料</w>
読 者</w>
認 識</w>
解 散</w>
観 衆</w>
裏 返し</w>
装 置</w>
行 進</w>
蒸 気</w>
笑い 出</w>
知 能</w>
皮 膚</w>
生き 物</w>
生 地</w>
独 裁</w>
火 山</w>
満 開</w>
海 辺</w>
海 峡</w>
洋 子</w>
泣 き</w>
法 則</w>
気 前</w>
梅 雨</w>
栄 養</w>
明 朝</w>
既 に</w>
方 針</w>
振り 向</w>
抜 き</w>
打ち 上げ</w>
手 配</w>
手 元</w>
悲 鳴</w>
急 激</w>
思い 切</w>
役 所</w>
弁 解</w>
左 手</w>
崩 壊</w>
将 軍</w>
安 否</w>
基 礎</w>
土 産</w>
問 い
反 乱</w>
厄 介</w>
北 極</w>
判 明</w>
内 緒</w>
典 型</w>
兵 器</w>
入 試</w>
免 れ</w>
充 分</w>
停 車</w>
停 留</w>
侵 略</w>
侵 入</w>
体 調</w>
伝 説</w>
会 場</w>
付き 合い</w>
交 差</w>
井 戸</w>
主 将</w>
中 毒</w>
並 み</w>
上 役</w>
一 切</w>
リッ ジ</w>
リ ラ</w>
ラン ダ</w>
ラ テン</w>
モ デル</w>
マ スター</w>
プロ グラ
ブ ー
ブ レ
ピ ン</w>
パ ス</w>
バ ル</w>
バ ック</w>
バ ケ
バケ ツ</w>
ハム レット</w>
ニュー ジー
ニュージー ランド</w>
ドライ バー</w>
ット ランド</w>
ッ ピング</w>
ッ キ</w>
タ ル</w>
スコ ットランド</w>
スケ ジュール</w>
ス リ
コー ス</w>
カリ フォルニア</w>
アル ファ
わ り
や っ
もの すご</w>
もし もし</w>
ま かせ</w>
ぼ っち</w>
ぼ う</w>
ふさ が</w>
ふ もと</w>
び れ</w>
ね ら</w>
と らえ</w>
と って</w>
と がめ</w>
す っぱ</w>
じ ぎ</w>
し み
し まい</w>
し つ
さか のぼ</w>
こと わざ</w>
くよく よ</w>
うら やまし</w>
あ たし</w>
y side</w>
wit ness</w>
win ds</w>
wee ds</w>
wan na</w>
w ri
w ers</w>
vol le
visit or</w>
vi le
vege table</w>
ur ed</w>
uni que</w>
uf o</w>
u pper</w>
tw in</w>
tt les</w>
tr yside</w>
ta lo
t us</w>
t one</w>
suspi cious</w>
su sie</w>
stra w</w>
stra ted</w>
stra ined</w>
spe cts</w>
so lar</w>
so cks</w>
smoo thly</w>
si es</w>
shu ttle</w>
serva tions</w>
sen sible</w>
sen ding</w>
sea sons</w>
sea side</w>
se wing</w>
se es</w>
satell ite</w>
sandwi ches</w>
sa mple</w>
sa da
sada ko</w>
ru ins</w>
ru g
rob ber</w>
ro lling</w>
ro cket</w>
ri pe</w>
revea led</w>
respon se</w>
request ed</w>
represen ta
repea ted</w>
rela tive</w>
regu lations</w>
re solved</w>
re placed</w>
re mo
re fer
rai sing</w>
ra ble</w>
provi des</w>
prohib ited</w>
por trait</w>
plan ted</w>
persi sted</w>
oper ate</w>
op pose</w>
ob tained</w>
nin ety</w>
na sty</w>
na o
mode st</w>
mo vements</w>
mo to</w>
mira cle</w>
lo on</w>
li able</w>
le ts</w>
laugh s</w>
la mp</w>
knit ting</w>
inv iting</w>
inter nal</w>
inst itu
i so
hi ke</w>
help ful</w>
hea ded</w>
hea d
hang ing</w>
han dy</w>
ham let</w>
gram mati
gr ant</w>
gr and</w>
fun da
fore head</w>
for k</w>
fle sh</w>
fla mes</w>
fir mly</w>
fin ance</w>
fi es</w>
fa scin
fa int</w>
expl or
experim ents</w>
exp an
entit led</w>
enthusi as
enthusias m</w>
en or
en ding</w>
ele ct
dru gs</w>
do lls</w>
disci pl
dest ination</w>
descri bed</w>
dep th</w>
democra tic</w>
deli ver</w>
defic it</w>
de di
dar ker</w>
da r</w>
d or
cur ren
cti c</w>
cre di
cra shed</w>
coun tryside</w>
cooper ation</w>
contin ent</w>
consi st
congratu late</w>
confe ssed</w>
con gre
com promise</w>
com pos
com ment</w>
colu m
ck le</w>
chi ll</w>
chi ko</w>
chea ted</w>
charac ters</w>
champion ship</w>
chall eng
cha p
ch u
ch eri
car ed</w>
califor nia</w>
ca talo
ca ble</w>
c ough</w>
c ers</w>
bra ins</w>
bor der</w>
boo ked</w>
boar ding</w>
beauti fully</w>
be ware</w>
ba ker</w>
b lin
b a</w>
atten dance</w>
at ory</w>
assu med</w>
argu e</w>
apo logy</w>
ani shed</w>
an ce
amuse ment</w>
adverti se
acknowle dged</w>
ac u
a ss
a le
7 0</w>
1 8</w>
1 2
0 0,000</w>
１９ ７
髪 型</w>
食 後</w>
食 い
飛び 越え</w>
閉 鎖</w>
長 所</w>
部 長</w>
過ぎ 去</w>
進 化</w>
通 貨</w>
辛 抱</w>
身 分</w>
走 り</w>
解 放</w>
蔵 書</w>
落 胆</w>
群 れ</w>
組み 立て</w>
簡 潔</w>
祈 り</w>
真ん 中</w>
真 似</w>
直 り</w>
目 下</w>
発 揮</w>
由 来</w>
焦 げ</w>
温 泉</w>
沿 い</w>
水 道</w>
水 平</w>
歩 道</w>
本 日</w>
期 限</w>
望 遠</w>
明 後日</w>
断 然</w>
文 書</w>
携 帯</w>
探 り</w>
手 間</w>
成 果</w>
憂 鬱</w>
慣 習</w>
感 嘆</w>
情 熱</w>
恵 子</w>
工 業</w>
実 力</w>
定 義</w>
奇 跡</w>
夫 妻</w>
変 装</w>
増 や</w>
国 連</w>
国 王</w>
国 中</w>
四 方</w>
呼び 出</w>
味 わ</w>
及 び</w>
半 ば</w>
十 字</w>
励 ま</w>
初 期</w>
切り 抜け</w>
八 方</w>
入 会</w>
傷 つ</w>
体 力</w>
会 見</w>
仲 直り</w>
乗り 越え</w>
三 十</w>
一 度</w>
一 定</w>
ンブ ス</w>
レッ スン</w>
ル ート</w>
ラン プ</w>
モ ー
メ ージ</w>
マ リ
ベ レスト</w>
バ レー
ハンバー ガー</w>
ノ ー</w>
テ リー</w>
ック アウト</w>
タ ン
ゾ ン</w>
スーパー マーケット</w>
コロ ンブス</w>
ゲ ン</w>
ク モ</w>
ガイ ド</w>
カタ ログ</w>
カ ル
カ ウン
エ リ
エ ベレスト</w>
イ ー
イ ス</w>
アルファ ベット</w>
れ これ</w>
め 込</w>
ま ん
ま こと</w>
ぶ ぬれ</w>
ば ら
は な</w>
の け</w>
ど っと</w>
と っ
ただ いま</w>
たく た</w>
ず ぶぬれ</w>
し るし</w>
さ っ</w>
く っつ</w>
く だ</w>
く たくた</w>
き ら</w>
か が</w>
おお いに</w>
お ど
う っかり</w>
う か</w>
い ち</w>
い じめ</w>
あ てはま</w>
zea land</w>
youn gest</w>
y ball</w>
wor ld
wedne sday</w>
war ming</w>
wa shin
washin gton</w>
w re
volle yball</w>
vol can
vo ca
v ot
v ital</w>
v ey</w>
ul ti
trans portation</w>
ti cal</w>
thi eves</w>
th a
ten s</w>
tele scope</w>
tar i
sub scri
stre ssed</w>
stop ping</w>
stand ard</w>
stan dar
sta ti
spee ding</w>
sli ghtest</w>
ski lls</w>
sin gs</w>
she et</w>
shar ply</w>
sha king</w>
se ssion</w>
schoo l
s ar
rug by</w>
ri ot</w>
respe cts</w>
rece ssion</w>
re stri
re sist
r o</w>
puzz le</w>
pu ppy</w>
psycho logy</w>
pronoun ce</w>
pri vile
pri or</w>
pre va
pp ers</w>
pow ers</w>
posse ssed</w>
pollu ted</w>
plan ned</w>
pick pockets</w>
ph ones</w>
part ner</w>
par ked</w>
par alle
pa y
ow es</w>
oly mpi
olympi c</w>
off ense</w>
oc to
ob sc
o es</w>
o a
negle ct</w>
n ap
moun tain
mor i</w>
mo tive</w>
mis fortune</w>
mi x</w>
mi cs</w>
mer ry</w>
mer ch
merch ant</w>
men ded</w>
medi um</w>
mat ches</w>
magne tic</w>
ma m
ma gni
ma gi
logi c</w>
lin gui
li c</w>
la ting</w>
l ms</w>
kit ten</w>
ja il</w>
j ill</w>
j ames</w>
it or</w>
is m</w>
irrit ated</w>
in fe
imit ate</w>
imag in
id leness</w>
i deal</w>
ho sti
har mony</w>
ha ted</w>
guaran tee</w>
g ant</w>
fu ss</w>
fra me</w>
four th</w>
for mal</w>
fact ories</w>
expe ctation</w>
evi dent</w>
enor mous</w>
end ure</w>
empha sis</w>
emer ged</w>
dra wer</w>
do zens</w>
do min
distribu ted</w>
disa gree</w>
di scri
di al</w>
desp ise</w>
deli ber
dee pest</w>
dee ds</w>
declar ed</w>
deci sions</w>
de stru
d ity</w>
cra ft</w>
cou sins</w>
confi dent</w>
colum bus</w>
cl ing</w>
chi l
cen ti
candi dates</w>
ca me
c .</w>
blu shed</w>
belie ving</w>
beg gar</w>
ba ttery</w>
b arri
ava il</w>
arran ge</w>
appreci ated</w>
app lies</w>
apologi zed</w>
ani c</w>
al lo
adverti sing</w>
ad di
a list</w>
3 ,000</w>
２ ０
鳴 ら</w>
飛び 上が</w>
面 会</w>
雨 林</w>
遠 足</w>
追 加</w>
農 園</w>
走 者</w>
警 備</w>
要 請</w>
要 約</w>
背 景</w>
綺 麗</w>
立 て
突 っ
直 し</w>
異 議</w>
用 事</w>
生 み出</w>
牛 肉</w>
焼 け
無 断</w>
湿 気</w>
液 体</w>
法 廷</w>
泊 め</w>
決 勝</w>
水 曜</w>
残 業</w>
正 気</w>
次 郎</w>
札 幌</w>
本 来</w>
本 人</w>
木 の</w>
有 望</w>
最 上</w>
書 店</w>
曲 がり
暮 らせ</w>
暑 さ</w>
昇 給</w>
日 付</w>
方 な</w>
新 年</w>
新 入</w>
拾い 上げ</w>
抱き しめ</w>
手 続き</w>
手 探り</w>
戦 死</w>
慈 善</w>
思い 付</w>
思い がけ</w>
往 復</w>
形 成</w>
引き 出し</w>
庭 園</w>
広 大</w>
平 気</w>
帰 れ</w>
差し 上げ</w>
小 銭</w>
対 策</w>
寸 前</w>
宣 伝</w>
子 猫</w>
女 房</w>
天 使</w>
多 量</w>
外 科</w>
圧 力</w>
哺 乳</w>
告 発</w>
向 上</w>
台 無し</w>
取り 替え</w>
取り 扱</w>
半 数</w>
動 作</w>
前 途</w>
別 荘</w>
刑 事</w>
出 血</w>
再 会</w>
内 閣</w>
公 衆</w>
公 害</w>
全 身</w>
儀 式</w>
停 止</w>
例 外</w>
会 長</w>
仕 方な</w>
人 数</w>
人 ごみ</w>
交 代</w>
不 良</w>
下 記</w>
ヴ ァ
ン リー</w>
ン ピ
ワ シン
ワシン トン</w>
ル ド</w>
ラン ナー</w>
ラ グ
ラグ ビー</w>
ブル ー</w>
ブラ シ</w>
ビ ザ</w>
バー グ</w>
バレー ボール</w>
バ ード</w>
ハン ドル</w>
ナ ポ
ナ ス</w>
トー スト</w>
ディ アン</w>
ツ バ
ジャ ガイ
ジャガイ モ</w>
ショ ッピング</w>
コミュニ ケーション</w>
ケ ート</w>
ア ラ
ア ドレス</w>
る み</w>
り っぱ</w>
よ さ</w>
や かまし</w>
め ん
ふ た</w>
とり かか</w>
で っち
ち ん
ただ し</w>
た ちまち</w>
た しか</w>
ぞ っと</w>
そ う
ず ば
じゃ ま</w>
しつ こ</w>
し びれ</w>
ささ い</w>
さ びし</w>
さ と</w>
こ がれ</w>
く び</w>
く ず</w>
お ぼ
う つ</w>
い き</w>
あ れこれ</w>
z one</w>
yiel ded</w>
wra pped</w>
wi ser</w>
wi re</w>
whe els</w>
wea ker</w>
war ded</w>
wa ters</w>
ver ge</w>
venu e</w>
v or</w>
ur y</w>
un like</w>
un known</w>
un comfortable</w>
u d</w>
tri vi
tra ve
tooth ache</w>
tit le</w>
thor ough</w>
th read</w>
ter r
ten der</w>
tele gram</w>
t ool</w>
t ant</w>
swa m</w>
sur vey</w>
sur ren
stru cture</w>
sto ve</w>
sti ff</w>
spe lling</w>
sp la
sp ired</w>
sor ts</w>
soa p</w>
sli de</w>
sle eve</w>
shir ts</w>
sh one</w>
sever ely</w>
sen ses</w>
secon d
se mble</w>
scri pt</w>
sci ssors</w>
sa p
sap por
sappor o</w>
s word</w>
roman s</w>
ro ts</w>
ri val</w>
respon sibilities</w>
relie ve</w>
regre t
recomm ended</w>
rea st</w>
re ments</w>
r ene
quarre ling</w>
prote ction</w>
pre mi
pre fer
pre fe
pra yed</w>
port ers</w>
popu larity</w>
po ten
po is
phenomen on</w>
pha n</w>
per form</w>
peace fully</w>
pea n</w>
participa te</w>
par tly</w>
pain ful</w>
p ack</w>
ow ns</w>
out doors</w>
ous ness</w>
or phan</w>
opti mi
op ens</w>
on air
onair e</w>
od ds</w>
ob stac
ni ght
ne t
n eat</w>
mor tal</w>
mi l
men u</w>
memor i
medi a</w>
mar ke
mar ath
manufa ctur
mach in
ma ss</w>
ma c</w>
lux ury</w>
lou sy</w>
lor d</w>
lon ging</w>
lon ged</w>
lo cation</w>
li p</w>
li ons</w>
le tting</w>
le mon</w>
lar gely</w>
kin g
ki mon
ken ji</w>
iti ous</w>
issu es</w>
inter vals</w>
inter rupt</w>
inten tions</w>
ine ma</w>
in spe
in ning</w>
in g
in convenience</w>
immi grants</w>
i to</w>
hon ey</w>
hi red</w>
hea ter</w>
han di
ha w
gre en
gradu ation</w>
gra ce
goo se</w>
ge ments</w>
g on</w>
funda mental</w>
fu r</w>
frequ ent</w>
flo ck</w>
fi lms</w>
ff s</w>
fati gue</w>
fan ta
faith ful</w>
examin e</w>
exam ples</w>
euro pean</w>
environ mental</w>
en dowed</w>
en dea
elect ron
dro ps</w>
divi de</w>
dis posed</w>
dis cover</w>
desper ate</w>
denti al</w>
den y</w>
demonstra ted</w>
de mic</w>
d ried</w>
d ful</w>
cy cles</w>
curren cy</w>
critici zed</w>
cra ck</w>
coo ler</w>
contra st</w>
cont ents</w>
consist ent</w>
consequ ence</w>
concentra ted</w>
con vi
con science</w>
compla ins</w>
com mu
col li
co ck
clo sing</w>
citi zen</w>
chop sticks</w>
chair person</w>
ch eat</w>
cea sed</w>
car t</w>
c inema</w>
brea thed</w>
bra ss</w>
br and</w>
boo ts</w>
blan k</w>
bal l
ba y</w>
ba tter</w>
ba ked</w>
b i</w>
associ ation</w>
arran gement</w>
ang le</w>
an tly</w>
ale x</w>
al pha
ag en
ad or
ad mits</w>
ad ds</w>
achie ve</w>
ac id</w>
ab reast</w>
a ment</w>
1 6</w>
３ ９</w>
魔 法</w>
高 齢</w>
食 器</w>
雇 用</w>
雇 い
集 会</w>
陰 謀</w>
酔っ 払</w>
郵 送</w>
避 難</w>
過 失</w>
追い つけ</w>
追 求</w>
近 年</w>
踊 り</w>
資 産</w>
賃 上げ</w>
負 担</w>
調 整</w>
読 み</w>
観 念</w>
視 線</w>
見 通し</w>
見 下</w>
要 因</w>
血 液</w>
良 心</w>
肖 像</w>
統 計</w>
経 費</w>
稲 妻</w>
社 交</w>
真 理</w>
白 状</w>
登 り</w>
申 込</w>
生き 生き</w>
生 じ</w>
生 け
獲 物</w>
独 力</w>
煙 突</w>
火 星</w>
演 劇</w>
滅 多</w>
添 付</w>
混 同</w>
段 階</w>
武 装</w>
正 義</w>
歌 え</w>
果 実</w>
本 質</w>
木 造</w>
朝 日</w>
暖 炉</w>
暖 房</w>
散 らか</w>
故 国</w>
改 正</w>
探 し
持ち 物</w>
打ち 勝</w>
打 者</w>
慰 め</w>
愚 痴</w>
徒 歩</w>
征 服</w>
形 式</w>
引き 裂</w>
弁 論</w>
広 場</w>
幹 線</w>
年 老い</w>
年 々</w>
展 覧</w>
届 け</w>
宮 殿</w>
定 め</w>
始 末</w>
売り 上げ</w>
増 し</w>
垣 根</w>
回 転</w>
吹き 出</w>
吹 雪</w>
向 か
右 手</w>
右 側</w>
受け 継</w>
参 照</w>
厳 守</w>
原 稿</w>
半 年</w>
勝 負</w>
利 害</w>
出 迎え</w>
出 口</w>
写 し</w>
公 式</w>
八 九</w>
優 雅</w>
優 先</w>
傑 作</w>
作 れ</w>
余 暇</w>
何 十</w>
休 息</w>
任 務</w>
以 降</w>
些 細</w>
乞 食</w>
乗り 出</w>
中 途</w>
中 学</w>
世 辞</w>
一 等</w>
ンピ オン</w>
ロ ビ
ロ サン
レ イ</w>
ル ー</w>
ル トン</w>
ル ズ</w>
メ ニュー</w>
メ ガ
マラ ソン</w>
マ ーク</w>
マ ック</w>
ポ イ
ポイ ント</w>
プラ スチ
プラスチ ック</w>
ブラ ウス</w>
ハ ト</w>
ナ メント</w>
トー ナメント</w>
チャ ンピオン</w>
チ ュー
ダ ム</w>
タク ト</w>
ゼ ルス</w>
ジャ ケット</w>
ゴ リラ</w>
コン タクト</w>
ク ー
ク ション</w>
キャ シー</w>
カ ス</w>
ウェ イ
ウ ォ
イ メージ</w>
イ ヌ</w>
ア ップル</w>
わ び</w>
よ そ
ゆ え</w>
め がね</w>
ぶ つぶ
ぶつぶ つ</w>
ふ たり</w>
ふ さ</w>
ひっ く
の ぞ</w>
に こ
な め</w>
とも かく</w>
つづ り</w>
たた き
せっ かく</w>
し り</w>
ささ げ</w>
こ つ</w>
けっ して</w>
ぐ る</w>
ぎ 込</w>
き っかり</w>
かし な</w>
か じめ</w>
か さ</w>
お くれ</w>
お かしな</w>
お か</w>
う ろ
い 取</w>
い つ
あら 捜し</w>
あら かじめ</w>
あ た
あ こがれ</w>
y o</w>
x es</w>
week ends</w>
wea kness</w>
wan ting</w>
w ly</w>
w ling</w>
vo i
va lid</w>
v ary</w>
un done</w>
un certain</w>
u tter
tter ing</w>
trou sers</w>
tro pical</w>
trivi al</w>
tri ump
to bac
tobac co</w>
ti ghtly</w>
thro wn</w>
thro wing</w>
the irs</w>
th r
teri a</w>
ter ror</w>
techni que</w>
tan e
symbo l</w>
swe ep</w>
strugg le</w>
ster e
standar ds</w>
sta tus</w>
st ring</w>
st are</w>
ssi on
spee ches</w>
some what</w>
sno wed</w>
smi les</w>
sin king</w>
si gh</w>
shou ting</w>
shor t
shoo t</w>
sh ines</w>
seven ty</w>
seven teen</w>
sel fish
sear ching</w>
scre en</w>
scot land</w>
scor es</w>
sail or</w>
s sible</w>
s ources</w>
s her</w>
representa tive</w>
remo te</w>
rememb ering</w>
reck less</w>
rea r</w>
re turning</w>
re call</w>
rain bow</w>
ra ts</w>
ra cial</w>
ra ces</w>
qu it
pur su
pur poses</w>
pupi l</w>
pu lling</w>
prote sted</w>
pro pose</w>
prin ted</w>
pri des</w>
prejudi ce</w>
pre tend</w>
pre serve</w>
pre fers</w>
practi ces</w>
practi ced</w>
poten tial</w>
poe ts</w>
pl ying</w>
participa ted</w>
par li
pac ked</w>
p le
over time</w>
out put</w>
oun ding</w>
opport unities</w>
oper ator</w>
offici als</w>
octo ber</w>
ob servation</w>
nur ses</w>
nu ts</w>
negoti ation</w>
negle cted</w>
narro wly</w>
musc les</w>
mu lated</w>
mor e
more over</w>
mon ster</w>
miser y</w>
mi ce</w>
mea sure</w>
me lted</w>
me dal</w>
marath on</w>
mar s</w>
mar rying</w>
machin ery</w>
m s.</w>
m pus</w>
lo sses</w>
lo a
li king</w>
laun ched</w>
lan ding</w>
labor atory</w>
la wn</w>
la tor</w>
l le
king dom</w>
kilo grams</w>
k le</w>
ju ku</w>
jo king</w>
jea lousy</w>
ite m</w>
it able</w>
interpre ter</w>
inte lle
inse ct</w>
in fin
in doors</w>
imp act</w>
hun ter</w>
human s</w>
hosti le</w>
hospit ality</w>
hard working</w>
har sh</w>
hand ling</w>
hand bag</w>
han gs</w>
grammati cal</w>
gra titude</w>
gi ants</w>
ga zed</w>
g ones</w>
g all
fu ri
fu ku
fru its</w>
for bi
fla me</w>
fe ars</w>
fair y</w>
f fed</w>
every day</w>
er e
er a</w>
enthusi a
emplo yer</w>
emp ire</w>
e h</w>
dre ssing</w>
dishon est</w>
discipl ine</w>
dire cted</w>
deta iled</w>
defin ite</w>
dece mber</w>
dead line</w>
de spi
de scen
de le
de fe
da ble</w>
d we
d rought</w>
cour te
coun ting</w>
corpo ration</w>
consu lted</w>
consi st</w>
congratu lated</w>
con temp
con dem
con cei
compar ison</w>
comp en
co w</w>
co inci
co de</w>
clo ser</w>
chi m
chap ter</w>
champi on</w>
celebra te</w>
careless ly</w>
can ts</w>
ca mping</w>
c ds</w>
by gones</w>
bu t
bu mped</w>
bu b
bru shed</w>
bri be</w>
bra ke</w>
bo wl</w>
blo cked</w>
bl ouse</w>
ber g</w>
bar k</w>
bal ls</w>
bal loon</w>
ava iled</w>
ar ou
appro val</w>
appla use</w>
any how</w>
announ cement</w>
ann e</w>
an ni
an ge
amoun ted</w>
ama z
al ert</w>
accompli shed</w>
accep table</w>
acce ssible</w>
a shes</w>
19 6
1 000</w>
Ｕ Ｆ
ＵＦ Ｏ</w>
３ ０００</w>
１９ ８
首 尾</w>
頭 上</w>
静 けさ</w>
青 春</w>
難 問</w>
開 会</w>
長 者</w>
長 期</w>
金 利</w>
重 役</w>
遺 言</w>
遠 方</w>
遂 行</w>
造 り</w>
追 跡</w>
転 換</w>
転 倒</w>
貸 し</w>
豪 華</w>
象 徴</w>
警 戒</w>
課 長</w>
訂 正</w>
言い 表せ</w>
言い 分</w>
言 論</w>
見 張</w>
見 出</w>
要 領</w>
裂 け</w>
表 明</w>
血 圧</w>
苦 しみ</w>
花 火</w>
船 乗り</w>
至 急</w>
自 国</w>
聡 明</w>
総 理</w>
経 歴</w>
競 馬</w>
空 っぽ</w>
磁 石</w>
知 的</w>
直 行</w>
盛 ん</w>
皮 肉</w>
疲 労</w>
疎 通</w>
用 語</w>
生き 残</w>
球 場</w>
片 方</w>
燃 え
照 ら</w>
激 怒</w>
滑 り
派 遣</w>
活 発</w>
沙 汰</w>
決 まり</w>
正 式</w>
業 務</w>
校 舎</w>
条 約</w>
木 の
服 従</w>
普 及</w>
早 急</w>
教 訓</w>
救 急</w>
操 縦</w>
擁 護</w>
持 て</w>
抜け 出</w>
抑 制</w>
手 数</w>
愛 し</w>
悲 観</w>
悪 意</w>
悪 事</w>
怠 慢</w>
快 方</w>
応 え</w>
忍 び
微 妙</w>
弾 丸</w>
廃 棄</w>
広 島</w>
幼 児</w>
年 月</w>
干 渉</w>
崩 れ</w>
寿 司</w>
容 態</w>
子 犬</w>
大 騒ぎ</w>
大 抵</w>
大 喜び</w>
声 明</w>
増 大</w>
在 宅</w>
問い 合わせ</w>
商 業</w>
周 辺</w>
告 訴</w>
参 考</w>
南 極</w>
匹 敵</w>
包 み</w>
前 方</w>
利 点</w>
利 己</w>
分 類</w>
内 側</w>
共 有</w>
全 面</w>
入 手</w>
入 れ
傲 慢</w>
健 全</w>
倹 約</w>
個 性</w>
使 い
作 用</w>
仰 向け</w>
仙 台</w>
付け 込</w>
仕 え</w>
予 告</w>
乾 燥</w>
乾 杯</w>
乗 務</w>
中 世</w>
不 運</w>
上 演</w>
一 流</w>
ー キング</w>
ヴ ィ
ワ ード</w>
ワ ン</w>
ロー チ</w>
ロサン ゼルス</w>
ロ ス</w>
レ ート</w>
レ ベル</w>
レ オン</w>
リ ズム</w>
ラン ス</w>
メガ ネ</w>
メ ッセ
メッセ ージ</w>
ミ リー</w>
マ ル
マ ス</w>
ペ ラ</w>
ブ ロック</w>
ブ ック</w>
フィ ル
ピ ンク</w>
ビ タ
ビタ ミン</w>
パン ダ</w>
バ ンド</w>
バ ランス</w>
バ ット</w>
ハ リー</w>
ハ イ</w>
ッ ター</w>
チョ ウ</w>
チ ップ</w>
ソ ース</w>
スペ ース</w>
ステー ジ</w>
サー カス</w>
コ スト</w>
ガ ー
カウン ター</w>
カ ル</w>
カ ラ
イン シュ
イン カ</w>
アイ ディア</w>
わ ら</w>
ら ず</w>
ゆ う</w>
めん どう</w>
め ぐ</w>
め がけ</w>
め か</w>
む な</w>
ぺ ん</w>
べ く</w>
へ と</w>
ふ ざけ</w>
ひとり でに</w>
は ら</w>
の し</w>
にぎ やか</w>
なる べく</w>
どう せ</w>
づ かい</w>
つ ま
つ づ</w>
だ ち</w>
たと えば</w>
たい して</w>
た がい</w>
す ら
す す</w>
じゅう たん</w>
じ ろ</w>
し つけ</w>
さ り</w>
こっ そり</w>
こ らえ</w>
けっ こう</w>
き め</w>
か ど
おと なし</w>
おい で</w>
お ろ
お は
い と</w>
あら 探し</w>
あい まい</w>
あい だ</w>
あ っ
あ ざ
あ か</w>
yach t</w>
wi lli
whi stle</w>
wh el
wa ving</w>
w berries</w>
w ars</w>
victi m</w>
ver bs</w>
valu es</w>
va st</w>
utter ly</w>
un fair</w>
u tter</w>
twenti es</w>
tur key</w>
trea ty</w>
tre mbling</w>
travel er</w>
trans fer</w>
to ms</w>
ti dy</w>
the tic</w>
ten th</w>
tal ented</w>
t su
t les</w>
subst ance</w>
stu b
strugg led</w>
stra wberries</w>
str eng
stin gy</w>
ste in</w>
ste ep</w>
star ing</w>
st ling</w>
spi der</w>
specta tors</w>
speci fic</w>
sp rin
sk ate</w>
six teen</w>
si ghed</w>
si de
senten ced</w>
sen da
senda i</w>
see k</w>
schedu led</w>
scar f</w>
sc ream</w>
sa ge</w>
run ners</w>
rou tine</w>
roo t</w>
ridi culous</w>
restaur ants</w>
respon d</w>
rela tives</w>
refle cted</w>
re sts</w>
re servations</w>
re place</w>
re conci
qu et</w>
pun ch</w>
pu shing</w>
prison ers</w>
prepar ations</w>
prepar ation</w>
prefer able</w>
pre hen
practi cing</w>
pos ing</w>
por ting</w>
pl us</w>
per sever
pen ny</w>
pear l</w>
p in
over whel
out look</w>
out come</w>
or bit</w>
oo m</w>
one self</w>
on ous</w>
off en
occa si
o se</w>
nu mer
ni k
new ly</w>
neigh b
na il</w>
na ga
mysteri ous</w>
mon u
min ent</w>
min ate</w>
milli ons</w>
mi lder</w>
men ted</w>
mee ts</w>
me ch
magni fi
magnifi cent</w>
logi st</w>
lob al</w>
lo ving</w>
ll ers</w>
life time</w>
life style</w>
l ined</w>
ka y</w>
journa list</w>
ir re
inter rupted</w>
instin ct</w>
indi an</w>
in gly</w>
in ev
in credi
impre ssive</w>
im ported</w>
identi fy</w>
i den
hy dro
hydro gen</w>
hu mid</w>
house work</w>
hou sing</w>
hote ls</w>
ho t
ho pe
hiro shima</w>
hiro shi</w>
hard ship</w>
har ry</w>
happi er</w>
ha un
ha mmer</w>
guaran te
graph s</w>
grand ma</w>
grace ful</w>
gn ity</w>
g lobal</w>
furni shed</w>
fun eral</w>
for getting</w>
fire works</w>
fi cation</w>
fa mine</w>
fa ctors</w>
fa cing</w>
f ou
f lights</w>
ex port</w>
ex it</w>
equ ally</w>
emplo yment</w>
empha sized</w>
emo tions</w>
ef ficient</w>
economi cal</w>
earli est</w>
e ds</w>
distur bed</w>
disp lay</w>
disp ense</w>
dis gui
dir t</w>
din gly</w>
differ ently</w>
di gnity</w>
di a</w>
destru ction</w>
descri be</w>
deri ved</w>
dedi cated</w>
d ges</w>
d d
cro wn</w>
cri mes</w>
cra dle</w>
cou ples</w>
corpo rate</w>
contribu te</w>
consu mption</w>
consider ate</w>
condem ned</w>
conclu ded</w>
concea led</w>
con fined</w>
co mics</w>
clean er</w>
cle ver
chil dish</w>
char ges</w>
cer ti
cat ches</w>
car bon</w>
ca sual</w>
ca mpus</w>
ca ls</w>
c ease</w>
bu ys</w>
broad cast</w>
bree ze</w>
bor n
boa ts</w>
blo cks</w>
bl end</w>
bi sh</w>
beg ging</w>
be lts</w>
b ounds</w>
b able</w>
associ ated</w>
as ks</w>
arran gements</w>
arou sed</w>
ar ma
appli cants</w>
annu al</w>
ang les</w>
ali en</w>
al ler
air s</w>
aggre ssive</w>
advertise ment</w>
ado pt</w>
admi ration</w>
accommo dated</w>
ac company</w>
a sa
a ca
2 000</w>
1 9</w>
２ ７</w>
２ ３</w>
１９９ ０</w>
魅 了</w>
高 度</w>
高 め</w>
高 ま</w>
飲 み</w>
食 ら</w>
食 い</w>
飛び 去</w>
集 まり</w>
降 伏</w>
関 税</w>
開 拓</w>
重 荷</w>
部 門</w>
遊 べ</w>
連 邦</w>
速 力</w>
逃 亡</w>
返 済</w>
返 却</w>
近 道</w>
車 庫</w>
諸 君</w>
論 議</w>
論 理</w>
詐 欺</w>
言 及</w>
見 本</w>
見 晴らし</w>
見 地</w>
見 下ろ</w>
被 災</w>
衣 類</w>
虐 待</w>
葡 萄</w>
著 名</w>
良 し</w>
脅 威</w>
老 後</w>
美 貌</w>
繁 栄</w>
締め 切り</w>
絶 え
終 電</w>
空 想</w>
稼 ぎ</w>
祖 国</w>
確 保</w>
砂 降り</w>
矛 盾</w>
着 替え</w>
着 き</w>
相 撲</w>
相 応</w>
相 互</w>
直 ぐ</w>
目覚 し</w>
発 作</w>
生 理</w>
特 権</w>
特 定</w>
燃 や</w>
熱 望</w>
熟 練</w>
満 点</w>
消 息</w>
消 し
水 素</w>
水 中</w>
気 取</w>
死 者</w>
正 常</w>
標 識</w>
構 造</w>
森 林</w>
来 客</w>
月 給</w>
早 く</w>
日 焼け</w>
日 の
新 人</w>
断 言</w>
断 り</w>
持ち 出</w>
抽 象</w>
折 り</w>
払 い
手 足</w>
手 渡</w>
手 がかり</w>
懐 かし</w>
愛 国</w>
悔 や</w>
恋 し</w>
怪 物</w>
思 考</w>
待 て</w>
当 選</w>
当 局</w>
強 力</w>
平 ら</w>
帰 り道</w>
崇 拝</w>
小 型</w>
対 照</w>
寝 坊</w>
寝 入</w>
家 屋</w>
安 楽</w>
大 目</w>
大 幅</w>
大 国</w>
基 準</w>
地 獄</w>
地 点</w>
在 庫</w>
土 砂降り</w>
商 店</w>
哀 れ</w>
和 らげ</w>
告 白</w>
向か い合</w>
名 簿</w>
名 案</w>
同 一</w>
口 調</w>
受 験</w>
取り 付け</w>
単 調</w>
半 端</w>
包 帯</w>
動 産</w>
割 り込</w>
前 日</w>
前 後</w>
出 会
出会 い</w>
公 開</w>
公 正</w>
先 進</w>
偽 り</w>
保 障</w>
何 者</w>
低 下</w>
会 談</w>
伊 藤</w>
仲 良し</w>
交 替</w>
中 東</w>
不 当</w>
上 等</w>
上 品</w>
一 連</w>
一 節</w>
一 気</w>
一 団</w>
一 周</w>
一 休み</w>
ロ イ</w>
リ ボン</w>
ラン ティ
ランティ ア</w>
モ ンド</w>
メ ダル</w>
ボ ード</w>
ボ ランティア</w>
ホ ット</w>
ヘ ンリー</w>
プ ル</w>
ブラ ック</w>
ブ ラン
フィル ム</w>
ファ ッション</w>
ハー バード</w>
ハ エ</w>
ノ ー
テキ スト</w>
ッ ツ</w>
チャ ー</w>
チェ ックアウト</w>
チ ン
チ キン</w>
ズ ル</w>
スト ラ</w>
ス カー
スカー フ</w>
シ ング</w>
シ ド
コー ラ</w>
ケ ル</w>
ケ リー</w>
クロ ス</w>
キャ ッチ</w>
エ ッセ
インシュ タイン</w>
アレ ックス</w>
ア リ
ア キ
ア インシュタイン</w>
り ゃ</w>
り かえ</w>
む か</w>
ま だ
ひ そ
ひ け</w>
は さ
の り</w>
の せ</w>
ね が</w>
ね ぇ</w>
ど きどき</w>
と お</w>
て っ
てっ ぺん</w>
っ 放し</w>
たどり 着</w>
たい そう</w>
そ こ
せっ せ
せっせ と</w>
せ き</w>
じ ろ
し が
しが みつ</w>
さっ さと</w>
こ われ</w>
ぐる ぐる</w>
ぐ ら</w>
くつろ げ</w>
く ん</w>
き ら
か すか</w>
か かれ</w>
え 込</w>
うっ とり</w>
あや う</w>
あ え</w>
z iness</w>
your selves</w>
y ea
yea h</w>
wra p</w>
wor m</w>
win dy</w>
wait re
waitre ss</w>
vo ted</w>
ver ing</w>
va ted</w>
v ation</w>
un ci
unci ation</w>
u ti
u sers</w>
tter ies</w>
tt led</w>
trea ts</w>
tra p</w>
ti mid</w>
ti er</w>
threa tened</w>
thr one</w>
thermo meter</w>
the ft</w>
th ames</w>
terr or
ten dency</w>
tem ples</w>
tal ents</w>
ta ils</w>
ta ble
t to</w>
t ons</w>
sympa thi
swi ms</w>
sum o</w>
sub mit</w>
stor my</w>
sto cks</w>
st ones</w>
st led</w>
st al
ssa dor</w>
sp rang</w>
sp ar
soa ked</w>
so ared</w>
smo kes</w>
sla ves</w>
ski p</w>
ski ll
situ ated</w>
sincer ity</w>
si ght
sha ped</w>
sex u
ser ving</w>
selfish ness</w>
secon ds</w>
scra tch</w>
sca pe</w>
sa ves</w>
sa ki</w>
s wear</w>
ru led</w>
rou ghly</w>
roman tic</w>
ri b
revea l</w>
regi stered</w>
refu sal</w>
recor der</w>
rea ction</w>
re vol
re lied</w>
re ference</w>
ra infor
ra cy</w>
quo ted</w>
quo te</w>
pron unciation</w>
promp tly</w>
promi sing</w>
prin ts</w>
pri ority</w>
pre ssing</w>
poin ting</w>
po or
pi llow</w>
pear ls</w>
pea k</w>
parti al</w>
parli ament</w>
paralle l</w>
pa tri
pa ssive</w>
p lot</w>
p al
out standing</w>
ou d</w>
organi zed</w>
orch est
orchest ra</w>
obsc ure</w>
obje ctive</w>
o ven</w>
noi ses</w>
no tion</w>
neck lace</w>
mul a</w>
mu ddy</w>
moun t</w>
monu ment</w>
min ded</w>
mer its</w>
mer chan
me mb
mati cally</w>
mat su
marvel ous</w>
main tained</w>
mail box</w>
ma sa
m ples</w>
m med</w>
m end</w>
lu ck
liter ary</w>
ligh ter</w>
li hood</w>
less ly</w>
leg end</w>
lea der
leader ship</w>
le on</w>
le ment</w>
land scape</w>
la tes</w>
l t
kimon o</w>
ke ep
k elly</w>
jun gle</w>
je wel
invest ment</w>
instru ctive</w>
inst ance</w>
insi sts</w>
inev itable</w>
in stein</w>
in n</w>
imag ined</w>
iden tity</w>
holi c</w>
ho ping</w>
histori cal</w>
hi king</w>
hen ry</w>
heavi er</w>
hea ven
harv ard</w>
hand writing</w>
ha y</w>
ha sty</w>
h ook</w>
gun s</w>
gu e
gra sp</w>
gn ition</w>
gl ory</w>
gest ure</w>
gan g</w>
ga p</w>
g on
g lu
g in</w>
for mula</w>
flu ent</w>
flo ating</w>
fi st</w>
fea ture</w>
fashi ons</w>
fa l
f led</w>
eye sight</w>
exi sts</w>
exce ption</w>
es a</w>
enthusia stic</w>
enter tained</w>
engine ers</w>
en tal</w>
en ge</w>
ele mentary</w>
ea ses</w>
e instein</w>
e dition</w>
drun ken</w>
drea dful</w>
dra ft</w>
distur b</w>
disa d
disad van
dis eases</w>
diplo mat</w>
dicta tor</w>
di ver
di g</w>
di e
desi res</w>
descen ded</w>
der ing</w>
defe cts</w>
decrea sing</w>
deca y</w>
de sig
de serve</w>
de ed</w>
da mp</w>
d ney</w>
d .</w>
cy cling</w>
cur r
cul tiv
cu ps</w>
cti vely</w>
criti c</w>
crea tion</w>
conten ted</w>
confu se</w>
condu cted</w>
concer ning</w>
con sented</w>
compet itive</w>
comp an
compan ion</w>
collap sed</w>
circu s</w>
che er
chall enge</w>
cha lk</w>
car ri
can dles</w>
cab in</w>
ca ve</w>
butter fly</w>
butter flies</w>
bud d
bra vely</w>
box es</w>
boa st</w>
bo ttles</w>
be ans</w>
ba tteries</w>
ba ssador</w>
ba de</w>
b oun
b ond</w>
b end</w>
b bed</w>
auth orities</w>
archite ct</w>
ar ise</w>
appear ances</w>
ange l</w>
am bassador</w>
al oud</w>
agri culture</w>
agen da</w>
ag ers</w>
ag ency</w>
affe cts</w>
adverti sed</w>
ad mitting</w>
acu te</w>
accoun ting</w>
accor dance</w>
absor bs</w>
ab les</w>
a im
a ched</w>
8 0</w>
3 9</w>
19 5
0 s</w>
２ ２</w>
１９ ４
高 級</w>
飲 料</w>
頭 脳</w>
面 前</w>
青 空</w>
雨 降り</w>
難 局</w>
降 り
閉 店</w>
釣 り
金 髪</w>
重 病</w>
重 ね</w>
酸 化</w>
道 理</w>
追 放</w>
返 答</w>
迅 速</w>
輸 送</w>
軽 ん</w>
走り 去</w>
購 読</w>
買 い</w>
説 教</w>
詰 め込</w>
計 ら</w>
角 度</w>
視 野</w>
見 舞</w>
見 当た</w>
衝 撃</w>
落ち 込</w>
苦 情</w>
自 宅</w>
職 人</w>
考え 出</w>
美 徳</w>
編 み
絶え 間</w>
紛 失</w>
紙 幣</w>
窃 盗</w>
突っ 込</w>
空 き
移 住</w>
秩 序</w>
神 秘</w>
祝 福</w>
礼 拝</w>
確 立</w>
短 気</w>
真 面目</w>
相 違</w>
目覚 まし</w>
監 視</w>
登 録</w>
発 電</w>
痩 せ</w>
申 告</w>
現 地</w>
王 女</w>
独 占</w>
炭 素</w>
灰 色</w>
温 和</w>
注 射</w>
気 体</w>
毛 皮</w>
歓 声</w>
歓 呼</w>
機 知</w>
概 念</w>
林 檎</w>
最 寄り</w>
更 に</w>
曲 げ</w>
日 没</w>
日 差し</w>
日 取り</w>
旅 客</w>
新 宿</w>
新 婚</w>
政 党</w>
接 近</w>
捜 索</w>
投げ つけ</w>
投げ かけ</w>
打 撃</w>
憎 しみ</w>
愛 着</w>
悪 習</w>
恋 愛</w>
後 半</w>
形 態</w>
年 頃</w>
工 事</w>
展 開</w>
居 合わせ</w>
就 寝</w>
密 接</w>
家 計</w>
宣 告</w>
宝 物</w>
学 科</w>
娯 楽</w>
姿 勢</w>
妥 当</w>
大き さ</w>
場 違い</w>
堪 え</w>
固 定</w>
困 惑</w>
団 結</w>
器 具</w>
善 良</w>
含 め</w>
司 祭</w>
右 足</w>
取り 計ら</w>
友 好</w>
原 則</w>
即 座</w>
効 率</w>
割 合</w>
判 事</w>
出 張</w>
共 産</w>
公 共</w>
免 除</w>
先 輩</w>
停 電</w>
値 上げ</w>
仮 説</w>
付け 加え</w>
交 互</w>
亡 く</w>
事 典</w>
予 備</w>
乱 暴</w>
下 宿</w>
上 流</w>
一人 ぼっち</w>
一 口</w>
ー ヤー</w>
ー ニング</w>
ロ ング</w>
リ コ
リコ プ
リコプ ター</w>
モ ン
ミ ニ
マン ション</w>
マネ ー
マ ナー</w>
ホ ン</w>
ヘ リコプター</w>
プレ ーヤー</w>
プ ト</w>
ブ ン</w>
フ ラ
パ ズル</w>
ハ リ
ハ ネ</w>
ネ ック
ネック レス</w>
トラ ベ
テレ サ</w>
テ ムズ</w>
ツ ネ</w>
ップ ス</w>
ダイヤ モンド</w>
セ ス</w>
ズ ン</w>
スタ ート</w>
ス モ
ジャン プ</w>
ジャ ーナ
ジャ イ
ジェ ーム
シン グル</w>
シド ニー</w>
サ イト</w>
ゴ ム</w>
コ メント</w>
クリ ーニング</w>
カラ オ
カラオ ケ</w>
カ ール</w>
カ ラー</w>
カ ップル</w>
カ ッ
カ ギ</w>
カ ウ
オ ール</w>
エッセ イ</w>
ウィ ン</w>
ウ ンド</w>
イン ディアン</w>
イ チ
イ スラ
アレ ルギー</w>
り かご</w>
も め
も と
も っ
も ち</w>
む こう</w>
み す
みす ぼ
みすぼ らし</w>
ま ち
ま あ
ほの めか</w>
ぶ れ</w>
ぶ っ
ひっく り返</w>
ひ も</w>
ば し</w>
はさ み</w>
は ら
ね ずみ</w>
に こ</w>
な み</w>
な じ</w>
な け
なけ なし</w>
ど ん
と い</w>
で か</w>
つき あい</w>
つ とめ</w>
ちら こちら</w>
ちょ う</w>
だ て</w>
た べ</w>
す み</w>
し な</w>
さえ ぎ</w>
こ ぼれ</w>
こ いつ</w>
く れ
く ど</w>
く つ</w>
き 出</w>
かど で</w>
か っこ</w>
か げん</w>
か がめ</w>
おは よう</w>
お それ</w>
う まい</w>
う かが</w>
い だ</w>
い き
あら わ</w>
あく び</w>
あ ちらこちら</w>
z i
y ar
wr on
win ner</w>
wi sely</w>
wi ped</w>
wi pe</w>
who lly</w>
whi s
whis key</w>
we ep</w>
water ing</w>
volcan o</w>
voi ces</w>
voca bul
vocabul ary</w>
vie w
vi vid</w>
vi sits</w>
vehi cles</w>
valu ed</w>
val ent</w>
vac u
v anished</w>
v able</w>
ur ban</w>
unemplo yment</w>
un likely</w>
u ps</w>
u n</w>
trif le</w>
trave lling</w>
tran sm
tra dition</w>
touri st</w>
time table</w>
ti le</w>
ti cs</w>
tho mas</w>
th under
ter esa</w>
ta les</w>
ta bly</w>
t ory</w>
t led</w>
t in
swe pt</w>
surren der</w>
su sp
susp ended</w>
su ited</w>
stre tched</w>
stra te
stor s</w>
stor ed</w>
ste ve</w>
star ving</w>
st able</w>
speci ali
sno ws</w>
smo ked</w>
sle eps</w>
sla very</w>
ski pped</w>
sight seeing</w>
shu d
shor tly</w>
shin juku</w>
sexu al</w>
serv ants</w>
separ ated</w>
se x</w>
scen es</w>
sca ttered</w>
sa chiko</w>
s ounded</w>
s or</w>
s ms</w>
rup t
rub bish</w>
ru ral</w>
rob bery</w>
rib bon</w>
ri ser</w>
ri ddle</w>
ri ches</w>
resist ance</w>
relea se</w>
reco gnition</w>
recei pt</w>
rea ching</w>
re view</w>
re sted</w>
re semble</w>
ra tional</w>
ra ced</w>
prin t</w>
pri m
presen tation</w>
pre y</w>
pre scri
pre gnant</w>
practi cally</w>
pos itive</w>
pit cher</w>
pi le</w>
pen e
pene tra
pen alty</w>
par ks</w>
p per
or i</w>
oper a</w>
on light</w>
o xi
o logy</w>
nor thern</w>
nor ma
ni ck</w>
mo onlight</w>
mis fortun
misfortun es</w>
milli onaire</w>
mer rily</w>
master piece</w>
marke ting</w>
mar tin</w>
manu script</w>
man i
ma ke
ma iling</w>
luck ily</w>
loa f</w>
lo g</w>
li vely</w>
li cop
len dar</w>
le v
la ziness</w>
la p</w>
kar ao
karao ke</w>
j ama
it is</w>
it ely</w>
iso lated</w>
introdu ction</w>
individu als</w>
indi cate</w>
indi ans</w>
inde x</w>
inci dents</w>
in k
i chi
hu mi
home less</w>
her o
hear ty</w>
he licop
ha m</w>
ha k
h oo
gue ssed</w>
guarante ed</w>
gu ys</w>
gra sped</w>
gra phi
goo dness</w>
go ssi
go als</w>
gest ures</w>
geo graphy</w>
ge tic</w>
gaz ing</w>
garden ing</w>
ga ining</w>
g in
g gy</w>
g an</w>
ful fill</w>
fro ze</w>
for ks</w>
for ge
floo ds</w>
flo wn</w>
finan ces</w>
fin als</w>
fi res</w>
fi er
f ying</w>
f old</w>
extra ordinary</w>
expl ored</w>
exp and</w>
exce ss</w>
er o
en cy
ency clo
el ty</w>
ea ger
e ties</w>
e tho
e mi</w>
e co
disgu sted</w>
disgu ise</w>
discri mination</w>
dischar ged</w>
di m</w>
di g
decl are</w>
de vice</w>
de signs</w>
dar ed</w>
da m</w>
cru elty</w>
crea tures</w>
crea te</w>
cover ing</w>
corre cted</w>
cooki e</w>
conv ey</w>
concer ns</w>
concea l</w>
compen sa
compe ted</w>
compe te</w>
compani ons</w>
commer cial</w>
comm ents</w>
cli ent</w>
class mate</w>
cl ung</w>
chim ney</w>
che ered</w>
cha in</w>
ch in</w>
car rots</w>
calcu lated</w>
ca using</w>
ca thy</w>
ca lendar</w>
ca b</w>
c tured</w>
brea thing</w>
bor ders</w>
bomb s</w>
blosso m</w>
bit ten</w>
bi lity</w>
betra y</w>
be aring</w>
be ard</w>
bank rupt
ban an
b lon
b ene
b .</w>
at lan
at a</w>
astrono my</w>
as cri
arti sts</w>
any time</w>
ance stors</w>
alpha bet</w>
al lows</w>
achie vement</w>
ac y</w>
ac quire</w>
aban don</w>
ab sented</w>
a venue</w>
a ches</w>
a ce</w>
6 5</w>
19 4
1 6
1 3</w>
３ １</w>
１９ ６
１９ ５０</w>
１ ５０</w>
骨 董</w>
飲 物</w>
願 い
項 目</w>
雷 鳴</w>
雨 宿
雨宿 り</w>
雇い 主</w>
陳 述</w>
防 止</w>
間 食</w>
閉じ 込め</w>
閉じ こも</w>
長 野</w>
鉄 鋼</w>
遺 産</w>
遺 憾</w>
遺 伝</w>
遥 か</w>
違 法</w>
過 剰</w>
運 営</w>
運 び
途 端</w>
送 別</w>
退 院</w>
辞 儀</w>
軽 率</w>
車 輪</w>
足 跡</w>
謝 罪</w>
語 学</w>
誘 い</w>
評 論</w>
訴 訟</w>
解 答</w>
見 積
要 望</w>
舞 伎</w>
脱 走</w>
背 後</w>
考え 直</w>
老 婆</w>
美 容</w>
美 味
美味 し</w>
縫 い
編み 物</w>
編 集</w>
結び 付け</w>
終 了</w>
素 直</w>
納 豆</w>
立ち 入り</w>
立ち 入</w>
空 間</w>
空 き</w>
秘 め</w>
磨 き</w>
知 子</w>
知 人</w>
矢 理</w>
真 意</w>
看 板</w>
百 科</w>
発 売</w>
画 像</w>
甘 やか</w>
狂 気</w>
牧 場</w>
父 母</w>
焼 き</w>
無理 矢理</w>
無 駄
為 替</w>
演 じ</w>
溢 れ</w>
満 員</w>
混 み</w>
消 化</w>
浴 室</w>
派 手</w>
油 断</w>
水 面</w>
水 着</w>
民 衆</w>
比 例</w>
正 月</w>
歌 舞伎</w>
機 内</w>
根 本</w>
栄 光</w>
望 め</w>
有り 金</w>
有 用</w>
曖 昧</w>
暗 がり</w>
暖 め</w>
晴 天</w>
時 速</w>
明 るみ</w>
明 け
断 固</w>
敵 軍</w>
数 百</w>
教 養</w>
敗 北</w>
授 け</w>
拝 見</w>
手 当たり</w>
手 入れ</w>
成り 行き</w>
慣 ら</w>
惨 め</w>
惚 れ</w>
急 用</w>
応 急</w>
後 退</w>
役 者</w>
役 目</w>
役 人</w>
強 化</w>
弱 点</w>
引っ 越し</w>
引き 出</w>
延 び</w>
座 り</w>
床 屋</w>
平 行</w>
山 中</w>
学 業</w>
学 位</w>
学 べ</w>
学 び</w>
好 転</w>
天 文</w>
夜 通し</w>
多 様</w>
夕 飯</w>
夕 立</w>
圧 倒</w>
国 語</w>
四 半</w>
名 所</w>
取り 返</w>
収 支</w>
反 映</w>
厳 格</w>
原 始</w>
卑 劣</w>
勝ち 取</w>
勝 ち</w>
動 き回</w>
勃 発</w>
加 藤</w>
割 引</w>
削 減</w>
出 演</w>
光 栄</w>
修 繕</w>
作 動</w>
何 物</w>
体 制</w>
仕 上が</w>
介 護</w>
人 混み</w>
乏 し</w>
丸 太</w>
中 華</w>
両 足</w>
両 腕</w>
不 快</w>
不 作</w>
上 映</w>
一 夜</w>
ール ド</w>
ール ズ</w>
ート ー
ー スト</w>
ン プ
レン ズ</w>
レコー ダー</w>
レ ス
リン ク</w>
リ ラ
リ ム
リム ジン</w>
ラク ダ</w>
ライ ター</w>
ラ ーズ</w>
ヨ ハネ</w>
ユ ニ
ヤ ード</w>
メ ーター</w>
メ イ
マネー ジャー</w>
マ ザー</w>
ボク サー</w>
ボ ックス</w>
ボ ク</w>
ベ ートー
プログラ ム</w>
プラ ット</w>
ブー ツ</w>
フレ ット</w>
フェ ンス</w>
フ リー</w>
ピ スト
ピスト ル</w>
パー ク</w>
パン フレット</w>
パン ク</w>
パ ラ
バ ナ
トロ ール</w>
トラベ ラーズ</w>
ト レー
ト レス</w>
ト リー</w>
ト リック</w>
ディ ズ
ディズ ニー</w>
テ リア</w>
テ ク
ッ フ</w>
チャ ー
チャ ンネル</w>
チ ン</w>
ダン サー</w>
ター ソン</w>
タン カー</w>
ソフ ト
ソ ニー</w>
セ ー
セ ンチ</w>
スプ ーン</w>
スティ ーブ</w>
スタ ッフ</w>
ス カ</w>
ジャン グル</w>
ジャイ アン
ジャイアン ツ</w>
シー ズン</w>
ギャ ン
キ リ</w>
キ ム</w>
キ ツネ</w>
カ 国</w>
カ エル</w>
オー ケ
オ ランダ</w>
オ ペラ</w>
オ ウム</w>
エジ プト</w>
エ ド
イン チ</w>
イ ヤ
アル プス</w>
ア リ</w>
ア マ
ア プ
ろ う</w>
よ せ</w>
や け</w>
や あ</w>
み つか</w>
まち がえ</w>
まあ まあ</w>
ま ちがい</w>
ぼ ろ</w>
ぼ け</w>
ほど よ</w>
ほっ そり</w>
ほ ほえ</w>
び き</w>
ひ ま</w>
ばら ばら</w>
ば つ</w>
は し</w>
にこ にこ</w>
と き
と かく</w>
でっち 上げ</w>
だ わ</w>
そろ え</w>
せ めて</w>
す く
じろ じろ</w>
じ り</w>
じ ゅう</w>
しみ じみ</w>
し ら
さ て
さ け</w>
げ ん
け 込</w>
け ん</w>
き 上が</w>
が み
が き</w>
かん かん</w>
から だ</w>
か っ
おぼ え</w>
お ち
い そ
あえ ず</w>
x ima
wor ship</w>
with ered</w>
win k</w>
whisp ered</w>
whi sky</w>
wha les</w>
weigh ed</w>
wea pon</w>
we ary</w>
wa tered</w>
w ounds</w>
w led</w>
volunte er</w>
view point</w>
ver s
vers ary</w>
ven ge</w>
ve s
valu ables</w>
vacu um</w>
v ag
ur s</w>
ur ine</w>
unexpe c
unexpec tedly</w>
ul a</w>
ty pi
tu ition</w>
tra y</w>
tra ce</w>
tor ious</w>
toma to</w>
to wns</w>
to pics</w>
ti p
thou ghtful</w>
than k
th rust</w>
temp ted</w>
tax is</w>
tane ous</w>
t te</w>
t run
t i</w>
t ching</w>
symp toms</w>
sy dney</w>
sur ger
surger y</w>
sur geon</w>
sun rise</w>
strugg ling</w>
stron gest</w>
star ved</w>
star ve</w>
sta ted</w>
st rea
st ir</w>
ssa ges</w>
squ ee
spo on</w>
spi lled</w>
so m</w>
snow fall</w>
smo kers</w>
sil ently</w>
signi fi
signifi can
shud dered</w>
sho ts</w>
shar es</w>
sha me
sh un
secre ts</w>
satur days</w>
s len
slen der</w>
s cal</w>
run g</w>
ru ption</w>
roa st</w>
ro ws</w>
ro t</w>
rich est</w>
ri vers</w>
relation ships</w>
regi ster</w>
recor ded</w>
rea dily</w>
rea ders</w>
re turns</w>
re solution</w>
rainfor ests</w>
ra ys</w>
ra y</w>
ra cing</w>
r y
r he
quar ters</w>
qu es</w>
puzz led</w>
pur suit</w>
publi sher</w>
prosp er
prosper ity</w>
pro ficient</w>
prim itive</w>
predi ct</w>
pre ven
pre h
pota to</w>
pos ted</w>
polit eness</w>
poin tments</w>
photo graphs</w>
persever ance</w>
per sist
pe pper</w>
par aly
par a
pa st
pa irs</w>
p anic</w>
ox ford</w>
oper ated</w>
on ally</w>
oly m
olym pics</w>
offi ces</w>
offi cers</w>
ob stru
o kay</w>
no torious</w>
nik ko</w>
neg li
nee dle</w>
ne phe
na tives</w>
na g
nag ano</w>
n ine
n app
musi cians</w>
mp ty</w>
mon keys</w>
misunder stood</w>
min ated</w>
mi ko</w>
mech ani
measu red</w>
me lts</w>
mar gar
maj ored</w>
m un
lu res</w>
lo ttery</w>
liqu or</w>
li ated</w>
le e</w>
le ctur
la ys</w>
la sting</w>
l ers</w>
kno cking</w>
kni ves</w>
ki ss</w>
ki m</w>
ki ko</w>
ki d
kan ji</w>
ka bu
kabu ki</w>
k in</w>
jo an</w>
jewel ry</w>
it ch</w>
it ated</w>
inven tions</w>
inter ven
inha bit
inhabit ants</w>
industri ous</w>
industri es</w>
indi cates</w>
in qu
im per
im men
ichi ro</w>
i ri
i ms</w>
hypo thesis</w>
hospit als</w>
hit ting</w>
hi re</w>
helicop ter</w>
hear t
hea ting</w>
haun ted</w>
hang ed</w>
hair style</w>
gree dy</w>
gor geous</w>
gn p</w>
gi es</w>
gh ten</w>
g lo
g id</w>
g ang
fro g</w>
free ze</w>
fou l</w>
forbi dden</w>
for ces</w>
foo lish
floo ded</w>
fle xi
fla tly</w>
fire place</w>
fici ency</w>
fi scal</w>
fea tures</w>
fe ared</w>
fascin ated</w>
faci lities</w>
fa tal</w>
fa ded</w>
fa cul
f low</w>
exper ts</w>
exerci ses</w>
execu tive</w>
exclu ded</w>
exce ssive</w>
etho ven</w>
estab lish</w>
equ ality</w>
encyclo pe
en able</w>
eloqu ent</w>
el bow</w>
eg y
economi cally</w>
ea stern</w>
e motion</w>
e mail</w>
e la
e ing</w>
e c
dro pping</w>
dri fted</w>
doub led</w>
disp lea
dis grace</w>
diplo matic</w>
di mini
depos ited</w>
depen ding</w>
def en
deba ted</w>
dea ths</w>
de cent</w>
dai sies</w>
da s</w>
d y
ct ful</w>
crimin als</w>
crea tive</w>
cre pt</w>
cran e</w>
cra wl</w>
correspon ds</w>
contro lled</w>
contemp t</w>
constru cted</w>
conne cted</w>
congre ss</w>
congratu lations</w>
confe ss</w>
condu ctor</w>
concer ts</w>
com pass</w>
collap se</w>
col our</w>
col or
co me
cla pped</w>
cla ims</w>
chor us</w>
chick ens</w>
che w</w>
che ers</w>
celebra ted</w>
car ved</w>
c ents</w>
bun dle</w>
bun ch</w>
bul ance</w>
budd hi
bu si
bra very</w>
br on
born e</w>
boo m</w>
boa sted</w>
ble ssing</w>
ble eding</w>
bea ts</w>
be ethoven</w>
bankrupt cy</w>
ban da
bal let</w>
b in
b by</w>
atta cks</w>
atta ch</w>
athle tes</w>
astron au
assi st</w>
assemb led</w>
as sure</w>
ar ose</w>
appro xima
appreci ation</w>
ap pointments</w>
anni versary</w>
ang rily</w>
amb itious</w>
ama te
am bulance</w>
al ter</w>
air planes</w>
ai ms</w>
agre es</w>
af fect</w>
ad vo
ad ing</w>
ad diti
acknowle d
accu mulated</w>
accoun tant</w>
accor dingly</w>
aca demic</w>
ac tors</w>
a spir
a spect</w>
5 0,000</w>
5 ,000</w>
20 0
2 7</w>
2 4</w>
Ｎ Ｐ</w>
Ｇ ＮＰ</w>
５ 千</w>
３ ５</w>
１９ ８０</w>
１９ ５
鹿 げ</w>
鮮 やか</w>
馬 鹿げ</w>
飽 き
飲み 込</w>
韓 国</w>
青 白</w>
難 な</w>
雑 貨</w>
隠 し
陸 軍</w>
防 衛</w>
防 御</w>
間 近</w>
開 店</w>
長 々</w>
鎮 圧</w>
重 な</w>
酸 性</w>
酸 っぱ</w>
酔 っぱら</w>
配 置</w>
過 激</w>
過 ご
過ご せ</w>
運 賃</w>
連 合</w>
逃 走</w>
追い 払</w>
近 づけ</w>
農 作</w>
載 せ</w>
転 地</w>
転 が</w>
赤 道</w>
赤 らめ</w>
貴 族</w>
貯 蓄</w>
貨 幣</w>
議 事</w>
調 節</w>
語 り合</w>
誘 拐</w>
試 練</w>
許 せ</w>
言い つけ</w>
見 渡
見渡 せ</w>
褒 め</w>
衣 装</w>
薔 薇</w>
蒸 し
苦 境</w>
花 嫁</w>
良 質</w>
舞 い
自 立</w>
自 力</w>
育 ち</w>
老 齢</w>
綴 り</w>
納 屋</w>
紅 葉</w>
空 席</w>
空 中</w>
積 み
磁 場</w>
知 性</w>
直 視</w>
留 ま</w>
甲 斐</w>
爆 破</w>
焦 点</w>
無 数</w>
災 い</w>
濃 霧</w>
漢 字</w>
渡 れ</w>
渋 谷</w>
混 合</w>
消 え
海 底</w>
活 躍</w>
殺 到</w>
死 体</w>
標 準</w>
本 題</w>
望 まし</w>
有 力</w>
晴 れ
昼 寝</w>
昔 々</w>
早 口</w>
日の 出</w>
旅 人</w>
新 居</w>
新 任</w>
撮 影</w>
提 示</w>
排 除</w>
指 数</w>
指 定</w>
持ち 歩</w>
押し 付け</w>
手 本</w>
手 当</w>
悪 人</w>
恐 れ
恐 らく</w>
思い とどま</w>
快 活</w>
必 需</w>
心 得</w>
心 ゆ</w>
当 店</w>
弱 者</w>
引っ かか</w>
引き 取</w>
建 造</w>
延 長</w>
座 れ</w>
幾 分</w>
平 穏</w>
寺 院</w>
寒 気</w>
宣 言</w>
実 用</w>
安 らか</w>
学 園</w>
奪 い取</w>
大 西</w>
大 工</w>
大 体</w>
境 遇</w>
堪 能</w>
固 ま</w>
噛 み
善 人</w>
唱 え</w>
和 ら</w>
呼び かけ</w>
吹き 飛ば</w>
吹 き</w>
同 盟</w>
各 地</w>
可 決</w>
召し 使い</w>
古 典</w>
受け 付け</w>
受 話</w>
受 付</w>
収 益</w>
友 だち</w>
単 独</w>
南 部</w>
協 定</w>
協 会</w>
北 部</w>
勢 力</w>
分 配</w>
分 解</w>
出 費</w>
出 航</w>
処 方</w>
冷 め</w>
先 頭</w>
先 約</w>
働 き
傷 口</w>
側 面</w>
健 二</w>
余 計</w>
会 釈</w>
仕 返し</w>
人 権</w>
主 題</w>
中 間</w>
中 身</w>
不 通</w>
不 作法</w>
上 空</w>
丁 度</w>
一 足</w>
一 昨</w>
ート ルズ</w>
ワ ーク</w>
レ イン</w>
リ ップ</w>
リ カン</w>
ラン チ</w>
ライ バル</w>
ラ イン</w>
ュー ズ</w>
メ ロン</w>
ミュージ カル</w>
マー ガ
マイ ケル</w>
ポー ラ</w>
ボク シング</w>
ホ ーキング</w>
ベ ース</w>
ベ ル
プ キン</w>
フ ント</w>
ビ ートルズ</w>
ビ ー
パ ターソン</w>
パ ジャ
パジャ マ</w>
バナ ナ</w>
バ レ
バ ル
ニ ン
ナポ レオン</w>
ナ プキン</w>
ド ッグ</w>
デ ー
デ ス</w>
テレ オ</w>
ティ ム</w>
テ ロ</w>
ックス フント</w>
ックス フォード</w>
ダン ス
ダンス パーティー</w>
ダ ックスフント</w>
タ ウン</w>
ソ ー
セ ル
スコ ット</w>
スク ール</w>
ス マ</w>
ス テレオ</w>
ジョ ーン</w>
ジョ ニー</w>
ジュ リ
ジャーナ リスト</w>
ジャ ム</w>
コン クリ
コンクリ ート</w>
コ ア
コア ラ</w>
ケ ネ
ク ロ</w>
ク ソン</w>
キャン ディー</w>
キ ュ
カ ット</w>
カ ッ</w>
オー ブン</w>
オ ックスフォード</w>
オ イル</w>
エ ミリー</w>
イ ヤー</w>
アメ リカン</w>
アク セント</w>
んど り</w>
り 付け</w>
よう なら</w>
ょ っと</w>
ゆ れ</w>
ゆ で</w>
ゆ ったり</w>
や や</w>
や たら</w>
もて なし</w>
も て</w>
も っぱら</w>
まん まと</w>
ま く</w>
ぽ ん</w>
ほ う
ふ る</w>
ふ く</w>
ひき つけ</w>
ひ な</w>
ひ じ</w>
ば っかり</w>
は ばか</w>
の み
ね ー</w>
ね らい</w>
ね こ</w>
な び</w>
な がめ</w>
ど り</w>
とり あえず</w>
と ん</w>
づ き</w>
つぶ れ</w>
つ ね</w>
っ ぽ
ため し</w>
た ら
た っ</w>
た たえ</w>
た して</w>
そ そ
ぜ いた
ぜいた く</w>
せ り
せ が</w>
す たれ</w>
す ぐ
す く</w>
じ く</w>
し 合</w>
し ぶ
し の
し っぽ</w>
さて お</w>
さか さま</w>
さ ようなら</w>
さ ぼ</w>
さ く</w>
さ がし</w>
ご まか</w>
こ わが</w>
こ だわ</w>
こ す</w>
げ さ</w>
ぐ ず</w>
く じ
ぎ ょっと</w>
きら きら</w>
き げん</w>
が た
かわい が</w>
かな らず</w>
か す</w>
おろ か</w>
およ び</w>
お ち</w>
お さめ</w>
う た</w>
い く
あき れ</w>
あ っち</w>
あ さ
あ ご</w>
あ お
z er</w>
yi elds</w>
work man</w>
wit ne
week ly</w>
wan dered</w>
wa gon</w>
wa ge</w>
vio lin
violin ist</w>
vi gor
var ies</w>
var i
under take</w>
un locked</w>
u t
ut most</w>
typi st</w>
typho ons</w>
ty ping</w>
tra ded</w>
tou ches</w>
toma toes</w>
to ken</w>
ti vated</w>
ti oned</w>
ti cally</w>
thir ds</w>
the less</w>
th umb
th nic</w>
text books</w>
ter rit
tal ka
ta te</w>
ta ls</w>
t ches</w>
surpri singly</w>
super vi
sup er</w>
substitu te</w>
sub mitted</w>
su pre
stub born</w>
stin ate</w>
sti mu
sti cking</w>
stere o</w>
stati stics</w>
sta ined</w>
sta ges</w>
st rain</w>
ss y</w>
squ it
squit oes</w>
spo ts</w>
spac e
sou thern</w>
so le</w>
so le
sn ea
sli m</w>
sla ve</w>
skill ful</w>
ske le
skele ton</w>
sk y
significan ce</w>
shun d</w>
shi bu
shibu ya</w>
ser ver</w>
sele cted</w>
second hand</w>
se st</w>
se l</w>
scar ce</w>
sav age</w>
satis fy</w>
sa c
sac red</w>
s u</w>
s lump</w>
s lu
s car</w>
ru ler</w>
ro y</w>
ri gid</w>
ri dge</w>
revi ved</w>
rev .</w>
repa irs</w>
ren ched</w>
rela tively</w>
regret table</w>
rece ss</w>
re public</w>
re fund</w>
re c
rain coat</w>
radi cal</w>
rab bits</w>
ra sh</w>
ra il</w>
questi on
promo ted</w>
promo te</w>
pro vo
pro spects</w>
pro bable</w>
privile ge</w>
priv acy</w>
prefe cture</w>
pre su
pos ts</w>
poli cies</w>
po lish</w>
po leon</w>
plea sures</w>
pl un
pit ch</w>
pi geon</w>
person ally</w>
persi sts</w>
per fu
patter son</w>
patter n</w>
passeng er</w>
paraly zed</w>
pa ula</w>
pa jama
pajama s</w>
pa d</w>
our ite</w>
occu pa
occa sions</w>
obstac les</w>
ob stinate</w>
o gawa</w>
numer ous</w>
nove mber</w>
norma lly</w>
non stop</w>
no .
ni ck
neu tra
na tto</w>
na poleon</w>
n ouri
mu sh
mu ra
mon ot
mo tor</w>
mo thers</w>
mo squitoes</w>
mis chief</w>
min g
mi st</w>
mi gra
memori ze</w>
memb er
member ship</w>
mel on</w>
me ssages</w>
me dit
mar ched</w>
mam mal</w>
make up</w>
magi cian</w>
ma tched</w>
ma ll</w>
ma li
m na
lux u
lo ver</w>
lin qu
lin k</w>
like lihood</w>
li sa</w>
lev ant</w>
le aning</w>
la yer</w>
l oun
kor ean</w>
ki dding</w>
ken ne
ke ttle</w>
ka wa
ka to</w>
k ura</w>
k n
justi fy</w>
ju mping</w>
ju li
jo int</w>
jo g</w>
jac k
j or
j en
itu al</w>
it am
inv ad
interpre t</w>
inter rup
intelle ctu
incredi ble</w>
in tru
in spired</w>
in ches</w>
immen se</w>
im pu
illu strated</w>
ill a</w>
idi o
identi fied</w>
i ses</w>
hus ban
husban ds</w>
house wife</w>
hon ey
ho ll
histor ic</w>
haw king</w>
hal ves</w>
gy mna
guar ds</w>
gre et</w>
gre ed</w>
gra vity</w>
gossi p</w>
ge ons</w>
g ger</w>
fr en
flow ing</w>
fla gs</w>
fir ms</w>
fe teria</w>
fe es</w>
fav ourite</w>
fast ened</w>
fai lures</w>
facul ty</w>
fa ction</w>
extre mes</w>
expre ssions</w>
expre sses</w>
explo ded</w>
exce p
ex tension</w>
ex pose</w>
ex emp
ex cur
excur sion</w>
ere cted</w>
equi valent</w>
equ ator</w>
enjo yment</w>
enga ge</w>
ener getic</w>
endea v
en sure</w>
employe e</w>
emo tional</w>
emi ly</w>
embarra ssing</w>
ear ning</w>
e va
e thnic</w>
e dit
e ded</w>
du mb</w>
du ck</w>
dri pping</w>
dra stic</w>
do l
divor ced</w>
distin ct</w>
disgui sed</w>
disapp ear</w>
disa sters</w>
dis likes</w>
dia le
di se</w>
despi sed</w>
decor ated</w>
decl ining</w>
deci ding</w>
decei ve</w>
de v
de ter
de linqu
de fi
de ar
da wned</w>
da sh</w>
da ch
dach shund</w>
d ous</w>
d ine</w>
ctu ral</w>
critici ze</w>
courte sy</w>
contra di
consu med</w>
consci ousness</w>
conditi oning</w>
con temporary</w>
con form</w>
compla int</w>
commer ce</w>
comman ded</w>
coa ts</w>
co ke</w>
co ck</w>
clo set</w>
clo ses</w>
cli ents</w>
circu lation</w>
ci st</w>
christi an</w>
chri st</w>
chi ef
che cking</w>
challeng ed</w>
certi fi
ce llar</w>
car pen
cance lled</w>
can adi
came l</w>
ca te
ca mb
ca feteria</w>
c in
bu ds</w>
brief ly</w>
bri dges</w>
bri de</w>
bon ds</w>
bo lt</w>
bea tles</w>
bath ed</w>
bar n</w>
bar gained</w>
b ers</w>
b ars</w>
b ap
bap ti
b al</w>
automobi les</w>
attra ction</w>
atta ined</w>
at tor
assu red</w>
ass er
ar se</w>
ar ctic</w>
appear ing</w>
ao i</w>
anticipa ted</w>
an tar
an kle</w>
amate ur</w>
aller gic</w>
al ps</w>
al led</w>
al ities</w>
agre eable</w>
advan tages</w>
admini stra
admi ring</w>
ad jour
acci den
ac tual</w>
ac qui
ac claimed</w>
abu se</w>
ab ound</w>
ab c</w>
a ching</w>
3 00</w>
20 th</w>
199 0</w>
10 0,000</w>
1 7</w>
1 4
６ ００</w>
５ ０００</w>
４ ００</w>
１９９ ８</w>
１９ ７０</w>
１９ ６０</w>
１９ ３９</w>
１ ２０</w>
１ ０
鼓 動</w>
麻 雀</w>
麻 痺</w>
高 層</w>
馬 車</w>
首 脳</w>
飽き 飽き</w>
飢 饉</w>
飛び つ</w>
風 習</w>
頓 着</w>
面 積</w>
非 番</w>
電 線</w>
電 力</w>
離 せ</w>
階 下</w>
長 崎</w>
鉄 砲</w>
金 儲け</w>
重 傷</w>
部 員</w>
部 品</w>
過 言</w>
過 程</w>
過 度</w>
運 河</w>
通り ぬけ</w>
通 路</w>
通 用</w>
逃 が</w>
退 学</w>
近 寄</w>
込 み
軽 視</w>
転 職</w>
転 勤</w>
踊 り
跳 び</w>
跳 び
路 上</w>
趣 旨</w>
賞 金</w>
負 債</w>
谷 間</w>
警 報</w>
講 堂</w>
言い 換え</w>
言い 争</w>
見 落と</w>
見 学</w>
表 示</w>
衝 動</w>
行 事</w>
葬 式</w>
茶 碗</w>
色 彩</w>
腕 前</w>
脱 出</w>
背 丈</w>
聞き 取れ</w>
聞き 入</w>
置 き
織 物</w>
縮 小</w>
綿 密</w>
継 承</w>
給 仕</w>
素 材</w>
粘 土</w>
立 腹</w>
突き 出</w>
称 賛</w>
福 岡</w>
禁 酒</w>
神 話</w>
神 聖</w>
知 り</w>
真 向かい</w>
相 対</w>
直 角</w>
直 後</w>
発 砲</w>
発 射</w>
申 請</w>
産 物</w>
産 出</w>
理 屈</w>
現 行</w>
王 位</w>
猛 烈</w>
狩 り</w>
片 手</w>
熱 意</w>
熟 達</w>
無理 やり</w>
無 口</w>
無 くな</w>
漂 流</w>
溺 死</w>
減 量</w>
海 水</w>
流 感</w>
殺 し</w>
殆 ど</w>
歯 科</w>
正 面</w>
正 体</w>
欲 望</w>
機 器</w>
樹 立</w>
構 え</w>
業 者</w>
柔 軟</w>
染 め</w>
果 たし</w>
東 洋</w>
本 社</w>
本 末</w>
木の 実</w>
服 用</w>
書き 込</w>
曇 り</w>
暴 落</w>
晩 餐</w>
方 々</w>
新 築</w>
斜 面</w>
文 体</w>
敵 意</w>
散 ら</w>
故 意</w>
政 界</w>
放 題</w>
放 棄</w>
放 射</w>
改 め</w>
措 置</w>
推 定</w>
捜 査</w>
振 舞</w>
指 さ</w>
拡 張</w>
扶 養</w>
打ち 込</w>
戸 外</w>
惨 事</w>
悪 友</w>
悪 ふざけ</w>
恵 み</w>
恩 恵</w>
性 能</w>
急 死</w>
応 援</w>
応 対</w>
応 じ</w>
志 願</w>
復 讐</w>
待ち 望</w>
待 遇</w>
彫 刻</w>
当 事</w>
強 制</w>
引き 上げ</w>
廊 下</w>
度 胸</w>
平 易</w>
居 心地</w>
小 犬</w>
寿 命</w>
対 抗</w>
寝 込</w>
実 質</w>
実 物</w>
宛 名</w>
存 分</w>
始 終</w>
奉 仕</w>
大 木</w>
大 型</w>
夢 見</w>
外 人</w>
売り 切れ</w>
壇 場</w>
土 壌</w>
土 壇場</w>
回 答</w>
喝 采</w>
吹き 込</w>
吸 い
同 じく</w>
各 人</w>
口 笛</w>
口 数</w>
口 実</w>
受 賞</w>
取り やめ</w>
取 締</w>
取 っ
取っ 手</w>
双 方</w>
却 下</w>
危 害</w>
動 議</w>
動 揺</w>
力 量</w>
削 除</w>
利 け</w>
判 定</w>
出 産</w>
出 現</w>
出 港</w>
凍 死</w>
冷 凍</w>
冷 や</w>
再 開</w>
円 高</w>
内 部</w>
入 国</w>
先 ん</w>
働 か</w>
値 打ち</w>
保 管</w>
体 質</w>
佐 知子</w>
伝 染</w>
休 め</w>
仰 天</w>
仮 定</w>
仏 教</w>
人 体</w>
享 受</w>
予 習</w>
乱 用</w>
乗 馬</w>
与 党</w>
不 眠</w>
不 便</w>
上 下</w>
一人 暮らし</w>
一 貫</w>
一 斉</w>
ンブ リッジ</w>
ロビ クス</w>
ロ マン
レン ダー</w>
レ ジ</w>
メ ーカー</w>
メ ロ
メ イン</w>
ポ テ
ホ ノル
ホノル ル</w>
ベ ント</w>
プレ イ</w>
ブ リ
フォ ー
フェ リー</w>
フィ ン
ファ ースト</w>
ピ ント</w>
ビジネ スマン</w>
ビ ング</w>
ビ ニ
ヒ ー
ヒ ロ
ヒ ル</w>
パ ンチ</w>
バー ゲン</w>
バ イト</w>
ノー ベル</w>
ニュー トン</w>
ナ ル</w>
ド ー
ド ン
ド ブック</w>
トラ ブル</w>
デ ン</w>
ツ ァ
ック リ</w>
チョ ーク</w>
チュー リップ</w>
チ ュ
ダイヤ ル</w>
ダイ ア
タ ーン</w>
タ ワー</w>
セ ク
スリ ル</w>
スピ リン</w>
スチ ュ
スタ ント</w>
ジョ ー
ジュ リー</w>
ジャ ネット</w>
ジェ イン</w>
シャ ン</w>
シャ ル</w>
ザ ベス</w>
サン プル</w>
サイ ド</w>
サ ス</w>
コ ック</w>
ゲ ート</w>
ケ ンブリッジ</w>
クラスメ イト</w>
ク マ</w>
ク ビ</w>
ギャン ブル</w>
ガイ ドブック</w>
ガ タ</w>
カー ブ</w>
カ レンダー</w>
カ バー</w>
オーケ ストラ</w>
エリ ザベス</w>
エア ロビクス</w>
エ ーカー</w>
ウン サー</w>
ウエ スト</w>
ウ ール</w>
イ ル
イ ベント</w>
アリ バイ</w>
アナ ウンサー</w>
ア ワー</w>
ア スピリン</w>
ア シ
わき まえ</w>
わ ん
わ やか</w>
り 取</w>
ら つ</w>
よ い
よい よ</w>
もめ ごと</w>
も ろ</w>
も そ
もそ も</w>
め く</w>
み た</w>
まだ まだ</w>
ま ぬ
まぬ がれ</w>
ぼ う
ほ とり</w>
ひ ら</w>
ひ いき</w>
ば れ</w>
は れ</w>
は ね
は か</w>
は え</w>
の がれ</w>
な べ</w>
ど ろ
とう てい</w>
と け</w>
で き
つ まず</w>
つ かえ</w>
つ いで</w>
っ け</w>
っ か</w>
だ ら</w>
た ど</w>
た こ</w>
そ もそも</w>
せり ふ</w>
せ き
ずば 抜け</w>
ず ぐず</w>
すぐ さま</w>
す が</w>
し ぼ</w>
ささ か</w>
さ わやか</w>
さ げ</w>
さ ぎ</w>
こ な
ぐ ずぐず</w>
く ろ</w>
く ね</w>
く ちゃ</w>
き らい</w>
き まり</w>
き な</w>
が ら
かな え</w>
かた づけ</w>
かけ ら</w>
か ゆ</w>
か も</w>
か みつ</w>
か かえ</w>
か あ</w>
おと とい</w>
おお きな</w>
お の
お ど</w>
お ご
う さぎ</w>
いっ せい</w>
いく ぶん</w>
いき なり</w>
い よいよ</w>
い ささか</w>
あざ 笑</w>
あ らし</w>
あ ちら</w>
za beth</w>
z awa</w>
z ations</w>
ye lled</w>
y land</w>
wor ms</w>
wo ken</w>
wi l
wi dow</w>
who me
whome ver</w>
wei gh</w>
war mly</w>
war med</w>
wa shes</w>
vi et</w>
ven ess</w>
ven ding</w>
v in
under ground</w>
un lucky</w>
ulti mate</w>
u sage</w>
u ded</w>
tu lips</w>
tt a</w>
trou ble
tri c</w>
tri be</w>
tre mbled</w>
tre mble</w>
trans ported</w>
tran sa
tra sh</w>
tr end</w>
toler ate</w>
to e</w>
tis m</w>
ti ous</w>
ti m</w>
ti gers</w>
thumb s</w>
thir teen</w>
the ories</w>
testi mony</w>
territ ory</w>
ter ry</w>
ter ly</w>
ten ding</w>
teen agers</w>
te ens</w>
tan ker</w>
talka tive</w>
ta ining</w>
t ours</w>
survi val</w>
super ficial</w>
sup ports</w>
sup porting</w>
success fully</w>
substitu ted</w>
sub tle</w>
stre tch</w>
strate gy</w>
stra y</w>
sti me</w>
sti cated</w>
star tled</w>
st oo
st ir
ss er</w>
spo il</w>
spi ration</w>
sp an</w>
soci able</w>
so viet</w>
so phi
snow storm</w>
sn app
sk is</w>
sit ion</w>
sin e</w>
side walk</w>
shel ves</w>
sh y
sh rin
sett lement</w>
se ller</w>
scra ped</w>
scot t</w>
satis faction</w>
sal ty</w>
sail ors</w>
sa mples</w>
sa ck</w>
s oo
rub bed</w>
robo ts</w>
ro me
rome o</w>
rich er</w>
ri vals</w>
ri sks</w>
ri f
revi sed</w>
rest rain</w>
respe ctive</w>
requi rements</w>
rela xing</w>
regar ding</w>
redu ction</w>
rebe llion</w>
re vo
re ver
re venge</w>
re presented</w>
re ject</w>
re fers</w>
re called</w>
ra tions</w>
ra ted</w>
qui z</w>
quarre led</w>
qu eu
puni sh</w>
punctu ality</w>
pu b</w>
psycho logical</w>
pro position</w>
presi dency</w>
presen tly</w>
predi ction</w>
predi cted</w>
preci se</w>
pre t
post man</w>
polit ely</w>
poli shed</w>
play ground</w>
pl u
pi lls</w>
pi geons</w>
physi cian</w>
perfu me</w>
per cei
penetra ted</w>
pe ssi
pe g</w>
pe ans</w>
pay ments</w>
parti ci
pa stime</w>
pa ssions</w>
p our</w>
oxi de</w>
over looked</w>
over look</w>
out door</w>
ou n</w>
optimi stic</w>
op en
off ended</w>
o lu
olu l
olul u</w>
no bel</w>
new com
net work</w>
nephe w</w>
neighbor ing</w>
ne yland</w>
nation ality</w>
nao ko</w>
naga saki</w>
na k
na ive</w>
na ils</w>
motor bike</w>
mor ous</w>
moni shed</w>
mon o
mon e
mo z
mi cha
micha el</w>
me lo
me d
mar kets</w>
mar ine</w>
mar gin</w>
man sion</w>
ma dness</w>
m ou
m o</w>
lun gs</w>
lt d</w>
lectur er</w>
lar s</w>
la ze</w>
la b
l ting</w>
l thi
l lows</w>
l a</w>
ko ku</w>
kno b</w>
kenne dy</w>
keep er</w>
ju lie</w>
jor dan</w>
je wel</w>
j ong</w>
is ance</w>
investiga ted</w>
invest ing</w>
institu tion</w>
infor mal</w>
influ enced</w>
inde pen
in ti
in gre
ingre di
in capable</w>
in ca
inca s</w>
im polite</w>
idi ot</w>
i chi</w>
i ced</w>
i ce
hot test</w>
honey moon</w>
hon olulu</w>
home sick</w>
har u
hand les</w>
hand led</w>
hambur gers</w>
hambur ger</w>
h int</w>
h ei
gui dance</w>
gu lf</w>
gu ide
gree ce</w>
glo be</w>
gi ble</w>
gi ant</w>
gh tening</w>
gh ing</w>
g ings</w>
g i</w>
fuku oka</w>
fru gal</w>
fri ght</w>
fri ed</w>
free zing</w>
fre ight</w>
forge tful</w>
fore hand</w>
foot steps</w>
foolish ly</w>
fo lly</w>
flo at</w>
flexi ble</w>
fla vor</w>
fla sh</w>
fl ouri
finan ci
fin est</w>
fier ce</w>
fi lling</w>
fea ther</w>
expan ded</w>
ex ternal</w>
euro peans</w>
ess ence</w>
err and</w>
envi ous</w>
en dless</w>
en courage</w>
em per
eli zabeth</w>
electron ic</w>
ele gant</w>
el ed</w>
eager ly</w>
ea gle</w>
e x</w>
e volution</w>
e thi
e ternal</w>
e sses</w>
du tch</w>
du mped</w>
door bell</w>
distingui shed</w>
displea sed</w>
disc re
disap pointing</w>
dis neyland</w>
dig ital</w>
di ving</w>
depar ted</w>
den ying</w>
den se</w>
demonstra tion</w>
decrea sed</w>
deca yed</w>
dear ly</w>
de vi
dama ges</w>
da vid</w>
da mn</w>
d renched</w>
cur sed</w>
cultiv ate</w>
cu p
cti ves</w>
cru de</w>
corre ctly</w>
cor ruption</w>
coo ks</w>
contro ls</w>
contribu tion</w>
consu mes</w>
consider ably</w>
consequ ences</w>
compet ent</w>
comb ined</w>
comb ination</w>
colon ies</w>
colli ded</w>
clu m
clear ing</w>
cla y</w>
chor es</w>
cho ked</w>
chi lled</w>
cheer fully</w>
che ck
chan ced</w>
cha tting</w>
cha sed</w>
ch y</w>
ch ron
centi meters</w>
ce ll</w>
cau tion</w>
carpen ter</w>
canadi an</w>
camb ridge</w>
calcu late</w>
busin esses</w>
bree ds</w>
box ing</w>
box er</w>
bo ws</w>
bi cycles</w>
beha ves</w>
be forehand</w>
bar red</w>
ban king</w>
ba ld</w>
b ou
b iting</w>
b b</w>
aw fully</w>
au to</w>
atlan tic</w>
astoni shment</w>
assu me</w>
assign ments</w>
aspir in</w>
archite cture</w>
ar ts</w>
ar m
anticipa te</w>
anti que</w>
an a
amb i
am ple</w>
ali zation</w>
ali bi</w>
alco holic</w>
al ed</w>
ag ony</w>
ado le
additi onal</w>
ad ven
ad monished</w>
ad mit
acce ler
abun dance</w>
abu sed</w>
absor b</w>
ab or
ab laze</w>
a x
a v
9 0</w>
3 5</w>
2 2</w>
2 1st</w>
199 8</w>
19 39</w>
18 6
1 7
1 50</w>
Ｂ Ｃ</w>
０ １</w>
黒 字</w>
駆け 上が</w>
駅 前</w>
飛び 降り</w>
類 似</w>
顕 微</w>
青 森</w>
雨 天</w>
難 う</w>
隔 て</w>
陳 列</w>
陪 審</w>
除 外</w>
限 定</w>
闘 争</w>
間 隔</w>
鍛 え</w>
銃 声</w>
銀 座</w>
野 党</w>
酒 屋</w>
配 布</w>
遺 跡</w>
選 べ</w>
遠 回し</w>
週 刊</w>
連れ 出</w>
通 話</w>
通 じ</w>
迷 信</w>
返 り</w>
転 落</w>
走り 回</w>
赤 色</w>
買い 手</w>
貨 物</w>
説 き
語 彙</w>
語 り
証 書</w>
設 定</w>
設 け</w>
記 述</w>
触 り</w>
親 父</w>
見 込</w>
見 直</w>
襲 撃</w>
表 わ</w>
表 れ</w>
街 路</w>
行 政</w>
行 使</w>
薬 局</w>
蒸し 暑</w>
著 作</w>
落ち 着き</w>
落 第</w>
落 石</w>
苦 しめ</w>
芝 刈
芝刈 り</w>
良 家</w>
良 さ</w>
航 行</w>
舞い 上が</w>
致 命</w>
自 覚</w>
自 活</w>
自 尊</w>
自 制</w>
腕 組み</w>
腐 敗</w>
脱 線</w>
脱 獄</w>
脅 か</w>
背 負</w>
背 広</w>
締め 出</w>
総 計</w>
継 続</w>
継 ぎ</w>
統 制</w>
結 末</w>
純 粋</w>
策 略</w>
立ち 向か</w>
積 み</w>
種 族</w>
祖 先</w>
破 裂</w>
砕 け</w>
石 けん</w>
短 期</w>
着 用</w>
着 手</w>
眠 り込</w>
真っ 青</w>
真 っ</w>
相 性</w>
直 線</w>
直 径</w>
白 黒</w>
白 人</w>
療 養</w>
疑 惑</w>
異 存</w>
生き 返</w>
生 態</w>
王 国</w>
献 身</w>
物 資</w>
片 足</w>
燃え 上が</w>
熱 烈</w>
熟 考</w>
無 謀</w>
点 数</w>
災 難</w>
滅 ぼ</w>
温 め</w>
活 力</w>
洞 察</w>
決 議</w>
汚 職</w>
水 夫</w>
水 なし</w>
気 絶</w>
気 がかり</w>
歯 茎</w>
欲 求</w>
次 回</w>
欠 かせ</w>
権 限</w>
楽 観</w>
楽 団</w>
染 ま</w>
来 春</w>
村 中</w>
未 だ</w>
木 陰</w>
曲がり くね</w>
暗 殺</w>
早 朝</w>
方 言</w>
新 薬</w>
教 職</w>
教 わ</w>
救 済</w>
摩 擦</w>
握 り
描 写</w>
掛 かり</w>
捕 虜</w>
持ち 込</w>
折 り合</w>
投 手</w>
把 握</w>
打ち 合わせ</w>
手 順</w>
手 短</w>
手 持ち</w>
手 ごろ</w>
所 持</w>
懲 役</w>
憤 慨</w>
慈 悲</w>
感 染</w>
意 義</w>
意 向</w>
悪 名</w>
息 切れ</w>
恐れ 入</w>
恐 縮</w>
恐 竜</w>
思 慮</w>
怒 鳴</w>
循 環</w>
御 飯</w>
従 来</w>
待ち 合わせ</w>
役 員</w>
当 面</w>
張 り
弟 子</w>
引き 返</w>
引 け</w>
式 典</w>
弊 社</w>
幻 想</w>
年 度</w>
平 静</w>
常 食</w>
巧 み</w>
工 学</w>
山 脈</w>
山 登り</w>
屈 辱</w>
小 言</w>
導 入</w>
対 等</w>
対 立</w>
寝 過ご</w>
寝 そ
寝そ べ</w>
寝 かせ</w>
容 姿</w>
家 出</w>
家 々</w>
実 践</w>
定 時</w>
定 年</w>
守 れ</w>
学 費</w>
学 年</w>
孤 立</w>
字 引</w>
子 宮</w>
始 まり</w>
天 文学</w>
天 国</w>
大 望</w>
大 家</w>
外 務</w>
夕 焼け</w>
変 動</w>
売 上</w>
塗 り</w>
塗 り
基 金</w>
地 帯</w>
土 手</w>
固 体</w>
四 国</w>
嗅 ぎ
問 い</w>
和 解</w>
同 封</w>
同 伴</w>
吉 田</w>
合 理</w>
召 使い</w>
古 今</w>
口 出し</w>
受け 取り</w>
取り 合</w>
取り 入れ</w>
取り 付</w>
原 文</w>
募 金</w>
動 かせ</w>
創 設</w>
前 兆</w>
別 人</w>
別 々</w>
切り 開</w>
切 ら</w>
出 荷</w>
凍 結</w>
再 生</w>
全 盛</w>
先 立</w>
優 等</w>
偉 人</w>
何 語</w>
体 操</w>
住 まい</w>
伴 奏</w>
人 質</w>
人 手</w>
亭 主</w>
事 例</w>
乱 れ</w>
乗り 物</w>
乗り 切</w>
上 野</w>
上 回</w>
一 郎</w>
一 身</w>
一 語</w>
一 晩</w>
一 撃</w>
一 所</w>
一 同</w>
一 介</w>
ン トン</w>
ワー デス</w>
ロー ス</w>
ロ ード</w>
レ ージ</w>
ル ソン</w>
リー マン</w>
リ ダ</w>
ライ フル</w>
ラ ブ</w>
ヨ タ</w>
ュ ラー</w>
ュ ア
モ ール</w>
モ リ</w>
メロ ディー</w>
メ リー</w>
マー ケ
マーケ ティング</w>
マイ ナス</w>
マ スコ
マスコ ミ</w>
ポテ ト</w>
ポ ン
ポ ップス</w>
ポ チ</w>
ホーム シック</w>
ホ ラー</w>
ホ ッ
ペ ー
ペ パー</w>
ベ ビー</w>
ヘ ア</w>
プレ ー</w>
プレ イヤー</w>
プ ン</w>
プ テ
プテ スマ</w>
フロ リダ</w>
フラン ク</w>
フィ ー</w>
フ ルート</w>
フ ト</w>
ピ スト</w>
ビー フ</w>
ビ ュー</w>
ヒ ット</w>
パ クト</w>
バ プテスマ</w>
ハ ム</w>
ハ ッ
ニ ュア
ニ コ
トー マス</w>
トラン ク</w>
ディ スコ</w>
テー マ</w>
テー ション</w>
テ ロ
ツバ メ</w>
ッ キング</w>
チ ック</w>
ダー ウィン</w>
ダ ブル</w>
タク ロース</w>
タイ ピスト</w>
セ ール</w>
スモ ッグ</w>
スチュ ワーデス</w>
スタ ジ
ジュリ エット</w>
ジェ フ</w>
シ ーン</w>
サン タクロース</w>
サイ クリ
サイクリ ング</w>
ゴ ー
コ ツ</w>
ケ イ
ク ール</w>
ガ レージ</w>
ガ ム</w>
カ チ
オ リ
オ ゾン</w>
オ カ
エ レン</w>
エ キ
ウェ ア</w>
イチ ゴ</w>
イ ング</w>
イ ラ
アン ケート</w>
アラ ビア</w>
んざ ん</w>
ん こ</w>
わ い</w>
る が
り こ</w>
り かか</w>
よ けい</w>
ゆ りかご</w>
やり 直</w>
やっ かい</w>
もっ たい</w>
も れ</w>
めで た</w>
め き</w>
み じめ</w>
ま ぎ
ま ぁ</w>
へ と
へと へと</w>
ぷ ん</w>
ぶら つ</w>
び く
はら はら</w>
は ん</w>
は た</w>
の ろ</w>
の ぞ
の こ</w>
に ん
に ら
に ち</w>
な ー</w>
な り
つ り
たく まし</w>
た のし</w>
そう そう</w>
そ び
そ っち</w>
ず ら
ず め</w>
すら すら</w>
す れ
す っきり</w>
す き
じ まい</w>
し ら</w>
し の</w>
し かか</w>
ざ ら</w>
ささ や</w>
さ んざん</w>
さ っと</w>
さ すが</w>
この かた</w>
こ ま</w>
こ ちな</w>
くれ ぐれ</w>
く り
く に</w>
く しゃ
ぎ こちな</w>
ぎ く</w>
き 声</w>
き ま</w>
か み</w>
か み
おど ろ</w>
お や</w>
え え
いそ がし</w>
い か</w>
あた かも</w>
あさ って</w>
あ ざ</w>
あ き</w>
あ か
yoshi da</w>
yo ta</w>
yar ds</w>
ya wn</w>
y wood</w>
y alty</w>
y able</w>
wri st</w>
wrest ling</w>
wrest ler</w>
world wide</w>
world ly</w>
with draw</w>
win d
wi dth</w>
wi cked</w>
we ster
we ir
wal ker</w>
wa x</w>
vot es</w>
villa ges</w>
vi ru
ver sy</w>
ven ice</w>
v itam
vitam in</w>
v ents</w>
unemplo yed</w>
under go</w>
un willing</w>
un it</w>
un familiar</w>
u pri
u en
uen o</w>
ty ran
tw ink
tu b</w>
trun k</w>
triump h</w>
trea sures</w>
tre men
trans port</w>
tra des</w>
to yota</w>
thri lled</w>
thea tre</w>
the me</w>
tex as</w>
temper ed</w>
take shi</w>
ta pped</w>
ta me</w>
t an</w>
syste ms</w>
sy n
swi f
swe lled</w>
swal lows</w>
swal lowed</w>
sur plus</w>
supre me</w>
supervi sor</w>
superi ors</w>
super st
sup porters</w>
suf fers</w>
succee ding</w>
subscri be</w>
su l
stu ffed</w>
stro ke</w>
stri kes</w>
stran gely</w>
sto ck
ste war
ste w</w>
sta ke</w>
ss way</w>
spe cu
sp rings</w>
sou ven
solu tions</w>
snow y</w>
snapp ed</w>
smo g</w>
smi ths</w>
sma l
smal lest</w>
sli ce</w>
sin gers</w>
si zes</w>
si mul
sho w
shi koku</w>
she ets</w>
she er</w>
shame ful</w>
sha ving</w>
sha ttered</w>
sha llow</w>
sha ken</w>
sha bby</w>
seven th</w>
sen i
se me
seme ster</w>
se cu
scen ic</w>
san ta</w>
sale s
sa tions</w>
s wing</w>
s qui
s nor
s have</w>
s cold</w>
ru b</w>
rob bers</w>
ro d</w>
rif le</w>
respon ded</w>
refle ction</w>
recomm en
rea p</w>
re stored</w>
re sting</w>
re sented</w>
re sear
re present</w>
re pay</w>
ran ks</w>
ra ttled</w>
quick er</w>
pu rely</w>
prote cted</w>
proce du
procedu res</w>
pro pos
propos als</w>
pro found</w>
prin ting</w>
preven tion</w>
presi dential</w>
premi er</w>
preh end</w>
pre tends</w>
pre ferred</w>
pra y</w>
pr one</w>
pper berg</w>
post card</w>
posse ss</w>
pois onous</w>
po les</w>
pla tes</w>
pi led</w>
pi g</w>
pi er
physi cist</w>
person nel</w>
persist ent</w>
persi st</w>
peri sh</w>
peri al</w>
pe pperberg</w>
pati ently</w>
pa tted</w>
pa ssion
p ru
p ence</w>
p c</w>
p a</w>
over slept</w>
our ing</w>
origin ated</w>
ori da</w>
org an</w>
or al</w>
oppon ents</w>
offen sive</w>
occur s</w>
obje ctions</w>
oa k</w>
o zone</w>
o e</w>
nur sing</w>
nu mb
nu isance</w>
note books</w>
no dding</w>
no d</w>
ni e
na tured</w>
na te</w>
n ered</w>
n ea
nea tly</w>
mysteri es</w>
musc le</w>
mur dered</w>
mul ti
mu mmy</w>
mp ;</w>
mountain e
moun ted</w>
mor nings</w>
mone tary</w>
mon s</w>
mode ls</w>
mo di
mini mum</w>
min ority</w>
mi x
merchan dise</w>
mer oom</w>
melo dy</w>
mean ing
me try</w>
mbo o</w>
manufactur ing</w>
manufa cture</w>
mani fe
man aging</w>
ma x</w>
ma tely</w>
ma stered</w>
ma ssive</w>
ma sses</w>
ma h
mah jong</w>
lu ther</w>
lon gs</w>
lo vers</w>
liter ally</w>
lin ess</w>
lin er</w>
li sted</w>
li ly</w>
li c
le gi
ld ly</w>
law yers</w>
l ton</w>
l eng
l ends</w>
ki cking</w>
ke y
k ite</w>
k ened</w>
jur y</w>
juli et</w>
je ff</w>
jan et</w>
ita tions</w>
ir a</w>
investiga ting</w>
interrup ting</w>
inter viewed</w>
inter section</w>
inten sive</w>
inten ds</w>
intellectu al</w>
insu red</w>
instru ction</w>
inspe ction</w>
initi ative</w>
influ en
indul ge</w>
inde b
indeb ted</w>
in qui
in ner</w>
in ju
im pulse</w>
im pose</w>
im perial</w>
identi cal</w>
idea ls</w>
i ds</w>
hur rying</w>
hun ted</w>
hope less</w>
ho meroom</w>
ho les</w>
hin dered</w>
hi jac
hei ghts</w>
hea ding</w>
hand ful</w>
ha ts</w>
ha lt</w>
gro cer
grocer y</w>
gran ting</w>
gradu ates</w>
govern ments</w>
gover ned</w>
gor illa</w>
go l
go ds</w>
gin za</w>
gest ion</w>
gar lic</w>
g t
fro wned</w>
fri ction</w>
fre sh
fr o</w>
foun tain</w>
flu te</w>
fl orida</w>
fire man</w>
financi ally</w>
fin ger
fi xing</w>
fer ry</w>
fe tched</w>
fanta sy</w>
f lung</w>
f ing</w>
f fy</w>
f east</w>
extra vag
expre ssway</w>
expre ssing</w>
expe cts</w>
exce ed</w>
est ee
es cap
ero bi
erobi cs</w>
er u
er ran
encyclope dia</w>
en dur
emper or</w>
egy pt</w>
eco logy</w>
e ved</w>
e pi
e m</w>
e llen</w>
e e</w>
e do</w>
e a</w>
dwe lt</w>
dra gged</w>
don na</w>
dit ch</w>
distribu tion</w>
disp layed</w>
disci ples</w>
disc o</w>
disadvan tage</w>
dis satisfied</w>
dis pose</w>
dis liked</w>
din osa
di vision</w>
di ved</w>
di oxide</w>
di ag
devo te</w>
devo id</w>
destro y</w>
dest iny</w>
defin itely</w>
dea ler</w>
de ss</w>
de fine</w>
dar win</w>
da ting</w>
da ddy</w>
d ities</w>
curr ently</w>
cup board</w>
cru shed</w>
criti cs</w>
cred ited</w>
cra wling</w>
cour ses</w>
cou ghing</w>
cor e</w>
cop ying</w>
conven tion</w>
contro versy</w>
consu mers</w>
conce pt</w>
con spi
con so
con do
compos er</w>
communi sm</w>
commo dity</w>
commo dities</w>
comfor tably</w>
comb ine</w>
col dest</w>
clum sy</w>
clu e</w>
clo wn</w>
clo sest</w>
clar i
cla us</w>
chi lly</w>
cheri shes</w>
characteri stics</w>
char les</w>
cha se</w>
ch man</w>
certifi cate</w>
cen tered</w>
catalo gue</w>
camer as</w>
ca pped</w>
c rou
bu rea
bu ll</w>
bu ll
bu g</w>
bu d</w>
bron ze</w>
bro w</w>
brief case</w>
bri ghtest</w>
bri bery</w>
brea dth</w>
bre eding</w>
borro wing</w>
book shelf</w>
boar ds</w>
bo thered</w>
bo som</w>
bo ils</w>
ble ed</w>
blan kets</w>
bit es</w>
bio graphy</w>
be sto
be ar
bar ked</w>
ban quet</w>
back ward</w>
ba mboo</w>
b bing</w>
auto matically</w>
auto graph</w>
attor ney</w>
atten dant</w>
assi sted</w>
asi an</w>
arti stic</w>
argu ments</w>
ar abi
appla uded</w>
apologi es</w>
ap y</w>
ap prehen
ao mori</w>
announ cer</w>
anno ying</w>
ang ed</w>
ambi gu
am p
am i</w>
alterna tives</w>
alterna te</w>
allo tted</w>
al a</w>
ag itated</w>
after wards</w>
af firmed</w>
adver sity</w>
ad ding</w>
acquain tan
acquain t</w>
accusto m</w>
accu racy</w>
accoun ted</w>
abo lish</w>
ab stain</w>
ab rupt</w>
ab ack</w>
a warded</w>
a erobics</w>
4 00</w>
2 ,000</w>
198 0</w>
197 0</w>
19 th</w>
19 50</w>
10 th</w>
10 000</w>
1 5
1 20</w>
0 th</w>
. 5</w>
. .</w>
&a mp;</w>
ｉ ｌ</w>
Ｏ Ｋ</w>
Ａ ＢＣ</w>
２ ８</w>
１ ２３</w>
鼻 水</w>
魚 つり</w>
魔 女</w>
高 熱</w>
高 慢</w>
驚 嘆</w>
駆 け</w>
馳 走</w>
風 船</w>
風 俗</w>
願い 事</w>
顔 立ち</w>
領 土</w>
非 凡</w>
震 い</w>
零 下</w>
集 計</w>
隊 長</w>
険 し</w>
陸 地</w>
限 度</w>
開 業</w>
閉 ざ</w>
長 男</w>
長 持ち</w>
録 音</w>
鉱 物</w>
野 蛮</w>
野 望</w>
重 量</w>
部 族</w>
選 び
運 行</w>
進 路</w>
進 展</w>
連 休</w>
速 達</w>
通り かか</w>
通 例</w>
逃げ 去</w>
送 り出</w>
追い 込</w>
辞 表</w>
軍 事</w>
身 震い</w>
身 元</w>
足 し</w>
起 き上が</w>
赤 々</w>
質 素</w>
賜 物</w>
貸 し
買 物</w>
買 収</w>
貯 え</w>
貫 通</w>
豊 作</w>
議 題</w>
議 案</w>
謙 虚</w>
論 点</w>
証 人</w>
記 載</w>
言 い</w>
解 消</w>
解 き
親 類</w>
視 点</w>
規 定</w>
見せ かけ</w>
西 欧</w>
裏 庭</w>
裏 口</w>
装 飾</w>
装 備</w>
衣 食</w>
著 し</w>
落ち 葉</w>
荒 ら</w>
英 文</w>
英 作文</w>
花 壇</w>
良 識</w>
良 書</w>
膨 ら</w>
脅 迫</w>
脂 肪</w>
背 筋</w>
肝 心</w>
肉 眼</w>
羊 毛</w>
罪 人</w>
繰 り
繁 殖</w>
縫い 物</w>
緩 和</w>
絶 頂</w>
統 治</w>
給 与</w>
終 始</w>
細 菌</w>
細 胞</w>
素 質</w>
粗 野</w>
篠 山</w>
箇 所</w>
筆 者</w>
競 走</w>
立ち あが</w>
立 証</w>
窓 口</w>
窓 側</w>
突 破</w>
私 立</w>
研 修</w>
着 せ</w>
真っ 暗</w>
直 子</w>
盛 大</w>
発 育</w>
病 状</w>
異 論</w>
田 園</w>
生き がい</w>
琵 琶</w>
現 われ</w>
独 創</w>
物 思い</w>
熱 狂</w>
照 り</w>
焦 がれ</w>
無 限</w>
無 茶</w>
潰 し</w>
潜 在</w>
満 席</w>
減 税</w>
消 滅</w>
消 極</w>
海 洋</w>
海 抜</w>
浮 気</w>
流 し</w>
洞 窟</w>
決 め
江 戸</w>
氾 濫</w>
気 質</w>
民 間</w>
氏 名</w>
母 国</w>
殺 害</w>
歩 み
歩 き</w>
正 午前</w>
欠 勤</w>
橋 本</w>
楽 器</w>
楽 々</w>
染 み</w>
東 北</w>
未 満</w>
未 払い</w>
木 製</w>
木 材</w>
朝 飯</w>
有 り</w>
最 適</w>
最 小</w>
書き 上げ</w>
更 新</w>
曲がり 角</w>
暴 露</w>
明 瞭</w>
明 治</w>
日 時</w>
新 作</w>
敵 対</w>
散 会</w>
敗 れ</w>
救 出</w>
政 権</w>
改 めて</w>
擦 り
撃 ち
摂 氏</w>
損 ね</w>
探 索</w>
採 点</w>
捕 り</w>
指 差</w>
拳 銃</w>
押し 込</w>
押し 流</w>
抜 群</w>
技 能</w>
打ち 負か</w>
手 話</w>
手 触り</w>
手 洗い</w>
手 帳</w>
戦 術</w>
懸 念</w>
懇 願</w>
憧 れ</w>
愛 し合</w>
悲 嘆</w>
恩 人</w>
忠 誠</w>
応 用</w>
志 望</w>
忍び 込</w>
心 待ち</w>
心 がけ</w>
復 活</w>
得 点</w>
後 部</w>
待ち 焦がれ</w>
待 ちこ
待ちこ がれ</w>
彼 氏</w>
役 職</w>
形 容</w>
強 烈</w>
引き つけ</w>
引 力</w>
建 て
平 凡</w>
平 らげ</w>
干 ばつ</w>
帯 び</w>
差し 込</w>
差し 伸
差し伸 べ</w>
巡 り</w>
崇 高</w>
山 々</w>
屋 上</w>
小 遣い</w>
小 学</w>
小 声</w>
専 用</w>
対 戦</w>
家 内</w>
室 内</w>
好 天</w>
奨 励</w>
失 明</w>
天 皇</w>
大 通り</w>
大 将</w>
大 して</w>
大 げさ</w>
夜 空</w>
売 れ
壊 滅</w>
国 籍</w>
国 外</w>
回 路</w>
回 想</w>
喜 劇</w>
呼び 戻</w>
君 主</w>
同 行</w>
同 感</w>
同 い
同い 年</w>
合 法</w>
合 わ</w>
叩 き
古 本</w>
口 語</w>
口 ぶり</w>
受け 持</w>
受 信</w>
取り 決め</w>
取り 掛か</w>
取り 扱い</w>
収 賄</w>
反 逆</w>
反 省</w>
厚 かまし</w>
協 議</w>
化 石</w>
化 け</w>
包 装</w>
動 け</w>
労 力</w>
劇 作</w>
割 り</w>
制 御</w>
到 来</w>
切り 取</w>
切り つめ</w>
分 裂</w>
分 割</w>
再 度</w>
公 表</w>
公 演</w>
全 額</w>
全 般</w>
入 念</w>
児 童</w>
免 税</w>
先 端</w>
先 祖</w>
先 ず</w>
充 実</w>
優 勢</w>
偽 善</w>
倫 理</w>
侵 害</w>
使 命</w>
作 者</w>
余 儀</w>
伝 記</w>
休 養</w>
代 用</w>
他 社</w>
仕 立て</w>
人 材</w>
人 事</w>
二 、
二、 三</w>
乗 船</w>
中 絶</w>
不 法</w>
不 振</w>
上 陸</w>
上 院</w>
万 が
一 服</w>
レン タイン</w>
レン タ
レンタ カー</w>
レン ガ</w>
ルー サー</w>
ル ランド</w>
ル ト
ル ター</w>
リラ ックス</w>
リ ード</w>
リ チャ
リ スク</w>
リ サ</w>
ラ ム</w>
ラ シ</w>
ユ リ</w>
ユ ダ
ユダ ヤ</w>
モ ーター</w>
ミニ スカート</w>
ミ シ
マ ット</w>
マ ク
マ イ</w>
ポー ター</w>
ボー ナス</w>
ペー パー</w>
ペ ース</w>
ペ ンス</w>
ベートー ベン</w>
ベ ート</w>
ヘ ッ
プ ティ</w>
ブ リ</w>
フィ ン</w>
フ ライト</w>
フ ライ
ビニ ール</w>
ヒ ーター</w>
ヒ ルトン</w>
パ ブ</w>
バッ テリー</w>
バ ン
バ レンタイン</w>
バ リ
ハン マー</w>
ハ ラ</w>
ト ヨタ</w>
テキ サス</w>
ティ ー
テ ン
テ イト</w>
ツ マン</w>
チャ ールズ</w>
チャ ン</w>
チ ュー</w>
チ ア</w>
ダイ ビング</w>
ダ ウン</w>
ダ ウン
ソー セ
ソーセ ージ</w>
セ メント</w>
スポー ツマン</w>
スト ア</w>
スコ ア</w>
ス ロー</w>
ジョー ダン</w>
ショ ップ</w>
ショ ウ</w>
シャ ン
シャ トル</w>
シ リ
シ ップ</w>
サー フィン</w>
サラ リーマン</w>
サ ボ</w>
ゴ キ
ゴキ ブリ</w>
コー ナー</w>
コ コ
ケー ブル</w>
ク イ
ギリ シア</w>
キ ュー</w>
ガ ル</w>
ガ タ
ガ ク
カ 月</w>
カ レン</w>
オー プン</w>
オカ ミ</w>
オ オカミ</w>
エイ ミー</w>
エ ミ</w>
エ ク
ウエ ア</w>
ウェイ トレス</w>
ウェイ ター</w>
ウイ ンド
ウィ ーン</w>
ウィ ンド
ウ チ</w>
イン タ
アプ ローチ</w>
アク セス</w>
アイ ルランド</w>
アイ ドル</w>
ん じ</w>
わ が家</w>
れ 込</w>
り ぎり</w>
よ 風</w>
よ み
よみ がえ</w>
やり とげ</w>
や ま</w>
もの ごと</w>
もて な</w>
め んどり</w>
め らか</w>
め ざ</w>
み ごと</w>
ま る</w>
ま め</w>
ま た
ま き</w>
ぼ り</w>
ぼ み</w>
ほど 遠</w>
ほ と
ふ り
ひっ かか</w>
ひそ め</w>
ひ っきり</w>
ば い</w>
は たら</w>
は げ</w>
は け</w>
は かど</w>
のん き</w>
の め</w>
の まま</w>
の ば</w>
の ど
な めらか</w>
な つ
な だめ</w>
な ぞ
なぞ なぞ</w>
とっ く</w>
と し</w>
と が</w>
て ん</w>
て ら
つき 合</w>
つ ぼみ</w>
つ ぼ</w>
つ ば
っ ぴ
っ しり</w>
ち なみ</w>
ち か
だ し</w>
たび れ</w>
ぞ く</w>
そ よ風</w>
そ っ</w>
ず く</w>
じょう ぶ</w>
じ ん</w>
しゃ れ</w>
し ん
し ぶ</w>
し かけ</w>
さ ば</w>
さ ぁ</w>
こっ けい</w>
こ ろ
ぐ ち</w>
くつろ ぎ</w>
く ま</w>
く ぎ</w>
ぎ 話</w>
ぎ りぎり</w>
き ょ
き びし</w>
き の</w>
き っ
き た</w>
が み</w>
かき 混ぜ</w>
か か
おも え</w>
おと ぎ話</w>
お わ</w>
お そ</w>
お さえ</w>
え 付け</w>
え ら</w>
うろ たえ</w>
うら や</w>
う つ
う かつ</w>
いち いち</w>
い っ</w>
あり のまま</w>
あ て
あ たえ</w>
zea l</w>
yu ki</w>
xi mum</w>
wron gly</w>
woo d
won ders</w>
wo llen</w>
witne ssed</w>
wild ered</w>
wide spread</w>
wi res</w>
whisp er</w>
whi p</w>
weir d</w>
wee ping</w>
wan dering</w>
wa king</w>
viol ently</w>
vigor ous</w>
vi g
vi a</w>
ver tical</w>
ver sion</w>
ven tured</w>
val en
valen tine</w>
va li
v ul
ur red</w>
ur in
ur ge</w>
up ward</w>
unti dy</w>
un rest</w>
un married</w>
un kind</w>
un its</w>
un friendly</w>
un aware</w>
ump ire</w>
ulti mately</w>
tt le
tru sts</w>
tru cks</w>
tro l</w>
tri ps</w>
tri pped</w>
tri bes</w>
tra itor</w>
tra cks</w>
to ll</w>
to il</w>
to hok
tohok u</w>
ti res</w>
ti ming</w>
thro po
threa tening</w>
thre es</w>
thin ner</w>
tha il
thail and</w>
terror ism</w>
terri fic</w>
ter ing</w>
table ts</w>
ta r</w>
t t</w>
swif tly</w>
sur ve
sur fing</w>
suggest ions</w>
succee ds</w>
sub stan
stri pped</w>
streng th
stir red</w>
sti cky</w>
stewar dess</w>
sta tions</w>
st rings</w>
ssi l</w>
squee zed</w>
squ irre
spi lt</w>
spe ctive</w>
space ship</w>
spa de</w>
sp reading</w>
sp inning</w>
sp in</w>
sp hin
sphin x</w>
sol o</w>
so w</w>
sn ack</w>
sla pped</w>
ske tch</w>
sing led</w>
sign als</w>
sho wers</w>
sho ppers</w>
shi zu
shi pment</w>
shi moto</w>
sh ru
sen sation</w>
sele ct</w>
sea son
se tte</w>
se cake</w>
scar y</w>
sc ends</w>
satell ites</w>
sa yama</w>
sa ss
sa sayama</w>
sa ils</w>
sa i</w>
sa dly</w>
sa cri
sacri fi
s wollen</w>
s ni
s ked</w>
s ends</w>
s cul
scul p
ru m
rob in
robin son</w>
ro man</w>
ro ller</w>
ro ared</w>
rin k</w>
rich ard</w>
ri cu
revo lt</w>
reti res</w>
resu me</w>
restri cted</w>
respe ctful</w>
repea tedly</w>
reme mbers</w>
remar ked</w>
reluct antly</w>
regi stration</w>
refu ses</w>
redu cing</w>
recommen dation</w>
re warded</w>
re publi
re jo
re ig
re forms</w>
re ci
radi o
ra tive</w>
ra ft</w>
r ents</w>
quit ting</w>
question na
questi oned</w>
quarre ls</w>
pursu ing</w>
pursu ed</w>
pur sue</w>
pronoun ced</w>
promp t</w>
progre ssive</w>
proce ed</w>
pro verbs</w>
pro ven</w>
pro phe
pro f
pri cked</w>
prescri ption</w>
pre tending</w>
pre served</w>
pre mature</w>
pow der</w>
post pon
postpon e</w>
poor ly</w>
po lar</w>
plun ged</w>
plea sing</w>
pi res</w>
philoso p
philosop her</w>
pet ition</w>
pessi mi
per ce
peop les</w>
patter ns</w>
patri o
par rot</w>
pan da</w>
pac king</w>
pa use</w>
pa t
pa r</w>
p ours</w>
p m</w>
p iti
p ine</w>
p ap
over night</w>
over head</w>
ori um</w>
off ence</w>
occasi onally</w>
obstru cted</w>
ob ste
nu mb</w>
no .</w>
nin th</w>
nie ce</w>
new ton</w>
neutra l</w>
neck tie</w>
ne sts</w>
napp ing</w>
nap kin</w>
n d</w>
mun e</w>
moz art</w>
moni a</w>
mon days</w>
mobi le</w>
mo tives</w>
mo tiv
mo ments</w>
mo ck</w>
mm ers</w>
mid st</w>
micro scope</w>
mi ssi
mi ll</w>
mer it</w>
men ding</w>
mel ons</w>
me lan
me i
mei ji</w>
mb s</w>
mb o</w>
masa o</w>
man s</w>
man ages</w>
maj ors</w>
ma ximum</w>
ma donna</w>
m pl
m ity</w>
m ang
lu m</w>
lthi er</w>
loun ge</w>
lo ans</w>
lingui stic</w>
lin ks</w>
lim its</w>
li lies</w>
li ghtly</w>
less ness</w>
lar ed</w>
land lord</w>
lan e</w>
lab our</w>
la bel</w>
l y
ku mi</w>
kor ea</w>
ko ala</w>
ka wa</w>
ka thy</w>
k ins</w>
k ings</w>
k aren</w>
jun ction</w>
john ny</w>
jo ins</w>
jac ent</w>
j ar</w>
itali zed</w>
it ted</w>
issu ed</w>
is le</w>
is en</w>
ir responsible</w>
invest ments</w>
invest ed</w>
invad ers</w>
inv aded</w>
interpre tation</w>
inter fered</w>
insu lts</w>
instru ments</w>
inst alled</w>
inher ited</w>
ingredi ents</w>
influen za</w>
infe ction</w>
indul ged</w>
indepen dence</w>
in visible</w>
in va
in fla
in cu
in correct</w>
in cen
imper ative</w>
im ura</w>
im mune</w>
illu stration</w>
illu stra
illu sion</w>
i a</w>
hun t</w>
hu m
house wives</w>
hor ns</w>
honest ly</w>
ho stages</w>
hin d
hi lton</w>
hi de
hi bit</w>
hesit ation</w>
hesit ated</w>
hear ted</w>
har dest</w>
handi capped</w>
hand shake</w>
ha tched</w>
ha st
ha shimoto</w>
h its</w>
h are</w>
guide book</w>
gu ed</w>
gt ;</w>
gro aned</w>
grand parents</w>
grand pa</w>
gradu ating</w>
gra ded</w>
gra bbed</w>
gr ind</w>
gol fer</w>
go at</w>
gi ous</w>
garden s</w>
ga ta</w>
ga ses</w>
g ross</w>
g ments</w>
g ear</w>
g ance</w>
g a</w>
furi ous</w>
fri ghtening</w>
free zes</w>
four teen</w>
fo ssil</w>
fo lk</w>
flu shed</w>
fla ttery</w>
fla tters</w>
fire men</w>
fig ured</w>
fi les</w>
fe eds</w>
fe eding</w>
fashi on
fanta stic</w>
fail ing</w>
f ting</w>
f on
extin gui
extin ct</w>
exi sted</w>
exce ls</w>
ex claimed</w>
even ings</w>
et te</w>
et c</w>
envi ed</w>
enter tain
eng ro
ener gies</w>
en coun
emp tied</w>
eli minate</w>
eleph ants</w>
electri cal</w>
el dest</w>
el bows</w>
eigh th</w>
effe ctively</w>
ea ster</w>
dru m</w>
drea ming</w>
dre sser</w>
dol ph
do ve</w>
dit orium</w>
dispu ted</w>
disappear ing</w>
dis solved</w>
dis cover
diplo ma
di ve</w>
di stances</w>
di gest</w>
develo ps</w>
develo p
dete cted</w>
deser ted</w>
deri ves</w>
depen ded</w>
den tly</w>
deli ghtful</w>
defin ed</w>
decrea se</w>
de w</w>
de fect</w>
de ck</w>
day time</w>
da ve</w>
da m
d ging</w>
cur ricu
cul tivated</w>
cro ws</w>
cro ss
critici sms</w>
crea ting</w>
cran es</w>
cr at</w>
coura geous</w>
coun ten
cooper ate</w>
continu ous</w>
conta ined</w>
conne cts</w>
conclu sions</w>
conci se</w>
con y</w>
con tem
con tain</w>
compensa te</w>
comp act</w>
come dy</w>
com mission</w>
color ful</w>
coinci dence</w>
cock roa
co w
clu es</w>
christi an
christian ity</w>
chi ps</w>
chee secake</w>
ch o</w>
ch ment</w>
ch ers</w>
cen tu
cas sette</w>
car p</w>
can did</w>
calcu lator</w>
c row</w>
c key</w>
bur sting</w>
buddhi sm</w>
bu f
bu ck</w>
bro ch
bri cks</w>
bri bes</w>
bre ed</w>
bran dy</w>
boar ded</w>
blon de</w>
blo tted</w>
blan ks</w>
bla ze</w>
bla ming</w>
bi wa</w>
ber ea
belon gings</w>
belon ged</w>
bea sts</w>
bea m</w>
be wildered</w>
be lls</w>
be ll
banan as</w>
bal cony</w>
bal an
bab y
ba the</w>
b id</w>
b ble</w>
avoi ds</w>
auto matic</w>
au ditorium</w>
attribu tes</w>
attemp ts</w>
ascri bed</w>
asa hi</w>
as sed</w>
as sau
as sass
arro gant</w>
arro gance</w>
ar isen</w>
approa ches</w>
ap plying</w>
anima ted</w>
an thropo
an ch
amu se</w>
amaz ement</w>
allow ances</w>
al lu
ak ira</w>
air craft</w>
after ward</w>
adven tures</w>
advan ces</w>
adole sc
admini stration</w>
adjour ned</w>
ad jacent</w>
acquaintan ces</w>
achie vements</w>
accoun table</w>
abo lished</w>
ab normal</w>
ab hor
a ward</w>
a ts</w>
a spects</w>
a my</w>
a ld</w>
a isle</w>
2 nd</w>
19 60</w>
1 ,
& gt;</w>
ｍ ａ
ｍａ ｉｌ</w>
ｅ ―
ｅ― ｍａｉｌ</w>
ａ ｎ
Ｕ Ｓ
Ｏ Ｓ</w>
９ ５</w>
７ ５</w>
３ ３</w>
３ ２</w>
２ ６</w>
２ 千</w>
１９ ４５</w>
１ ６０</w>
１ ４
黒 雲</w>
鶏 肉</w>
鳥 かご</w>
骨 折り</w>
騒 々し</w>
香 水</w>
養 子</w>
飾 り</w>
飼 育</w>
飲み 干</w>
飲 ま</w>
飛び かか</w>
飛 び</w>
風 雨</w>
願 書</w>
領 収</w>
頂 天</w>
面 白
静 岡</w>
静 ま</w>
静 ま
集 合</w>
隣 国</w>
障 壁</w>
陰 口</w>
阻 止</w>
関 与</w>
間 中</w>
開 き</w>
鑑 賞</w>
重 税</w>
重 み</w>
酔っ 払い</w>
酒 類</w>
部 隊</w>
部 活</w>
邸 宅</w>
邪 悪</w>
選び 出</w>
遣 わ</w>
遠 し</w>
道 のり</w>
遊 び
逆 境</w>
追い 出</w>
追い つめ</w>
近 づき</w>
近 々</w>
辞 退</w>
輝 き</w>
転 覆</w>
軍 人</w>
足 首</w>
足 音</w>
赤 面</w>
賠 償</w>
識 別</w>
講 師</w>
論 評</w>
読み 書き</w>
説き 伏せ</w>
誠 意</w>
記 号</w>
言い 争い</w>
言 行</w>
親 子</w>
視 界</w>
見積 もり</w>
見 習</w>
見 積</w>
見 破</w>
見 とれ</w>
見 え
補 給</w>
裏 切り</w>
行き 詰ま</w>
行 間</w>
行 列</w>
行 な</w>
著 書</w>
葉 書</w>
荷 造り</w>
草 原</w>
茂 み</w>
花 束</w>
臨 時</w>
膨 大</w>
腹 痛</w>
腰 掛け</w>
脅 し</w>
肺 炎</w>
肺 ガン</w>
聞 け</w>
考 察</w>
翌 年</w>
義 理</w>
美 的</w>
繊 維</w>
繁 華</w>
総 額</w>
総 会</w>
絶 好</w>
組み 合</w>
終 止</w>
紀 子</w>
紀 元</w>
突き 止め</w>
空き 家</w>
税 制</w>
移 転</w>
移 植</w>
秘 訣</w>
神 田</w>
祖 父母</w>
磁 力</w>
確 固</w>
破 片</w>
破 棄</w>
破 れ</w>
石 鹸</w>
矯 正</w>
知 力</w>
看 病</w>
省 略</w>
省 け</w>
相 場</w>
目 上</w>
目 つき</w>
白 鳥</w>
白 髪</w>
発 散</w>
療 法</w>
痛 感</w>
病 弱</w>
疫 病</w>
疑 念</w>
画 面</w>
用 件</w>
生まれ 育</w>
生け 花</w>
生け 捕り</w>
生 来</w>
甘 え</w>
理 髪</w>
理 科</w>
現 像</w>
王 室</w>
猟 師</w>
独 り
特 性</w>
煮 え
無駄 遣い</w>
点 検</w>
灰 皿</w>
灯 り</w>
澄 ま</w>
漱 石</w>
漁 夫</w>
滑り 降り</w>
滑 らか</w>
滅 び</w>
満 タン</w>
満 ち
深 み</w>
淡 水</w>
淑 女</w>
消 沈</w>
消 し</w>
海 軍</w>
浮 き
流れ 出</w>
流 動</w>
津 波</w>
洗 い
治 ま</w>
沈 没</w>
氷 山</w>
水 質</w>
気 配</w>
気 球</w>
気 晴らし</w>
残 忍</w>
歩 行</w>
正 々</w>
楽 勝</w>
極 め</w>
植 木</w>
根 気</w>
校 則</w>
本 心</w>
未 熟</w>
未 亡
未亡 人</w>
木 村</w>
有 頂天</w>
有 給</w>
書き 直</w>
書き 取</w>
暴 君</w>
暖 ま</w>
晴 雨</w>
晩 年</w>
時 差</w>
昼 夜</w>
昭 和</w>
旺 盛</w>
旦 那</w>
日 陰</w>
日 照り</w>
日 増し</w>
日 なた</w>
旅 館</w>
新 品</w>
整 備</w>
教 え込</w>
救 援</w>
放 火</w>
携 わ</w>
損 傷</w>
換 算</w>
揚 げ</w>
揚 げ
接 種</w>
探し 出</w>
掛 け
据 え</w>
指 紋</w>
持ち 帰り</w>
拍 子</w>
押し 分け</w>
押し のけ</w>
折 り返</w>
投 稿</w>
投 獄</w>
打 て</w>
手 首</w>
戻 れ</w>
戻 せ</w>
戦 略</w>
戦 場</w>
懸 け</w>
懐 中</w>
愛 読</w>
愛 好</w>
想 定</w>
情 け</w>
悲 惨</w>
悪 臭</w>
悪 態</w>
悪 夢</w>
忘 れ
必 須</w>
心 身</w>
従 え</w>
後 援</w>
後 ろ
待ち 遠し</w>
待 合</w>
当 て
強 め</w>
強 み</w>
弱 ま</w>
引き 渡</w>
引き 分け</w>
延 々</w>
幾 何</w>
年 配</w>
年 輩</w>
年 収</w>
平 野</w>
平 方</w>
幅 広</w>
左 足</w>
居 酒屋</w>
局 面</w>
就 任</w>
尋 問</w>
将 棋</w>
専 心</w>
審 査</w>
容 貌</w>
家 畜</w>
実 演</w>
宝 くじ</w>
威 厳</w>
好 評</w>
奮 闘</w>
奇 麗</w>
奇 数</w>
失 恋</w>
太 鼓</w>
天 体</w>
大 英</w>
大 笑い</w>
大 当たり</w>
夜 間</w>
夕 日</w>
変 革</w>
売れ 行き</w>
売 り物</w>
増 進</w>
塩 辛</w>
堤 防</w>
堕 落</w>
埋 葬</w>
地 中</w>
国 旗</w>
噴 火</w>
噛み 付</w>
嘲 笑</w>
嘘 つき</w>
嘆 き
嘆き 悲し</w>
善 行</w>
善 意</w>
和 平</w>
味 噌</w>
呆 れ</w>
吹き 消</w>
吹き かけ</w>
吸い 込</w>
君 臨</w>
同 一
同一 視</w>
叫 び</w>
口 先</w>
取り 残</w>
取り 囲</w>
反 論</w>
原 料</w>
原 住民</w>
即 死</w>
危 篤</w>
占 領</w>
南 向き</w>
区 域</w>
勿 論</w>
功 績</w>
副 詞</w>
利 子</w>
利 き</w>
切り 離</w>
分 担</w>
分 け合</w>
出来 上が</w>
出 社</w>
処 刑</w>
冷 房</w>
内 科</w>
兵 隊</w>
兵 庫</w>
公 務</w>
償 い</w>
備 え付け</w>
値 上がり</w>
倉 庫</w>
信 濃</w>
信 条</w>
例 文</w>
例 年</w>
作 り出</w>
作 り上げ</w>
作 り
何 時</w>
体 格</w>
似 合い</w>
会 費</w>
仕 組み</w>
介 入</w>
人 里</w>
人 影</w>
乗 車</w>
主 食</w>
主 任</w>
中 立</w>
両 立</w>
両 側</w>
不 滅</w>
不 服</w>
不 断</w>
下 車</w>
下 落</w>
下 品</w>
下 がり</w>
上 級</w>
上 座</w>
万が 一</w>
万 物</w>
一 睡</w>
一 段</w>
一 息</w>
ート ン</w>
ー っ</w>
ヵ 月</w>
ヴ ェ
ロー スト</w>
ロマン チック</w>
ロ ビー</w>
ロ ジー</w>
レ ント</w>
レ イ
リチャ ード</w>
リ ート</w>
リ ント</w>
リ オ</w>
リ アン</w>
リ アム</w>
ライ ス</w>
ライ オ
ライオ ンズ</w>
モ ダン</w>
メイ ド</w>
メ ディア</w>
メ イ</w>
ミュージ ック</w>
ミュージ シャン</w>
ミ ラー</w>
ミ ツバ
ミツバ チ</w>
ミ ット</w>
マーガ リン</w>
マー テ
マーテ イン</w>
マ リア</w>
マ ドン
マドン ナ</w>
ボー イング</w>
ホーム レス</w>
ペ ルー</w>
ペ リー</w>
ベ ー
ベ ン
ベ ランダ</w>
ベ ニス</w>
ベ イ</w>
プライ バ
プライバ シー</w>
プライ ド</w>
ブル クロス</w>
ブラン デー</w>
ブ ログ</w>
ブ ロ
ブ リッジ</w>
ブ ッシュ</w>
フロ ント</w>
フィン クス</w>
フ ード</w>
フ ェ</w>
ピ リ
ピ ッ
ビ ッド</w>
ビ ッグ</w>
ヒー ロー</w>
ヒ リ</w>
パー マ</w>
パ ト
パ ターン</w>
バー ス
バッ ハ</w>
バッ ター</w>
バ レー</w>
バ リ</w>
ハリ ウッド</w>
ハ ード</w>
ハ ウス</w>
ノ ロジー</w>
ノ ウ
ネ ーム</w>
ネ ーション</w>
ニン ジン</w>
ニ ーズ</w>
ニ クス</w>
ド レ
ド ナ
トマ ス</w>
ト ル
ディ ール</w>
ディ ング</w>
デ ン
デ ッキ</w>
デ ジ
デジ タル</w>
テー ブルクロス</w>
テロ リスト</w>
テク ノロジー</w>
テ ル
テ イ
ッ シー</w>
ッ サ
タ レント</w>
ソフト ウエア</w>
ソ 連</w>
セル ビア</w>
セ ラー</w>
セ ックス</w>
スプ レス</w>
スト リート</w>
スト リア</w>
ステ リー</w>
ス フィンクス</w>
ジュ ニア</w>
ジュ ディー</w>
ジェーム ズ</w>
ジェ イ
ジ ニア</w>
ショ ート</w>
シャ ー
シ ューズ</w>
シ モン</w>
シ ッター</w>
シ チュー</w>
ザ ラシ</w>
サン グラス</w>
コン トロール</w>
コ ニー</w>
ケネ ディ</w>
ケイ コ</w>
ケ ー</w>
ケ ガ</w>
グ レイ</w>
クー ラー</w>
クリ ン</w>
ク ロー
ク ミ</w>
ギャ ング</w>
キー ボード</w>
ガタ ガタ</w>
ガ ン
カ フェ
カ トリック</w>
カ シ</w>
オー ストリア</w>
ウイ ルス</w>
ウィ ルソン</w>
インタ ビュー</w>
イル カ</w>
イスラ ム</w>
アシ スタント</w>
アキ ラ</w>
ア ザラシ</w>
わん ぱ
わんぱ く</w>
わず ら</w>
わ そ
わそ わ</w>
るが わる</w>
り 合わせ</w>
り つ</w>
ら われ</w>
よ ー</w>
よ 〜</w>
ゆ ず</w>
や わ
もと もと</w>
も ろ
め れ</w>
め ちゃ
め ざ
む り</w>
む し</w>
む し
む かし</w>
み かけ</w>
まぎ れ</w>
ま ゆ</w>
ま ご
ほと ほ
ほとほ と</w>
べ つ</w>
へ い</w>
ぷ ん
ぷ ら</w>
ぶ し</w>
ふ ろ</w>
ふ た
ふ き
ひと こと</w>
ひ ろ</w>
ひ な
はじ ま</w>
はじ き</w>
は は
のぞ き
の ち</w>
ぬ か
に じ</w>
な だ
な ぎ</w>
どろ ぼう</w>
とん とん</w>
とり こ</w>
と ば</w>
と なり</w>
で た
でた らめ</w>
てら っしゃ</w>
て つけ</w>
づ ち</w>
つぶ し</w>
つか まし</w>
つ ぎ込</w>
っ た
っ けな</w>
ちか づ</w>
ち ま</w>
だら しな</w>
だ ぶ
た な</w>
た け
ぞ く
ぞ かし</w>
そび え</w>
そ ん</w>
そ わそわ</w>
そ りゃ</w>
そ っけな</w>
そ そ</w>
ぜん たい</w>
せ ま</w>
ずら っ子</w>
ずう ずう
ずうずう し</w>
ず り</w>
ず き</w>
す ん</w>
じゃ ん</w>
し 方</w>
さ び</w>
さ ぞかし</w>
ご はん</w>
こ ぼ
こ せ</w>
こ じ
ぐ さ</w>
くら ま</w>
くじ け</w>
くしゃ み</w>
く も</w>
く ば
く そ</w>
ぎ め</w>
き り
き こえ</w>
かわ るがわる</w>
かけ がえ</w>
か じ</w>
か き</w>
おご り</w>
お っ</w>
お じぎ</w>
お え</w>
ええ と</w>
え ー
いや し</w>
いた ずらっ子</w>
いか だ</w>
い 出</w>
い ま
い びき</w>
い さ
あり ふれ</w>
あっ さり</w>
あき あき</w>
あ つかまし</w>
あ だ</w>
あ せ</w>
あ お</w>
zz led</w>
z zy</w>
yoshi o</w>
yo go</w>
ya ki</w>
y l
y e</w>
wre ck</w>
worth less</w>
wit ch</w>
wild er
wilder ness</w>
wil son</w>
wi lled</w>
whe el
war n</w>
war m
warm th</w>
wan s</w>
volu mes</w>
vin ce</w>
vie wing</w>
vi vi
vivi dly</w>
vi lla</w>
vi en
vien na</w>
vi ct
ver eig
ver bal</w>
vehi cle</w>
under taking</w>
un to</w>
un said</w>
un reasonable</w>
un fortunate</w>
u ms</w>
u mi</w>
u de</w>
ty r
tyr ant</w>
twink ling</w>
tu ous</w>
tu mbled</w>
tt ons</w>
tru st
trust worthy</w>
trouble some</w>
tri cked</w>
tremen dous</w>
trea ting</w>
transa ction</w>
trans lations</w>
traditi ons</w>
tr out</w>
tou ching</w>
to wels</w>
to ta
tiv ity</w>
titu des</w>
thu mb</w>
thri ll</w>
threa ts</w>
thou ght
thir st</w>
thi cker</w>
ther apy</w>
the or
thank ful</w>
tha i</w>
testi fy</w>
terri fied</w>
teri or
ter n
temp ura</w>
te sted</w>
tari ffs</w>
tal ker</w>
ta il
ta g</w>
ta cti
tacti cs</w>
t ang
swi ft</w>
suspici ously</w>
sur ing</w>
sub jected</w>
stu ffs</w>
stu di
stri king</w>
stri a</w>
streng then</w>
stra i
stra cted</w>
stock ings</w>
sto l</w>
ste pping</w>
ste ering</w>
state ments</w>
sta ins</w>
st out</w>
st ool</w>
st ful</w>
st .</w>
ss ment</w>
spir itual</w>
spac ious</w>
sor y</w>
sophi sticated</w>
sol ine</w>
sof tly</w>
soci alist</w>
so vereig
so se
sose ki</w>
so be
so bbing</w>
sna p</w>
sk a</w>
situ ations</w>
sit ter</w>
sit ies</w>
sig nature</w>
si um</w>
si mon</w>
si ghted</w>
si ded</w>
short cut</w>
shor test</w>
sho wa</w>
sho p
sho ela
shoela ces</w>
shizu oka</w>
shin ji</w>
shin ano</w>
shi mi</w>
she ll</w>
sha do
sh ri
sh rank</w>
sh in</w>
separ ately</w>
sen ti
se w</w>
se ctor</w>
scor ed</w>
sco lding</w>
sc ru
sc are</w>
sandwi ch</w>
sa shimi</w>
s wine</w>
s wans</w>
s qua
s nee
russi a</w>
rou sed</w>
rou s</w>
ro les</w>
ridi cu
ri pped</w>
ri des</w>
resu med</w>
restri ctions</w>
resi dents</w>
res ource</w>
rep ent</w>
reme dy</w>
rema ining</w>
rejo iced</w>
refer ee</w>
reck on</w>
rea ct</w>
re strained</w>
re solve</w>
re porters</w>
re lying</w>
re creation</w>
re covering</w>
re collect</w>
ra ck</w>
r on</w>
r hy
quit ted</w>
queu e</w>
que er</w>
purcha sed</w>
publi shing</w>
pu mp</w>
prophe cy</w>
produ ctive</w>
produ cing</w>
proce eded</w>
probab i
probabi lity</w>
pro ves</w>
pro spect</w>
privile ges</w>
pret tier</w>
pre vents</w>
pre sti
pre de
prede cess
pr o</w>
pos sibilities</w>
por ch</w>
po cke
po chi</w>
plea ded</w>
pla gue</w>
pi stol</w>
pi gs</w>
phenomen a</w>
ph oning</w>
persu a
perce ption</w>
per u</w>
per ry</w>
pea s</w>
pea ches</w>
pe l</w>
pe de
pe cked</w>
par adi
pan das</w>
pa mp
pa l</w>
p ouring</w>
p neu
pneu monia</w>
ow ners</w>
overwhel ming</w>
over weight</w>
over came</w>
oun ced</w>
ou ch</w>
or ious</w>
or ing</w>
oppos ing</w>
oper ations</w>
oper ating</w>
op pressed</w>
off ers</w>
of fer
od or</w>
occupa tion</w>
o y
o x</w>
o me
numb ered</w>
nu tr
nu t</w>
nick name</w>
ni e</w>
ni cer</w>
ni cely</w>
ni cal</w>
negli gence</w>
necess ities</w>
nar rative</w>
nao mi</w>
na vy</w>
mush rooms</w>
mur ders</w>
mountain top</w>
mo tioned</w>
mo ist</w>
mo de</w>
mix ture</w>
mini stry</w>
min orities</w>
mi so</w>
mer ly</w>
mer ger</w>
men tally</w>
melan cho
melancho ly</w>
mel ting</w>
med itation</w>
meaning less</w>
mean ings</w>
me ta
me ssed</w>
me lt</w>
mati st</w>
mari a</w>
margar ine</w>
manufa ctures</w>
manufa ctured</w>
mang a</w>
mali ce</w>
ma iled</w>
luxu ries</w>
lu ci
logi sts</w>
lob by</w>
lo yalty</w>
lo yal</w>
lla s</w>
lla ble</w>
list en
liber al</w>
li ze</w>
len ses</w>
lear nt</w>
lea king</w>
lea ked</w>
lea gue</w>
le f
lef to
la sts</w>
la mb</w>
la g</w>
la bored</w>
l o</w>
l in</w>
l gi
ken nel</w>
kan da</w>
k ou
k imura</w>
je ts</w>
je ction</w>
j i
j est</w>
itu de</w>
it ors</w>
it als</w>
ir respective</w>
ir regular</w>
inven tor</w>
inva sion</w>
inv ent</w>
intru de</w>
introdu cing</w>
inter ior</w>
instru ment</w>
instru cted</w>
initi al</w>
inha b
inhab ited</w>
infin ite</w>
indi gnant</w>
indi cated</w>
in stantly</w>
in san
in quire</w>
in nate</w>
in expensive</w>
in convenient</w>
imagin ative</w>
imagin ary</w>
im practical</w>
im mortal</w>
im itation</w>
il las</w>
ignor ing</w>
i sine</w>
i ra
i dly</w>
i cs</w>
hur ri
humi liated</w>
hu morous</w>
hu h</w>
hor n</w>
hon ored</w>
holl ywood</w>
hin ted</w>
hi ll
heaven ly</w>
hear ts</w>
hear ti
he ir</w>
he h</w>
he ed</w>
harm less</w>
handi cap</w>
hak ata</w>
h yogo</w>
h h</w>
h ence</w>
gui ded</w>
gu ms</w>
gu m</w>
gri pped</w>
gri p</w>
gri m</w>
gree ting</w>
gree ks</w>
grand children</w>
gr ounded</w>
gr oun
gor illas</w>
gon na</w>
go wn</w>
gi fted</w>
ger ms</w>
gang sters</w>
gall ery</w>
ga tes</w>
ga ted</w>
ga soline</w>
ga li
g store</w>
g rin
g ment</w>
g loo
g ars</w>
furi ously</w>
ful filled</w>
fu se</w>
fru strated</w>
frequ ency</w>
fren chman</w>
fra ud</w>
fra gments</w>
four ths</w>
for ming</w>
for merly</w>
for gave</w>
foo ls</w>
foo d
food stuffs</w>
flu sh</w>
fla sh
figh ter</w>
fici ently</w>
fi shes</w>
fi cally</w>
fea thers</w>
fe tch</w>
fe der
feder al</w>
fau l
fashion able</w>
fashi oned</w>
far m
fan ned</w>
fa x</w>
fa bri
f s</w>
exi sting</w>
exe cute</w>
exclu sive</w>
exagger ation</w>
ex ten
et c.</w>
es thetic</w>
equ als</w>
enjo yable</w>
eng ed</w>
endeav ored</w>
en forced</w>
en closed</w>
empha size</w>
embarra ssment</w>
emb raced</w>
ele ments</w>
ef ficiency</w>
edit or</w>
ear nings</w>
ea ter</w>
e yed</w>
e val</w>
e labor
e cho
dy na
dru gstore</w>
dra matist</w>
don ald</w>
domin ant</w>
dolph in</w>
do ct
div ine</w>
dispu tes</w>
disgu sting</w>
discover ies</w>
dis position</w>
dinosa urs</w>
dimini shed</w>
dif y</w>
di sobe
di gging</w>
di ent</w>
deter mine</w>
dete ctives</w>
desi rable</w>
der e
depri ve</w>
den ted</w>
deli vers</w>
dea n</w>
de terior
de sks</w>
dd led</w>
dan ts</w>
dan ces</w>
d son</w>
d rain</w>
curricu lum</w>
cu tive</w>
cu isine</w>
cr y
counten ance</w>
coun ty</w>
coun tless</w>
correspon dent</w>
corpo rations</w>
copi ed</w>
conten tment</w>
contem pla
consi sted</w>
conse cutive</w>
conqu ered</w>
conqu er</w>
conne ctions</w>
conne cting</w>
conne ct</w>
con servation</w>
comple x
compet itors</w>
communi cated</w>
com prehend</w>
com mon
com b</w>
co stu
co stly</w>
co pper</w>
cli ck</w>
cla sh</w>
ck oned</w>
ck led</w>
ck ers</w>
cir cles</w>
chur ches</w>
cheri shed</w>
chemi cals</w>
chea ply</w>
centu ries</w>
cen tre</w>
cau tious</w>
car pets</w>
car l</w>
car ing</w>
can al</w>
calcu lation</w>
ca tho
ca sting</w>
c table</w>
c run
c roo
business men</w>
busi est</w>
bub ble</w>
bu ttons</w>
broo k</w>
bra kes</w>
br a</w>
bor din
book worm</w>
bomb ed</w>
bo thering</w>
ble ss</w>
bla cks</w>
bl under</w>
bit terly</w>
bi lli
begin ner</w>
beg gars</w>
be loved</w>
be lly</w>
be i
be having</w>
be ckoned</w>
basi cally</w>
barri ca
bar o
bar ks</w>
banda ge</w>
ban d
balan ced</w>
baby sitter</w>
ba thing</w>
ba ch</w>
b rink</w>
b out</w>
b ind</w>
b anged</w>
au stria</w>
at ures</w>
at tain</w>
at ors</w>
assemb ly</w>
arma ment</w>
arm chair</w>
ari sto
ari an</w>
archite ctural</w>
appea ls</w>
anx i
anti ques</w>
antar ctic</w>
anno ys</w>
ang els</w>
an ti</w>
ambigu ous</w>
ali sm</w>
al titude</w>
al tered</w>
al right</w>
aim lessly</w>
aim ing</w>
ador e</w>
addi cted</w>
ad her
accor ded</w>
accompli shment</w>
acciden tal</w>
acce ss
ac quitted</w>
ac ks</w>
ac knowledge</w>
abor tion</w>
a x</w>
a sed</w>
a mi
a las</w>
a kiko</w>
a .</w>
9 5</w>
6 00</w>
3 2</w>
3 1</w>
3 000</w>
3 0
2 6</w>
2 3</w>
2 1</w>
2 0,000</w>
19 45</w>
12 3</w>
1 1
ｒ ｅ
ａ ｒ
Ｓ Ｔ
Ｓ Ｆ</w>
Ｉ Ｔ</w>
Ａ Ｌ
８ ００</w>
７ ７
５ ６</w>
３ ６</w>
１９４ １</w>
１ ８０</w>
１ ５００</w>
１ １９</w>
１ 人
０ ０００</w>
黄 金</w>
鳴 り</w>
鳴 き声</w>
高 額</w>
高 貴</w>
高 等</w>
高 潔</w>
高 官</w>
骨 身</w>
驚 異</w>
騒 ぎ
駆け 出</w>
駆け つけ</w>
駆 り
餌 食</w>
飼い 犬</w>
飼い 主</w>
飲み 会</w>
頼 れ</w>
領 域</w>
響 き</w>
音 痴</w>
面 食ら</w>
静 め</w>
震 わせ</w>
電 球</w>
電 柱</w>
雷 雨</w>
雨 季</w>
離 れ
雑 音</w>
集 約</w>
隠 れ
障 り</w>
陶 器</w>
除 名</w>
閣 僚</w>
関 西</w>
間 抜け</w>
開 花</w>
開 封</w>
閉 会</w>
長 身</w>
長 続き</w>
鎮 痛</w>
野 外</w>
重 点</w>
重 た</w>
配 慮</w>
避 妊</w>
選 り
達 者</w>
道 連れ</w>
過 大</w>
遊 園</w>
進 出</w>
逆 さま</w>
送 れ</w>
退 治</w>
退 け</w>
迷 路</w>
返 信</w>
近 隣</w>
近 視</w>
近 付</w>
込み 入</w>
軽 井
軽井 沢</w>
躍 起</w>
躊 躇</w>
踊り 子</w>
跳 ね</w>
跳 ね
足 せ</w>
起 訴</w>
起 床</w>
貴 殿</w>
豪 雨</w>
調 達</w>
調 理</w>
誇 張</w>
証 券</w>
許 し</w>
計 上</w>
言い 当て</w>
解 除</w>
親 密</w>
覗 き
視 覚</w>
規 律</w>
見 頃</w>
見 栄</w>
見 掛け</w>
見 張り</w>
見 合わせ</w>
見 いだ</w>
西 部</w>
襲 い
複 数</w>
裏 側</w>
衰 退</w>
衰 弱</w>
表 紙</w>
衣 料</w>
衛 生</w>
行 く
蝙 蝠</w>
薬 品</w>
薦 め</w>
蒸 発</w>
落ち 着け</w>
落ち つ</w>
荒 廃</w>
苛 々</w>
花 見</w>
花 屋</w>
船 旅</w>
船 便</w>
自 棄</w>
自 暴</w>
膨 張</w>
脱 税</w>
脇 腹</w>
肥 満</w>
肥 沃</w>
肥 え</w>
肉 屋</w>
考 案</w>
羨 まし</w>
群 が</w>
缶 詰</w>
繊 細</w>
締 まり</w>
続 行</w>
統 合</w>
統 一</w>
絞 首</w>
結び つ</w>
結 合</w>
経 過</w>
組み 合わせ</w>
終 結</w>
終 日</w>
紛 れ</w>
粉 末</w>
箱 根</w>
立 た</w>
窮 地</w>
突 入</w>
空 路</w>
空 所</w>
究 極</w>
程 遠</w>
移 り
私 的</w>
私 事</w>
礼 状</w>
破 綻</w>
短 縮</w>
短 所</w>
知 覚</w>
真っ 直ぐ</w>
真っ 白</w>
真っ 先</w>
直 前</w>
直 せ</w>
盲 目</w>
盗 難</w>
盗 賊</w>
盗 人</w>
登 頂</w>
発 送</w>
痕 跡</w>
病 床</w>
申 し</w>
田 舎
用 法</w>
産 科</w>
産 まれ</w>
生 息</w>
生 や</w>
狩 猟</w>
特 殊</w>
特 典</w>
牧 草</w>
爆 笑</w>
爆 撃</w>
煮 え</w>
無 益</w>
無 用</w>
無 効</w>
瀕 死</w>
激 突</w>
滅 亡</w>
溶 け込</w>
温 室</w>
清 算</w>
深 夜</w>
淋 し</w>
消え 去</w>
海 面</w>
海 賊</w>
流れ 落ち</w>
流 ちょう</w>
泣き 止</w>
泊 まり</w>
決 着</w>
決 し</w>
求 婚</w>
永 続</w>
気 軽</w>
気 象</w>
気 性</w>
殴 り
歳 月</w>
歩み 寄</w>
欧 州</w>
機 種</w>
樹 木</w>
構 築</w>
構 文</w>
構 内</w>
検 索</w>
根 源</w>
果 樹</w>
松 山</w>
来 日</w>
束 ね</w>
材 木</w>
本 分</w>
有り 難う</w>
有 難</w>
有 料</w>
有 数</w>
月 々</w>
書 籍</w>
書 留</w>
暴 風</w>
暴 走</w>
暗 号</w>
暇 潰し</w>
智 子</w>
時 限</w>
明け 方</w>
早 退</w>
早 ま</w>
日 程</w>
日 当たり</w>
日 夜</w>
旅 立</w>
新 規</w>
新 種</w>
新 税</w>
新 刊</w>
敷 地</w>
数 多く</w>
数 十</w>
数 値</w>
敬 遠</w>
散 ら
散ら ば</w>
改 良</w>
支 障</w>
撥 ね</w>
握 り</w>
掲 げ</w>
控 え
掘 り出</w>
捻 挫</w>
振 る</w>
指 標</w>
指 図</w>
持ち 逃げ</w>
持 参</w>
押し 開け</w>
押し つけ</w>
抜 本</w>
抑 圧</w>
扱 え</w>
打ち 解け</w>
手 先</w>
手 の
扇 風</w>
戸 棚</w>
成 立</w>
成 熟</w>
憎 み合</w>
憂 うつ</w>
慶 応</w>
感 じ
愛 敬</w>
恩 義</w>
恨 み</w>
恐 が</w>
思 案</w>
復 帰</w>
得 手</w>
後 生</w>
後 世</w>
後 ほど</w>
後 ず
彫 像</w>
当 日</w>
強 要</w>
強 者</w>
強 硬</w>
強 引</w>
強 奪</w>
強 固</w>
弱 み</w>
引き 付け</w>
廃 虚</w>
庶 民</w>
広 め</w>
幼 稚</w>
年 長</w>
年 筆</w>
帰 省</w>
布 地</w>
市 外</w>
巻き 起こ</w>
工 作</w>
山 道</w>
屋 敷</w>
屈 服</w>
尽 くし</w>
尺 度</w>
小 脇</w>
小 泉</w>
小 枝</w>
小 僧</w>
審 美</w>
寝 れ</w>
寄 りかか</w>
寄 せ
容 体</w>
家 路</w>
家 柄</w>
家 中</w>
宴 会</w>
実 例</w>
安 静</w>
安 物</w>
守 り</w>
学 説</w>
学 歴</w>
子 育て</w>
威 張</w>
妨 害</w>
妖 精</w>
好 まし</w>
天 下</w>
大 男</w>
大 物</w>
大 変
大 勢い</w>
夜更 け</w>
多 忙</w>
基 盤</w>
執 行</w>
在 学</w>
圧 迫</w>
園 芸</w>
国 産</w>
固 有</w>
困 窮</w>
回 顧</w>
回 数</w>
四 季</w>
四 つ
四つ ん
嗅ぎ つけ</w>
嗅 覚</w>
商 社</w>
咎 め</w>
和 食</w>
和 服</w>
呼 ば
呼ば わり</w>
周 年</w>
名 人</w>
同 調</w>
同 級</w>
合 間</w>
合 点</w>
各 種</w>
各 々</w>
右 腕</w>
受け 取れ</w>
受 諾</w>
受 取</w>
受 動</w>
取り 柄</w>
取 得</w>
取 っ</w>
収 ま</w>
反 発</w>
原 理</w>
博 多</w>
南 北</w>
卒 倒</w>
半 身</w>
包 丁</w>
勘 弁</w>
勇 者</w>
効 き</w>
創 作</w>
割り 勘</w>
前 払い</w>
前 回</w>
前 列</w>
前 例</w>
制 裁</w>
制 定</w>
別 物</w>
切り 詰め</w>
分 布</w>
出来 高</w>
出 頭</w>
出 掛け</w>
出 帆</w>
出 場</w>
出 入り</w>
再 三</w>
公 立</w>
全 快</w>
入れ 歯</w>
先 方</w>
優 美</w>
働き 者</w>
備 わ</w>
便 宜</w>
例 え</w>
住 め</w>
住 み
伯 父</w>
会 期</w>
休 業</w>
付き 添</w>
他 国</w>
仕 様</w>
仕 打ち</w>
今 夕</w>
人 見え</w>
人 相</w>
人 目</w>
五 十</w>
互 角</w>
二 千</w>
了 解</w>
乱 雑</w>
乗り 捨て</w>
乗 っ
乗っ 取</w>
主 治</w>
中 流</w>
中 八九</w>
並 び</w>
不可 解</w>
不 和</w>
下 院</w>
下 着</w>
下 流</w>
三 角</w>
三 田</w>
万 年筆</w>
丁 重</w>
一人 息子</w>
一 髪</w>
一 筆</w>
一 刻</w>
ヶ 国</w>
ワ ールド</w>
ワ イ
ロー ラー</w>
ロー ラ</w>
ロ ール</w>
ロ ミ
ロミ オ</w>
レン ト
レント ゲン</w>
レッ ジ</w>
レス ラー</w>
レ ーター</w>
レ ター</w>
レ ギ
レギ ュラー</w>
ルー ツ</w>
ルト ガル</w>
リ ュー
リ ニスト</w>
リ ット</w>
ラン ド
ラク タ</w>
ライ ブ</w>
ラ マン</w>
ラ ベル</w>
モー ツァ
モーツァ ルト</w>
モ スク
モスク ワ</w>
メ リット</w>
ム ー
ミ コ</w>
マ ックス</w>
ポ ロ</w>
ポ ルトガル</w>
ポ スター</w>
ボ ン
ホ ント</w>
ペ ル
ベ ツ</w>
ベ イ
ブレ ター</w>
ブ ーム</w>
ブ ローチ</w>
フォー マ
フォ ロー</w>
フェ ア</w>
ファ ックス</w>
フ ルーツ</w>
ピ ース</w>
ビ ックリ</w>
ビ エ
ヒ ント</w>
パン ツ</w>
パト カー</w>
バレ エ</w>
バル コニー</w>
バイオ リニスト</w>
ハイ ジャック</w>
ハイ カー</w>
ハ チ
ハ ウ</w>
ノウ ハウ</w>
ニュア ル</w>
ナポ リ</w>
ナ ッツ</w>
ドナ ルド</w>
ド ーム</w>
ド ガ</w>
トラ ー</w>
デー タ
データ ベース</w>
デザ イ
デザイ ナー</w>
デイ ブ</w>
ディ スク</w>
ディ アム</w>
デ レ</w>
デ ニス</w>
テ ム</w>
テ ス</w>
ッ チ
チン コ</w>
チュ ア</w>
チ ラ
ダウン タウン</w>
ダ チョウ</w>
ター ミ
ター ナー</w>
タイ ミング</w>
タ ンク</w>
タ ッチ</w>
ソ クラ
ソクラ テス</w>
ソ ク</w>
ゼ ロ</w>
セール ス</w>
セ ン</w>
セ ミ
スト ップ</w>
スト ッキング</w>
ステ ッキ</w>
スタジ アム</w>
スカ イ</w>
ス パイ
ス タン</w>
ス キ
ジェーム ス</w>
ジェ リー</w>
ジェ ニー</w>
シー ツ</w>
シン ジ</w>
シ ロ
サ ミー</w>
コー ン</w>
コレ ラ</w>
コ メ
コ ブ</w>
コ ショウ</w>
ケ チ</w>
クラ イ
クイ ズ</w>
ク テル</w>
ク ソ</w>
キー キー</w>
キャン デー</w>
キャ ベツ</w>
ガク ン</w>
ガ リ
ガ ラクタ</w>
カン トリー</w>
カメ ラマン</w>
カフェ テリア</w>
カッ コ</w>
カ 所</w>
カ セット</w>
カ クテル</w>
オ ート</w>
オ ス</w>
オ イ</w>
エン ジニア</w>
エ ーション</w>
エ ル
エ ス
ウェ ー</w>
ウィ ン
ウィ リー</w>
ウ ズ</w>
ウ エイ
イー スター</w>
イラ ク</w>
イスラ エル</w>
アン ソニー</w>
アマ チュア</w>
アマ ゾン</w>
ん ぼ</w>
わ ば</w>
わ え</w>
わ いろ</w>
る ま</w>
り 着</w>
ら ざら</w>
よそ よそ
よそよそ し</w>
よ っ</w>
ゆ がめ</w>
やり がい</w>
やっ つけ</w>
や み</w>
や ぶ</w>
や す
やす やす</w>
や けど</w>
も つれ</w>
も じ</w>
めざ まし</w>
め まい</w>
む なし</w>
み れ</w>
まさ ら</w>
ま り
ま みれ</w>
ま に</w>
ま とま</w>
ま と
ま ざる</w>
ほの か</w>
ほ め
へ ま</w>
ぷん かん
ぷんかん ぷん</w>
ふ ら</w>
ぴ んと</w>
びく び
びくび く</w>
び と</w>
び しょ</w>
ひとり ぼっち</w>
ひとり ひとり</w>
ひと とき</w>
ひと かど</w>
ひっ たく</w>
ひ ろし</w>
ひ ら
ひ び</w>
ひ ざ
ひざ まず</w>
ひ かえ</w>
ぱ っ</w>
は もう</w>
は たして</w>
は ずかし</w>
は げ
は がき</w>
のぞき こ</w>
の ろ
の び</w>
の のし</w>
の しかか</w>
の か</w>
ね だ</w>
に ら</w>
に て</w>
なつ かし</w>
な まけ</w>
な じめ</w>
な じみ</w>
どん 底</w>
とり つ</w>
とど め</w>
とき おり</w>
と らわれ</w>
て つ</w>
づ つ</w>
つぶ や</w>
つき もの</w>
つき まと</w>
つ る</w>
つ っこ</w>
つ く
つ が
っち り</w>
っ ちゃ</w>
っ から</w>
ちん ぷんかんぷん</w>
ち ょ</w>
だぶ だ
だぶだ ぶ</w>
だ るま</w>
だ る</w>
たり まえ</w>
たどり つ</w>
た る</w>
た し
た ご
たご た</w>
ぞく ぞく</w>
そそ のか</w>
そこ そこ</w>
そう じ</w>
そ むけ</w>
そ か</w>
ずう ず</w>
ず き
すっ ぽ
す み
す くな</w>
じゅう ぶん</w>
じ 込</w>
じ 合</w>
じ つ</w>
じ か</w>
しら べ</w>
しぶ しぶ</w>
しば し</w>
しか たな</w>
し ん</w>
し わ</w>
し ろ
し ぐさ</w>
し あげ</w>
ざ らざら</w>
ざ し</w>
さし あたり</w>
さし あげ</w>
ご も</w>
ご ひげ</w>
ご っこ</w>
ご たごた</w>
ご し</w>
ご きげん</w>
この 頃</w>
こ み</w>
こ なし</w>
こ ころ</w>
げん か</w>
ぐる り</w>
ぐ い</w>
くわ え</w>
くら べ</w>
く わし</w>
く る
く ま
く ぼ</w>
く は</w>
く ど
く ずれ</w>
き 合</w>
がた がた</w>
か り
か まえ</w>
か ぶれ</w>
か ぶ
か ち</w>
か ち
か すめ</w>
か くれ</w>
おし え</w>
お ん
お っと</w>
お く</w>
え れ</w>
え り</w>
え さ</w>
うっ てつけ</w>
う んと</w>
う よう</w>
う とう</w>
う ち
う ずうず</w>
い まさら</w>
い ぬ</w>
い じ</w>
あ の
あ たりまえ</w>
あ しら</w>
あ し</w>
あ ごひげ</w>
あ かし</w>
あ ぁ</w>
zu ko</w>
zi p</w>
za ki</w>
z zed</w>
z en
z e
y ou
wre cked</w>
wor shi
wor ka
wit ty</w>
windo w
willi e</w>
wi shing</w>
wi ll
who le
whi stling</w>
whi r
whi pped</w>
wea ther
we ed</w>
wan der</w>
wa st
wa its</w>
w right</w>
w its</w>
viru s</w>
vio let</w>
vig or</w>
vi gation</w>
vi ation</w>
ves se
vesse ls</w>
ver theless</w>
ver sed</w>
ver i
venu es</w>
ven i
veni le</w>
van ity</w>
v ita
vita min
vitamin s</w>
v is</w>
v in</w>
v a</w>
uti lity</w>
ur i</w>
upri ght</w>
up coming</w>
univer sities</w>
univer sal</w>
under water</w>
under stan
un turned</w>
un prece
unprece dented</w>
un ite</w>
un belie
u no
u iz
uiz awa</w>
u h</w>
tyran ny</w>
tw os</w>
tur ner</w>
tu ber
tri ved</w>
transm itted</w>
trans formed</w>
tra its</w>
tra ine
tra ced</w>
tr ends</w>
to mo
to mb</w>
tion ary</w>
time ly</w>
ti o</w>
ti ghten</w>
th ony</w>
terror ist</w>
tern ity</w>
termin al</w>
temper atures</w>
tele phones</w>
tea sed</w>
tal kers</w>
ta sks</w>
ta p</w>
ta i
ta geous</w>
ta cks</w>
t res</w>
t ank</w>
sympathi zed</w>
sympathi ze</w>
symp hon
swi mmers</w>
swee ping</w>
surroun ding</w>
sup press</w>
sun k</w>
sun glasses</w>
sun g</w>
sun burn</w>
summ ers</w>
suit cases</w>
succe ssion</w>
substan tial</w>
sub tra
su red</w>
su ki
suki yaki</w>
su ke</w>
su ed</w>
su cker</w>
su bordin
stu pi
stre et
stra it</w>
stor ms</w>
stand still</w>
stand point</w>
st les</w>
st itch</w>
st ion</w>
st ap
st ance</w>
squi to</w>
squ ea
spon taneous</w>
spo ke
spo ils</w>
spla shed</w>
spi ders</w>
spi cy</w>
speciali ze</w>
speci alist</w>
spea kers</w>
sp rained</w>
sp er
sou ls</w>
sor ting</w>
son y</w>
sol ves</w>
soci ology</w>
soci eties</w>
so litary</w>
so cra
so ber</w>
snow man</w>
snea k</w>
sna tched</w>
smo ker</w>
ski es</w>
six th</w>
sincer ely</w>
simul taneous</w>
sign aled</w>
si a</w>
shy ness</w>
shrin es</w>
shor ts</w>
sho gi</w>
shin k
shink ans
shinkans en</w>
shi vered</w>
shi fted</w>
shi ft</w>
sha m
sham po
shampo o</w>
sha kes</w>
sh tray</w>
sh re
sh it</w>
sh ined</w>
see ks</w>
secre tly</w>
secre cy</w>
second ary</w>
sea water</w>
sea sick</w>
sea shore</w>
sea l</w>
se qu
se gre
scre w</w>
scra tching</w>
scra tched</w>
scra p</w>
sco w</w>
sci ences</w>
scholar s</w>
sar u</w>
san ts</w>
san da</w>
san ctions</w>
sal mon</w>
sa tan</w>
sa r</w>
sa mura
samura i</w>
sa int</w>
s ounding</w>
s les</w>
rup tly</w>
rub ber</w>
ru ling</w>
ru g</w>
ro wing</w>
ro ad
road side</w>
ridicu le</w>
ri sers</w>
ri ous</w>
rhe a</w>
resear chers</w>
repea ting</w>
ren dered</w>
religi ons</w>
regi ons</w>
refle cts</w>
refer ring</w>
reconci led</w>
reconci le</w>
recei ves</w>
recei ver</w>
rece p
rec ital</w>
reason ing</w>
reason ably</w>
rea der</w>
re views</w>
re venues</w>
re union</w>
re treat</w>
re tail</w>
re store</w>
re pro
re lies</w>
re consider</w>
re confirm</w>
re bel</w>
rain fall</w>
r ence</w>
qui cke
quicke st</w>
publi cation</w>
pu dding</w>
pru dent</w>
prote sting</w>
produ cti
producti vity</w>
pro vince</w>
pro minent</w>
pro longed</w>
pro fit
preva ils</w>
prehen sion</w>
predecess or</w>
pre g
preg nancy</w>
pra yer</w>
pra ises</w>
posse sses</w>
pos tage</w>
pos itions</w>
por tu
por k</w>
poor er</w>
pon g</w>
ple xed</w>
plan ting</w>
pit er</w>
pick pocket</w>
pi one
pi llar</w>
pha se</w>
ph arma
perio ds</w>
per spective</w>
per plexed</w>
pen ed</w>
pede stri
pe e
patrio tism</w>
passion ate</w>
pass word</w>
partici pants</w>
paradi se</w>
para graph</w>
par en
pan ting</w>
pamp h
pa tty</w>
p y
p ounding</w>
p inch</w>
p at</w>
oy sters</w>
overwhel med</w>
over all</w>
oura ble</w>
ou tw
origin ally</w>
origin ality</w>
organi ze</w>
orch ard</w>
offer ing</w>
occasi onal</w>
obste tri
obstac le</w>
obli gation</w>
obe dience</w>
ob se
o u</w>
o da</w>
noti fy</w>
nine teenth</w>
newcom er</w>
neighb ours</w>
negoti ate</w>
near er</w>
ne vertheless</w>
ne ls</w>
nap les</w>
na vigation</w>
na ted</w>
na gging</w>
n oun</w>
my ths</w>
mur mur
mu s</w>
mu iri
muiri el</w>
mpa gn
mpagn e</w>
mountaine ering</w>
motor cycles</w>
motiv ation</w>
mor als</w>
monot onous</w>
mono poli
mon it
monit ored</w>
moder ation</w>
mo ss</w>
mo squito</w>
mo scow</w>
mo le</w>
mo le
mo ld</w>
mo dify</w>
mm ered</w>
mm a</w>
mit ory</w>
min ine</w>
min i</w>
min eral</w>
mi ssions</w>
mi ller</w>
mi gh
mi cal</w>
mechani cal</w>
mean time</w>
mea sles</w>
mea dow</w>
me tro
me ss
me ly</w>
matsu yama</w>
mat ching</w>
marvel ed</w>
marri ages</w>
manufactur er</w>
mam ma
mamma ls</w>
maj oring</w>
magne ts</w>
ma ze</w>
ma saru</w>
ma les</w>
ma la
ma kers</w>
ma ils</w>
m rs</w>
m oo
m m</w>
m c
mc donald</w>
lob ster</w>
lo west</w>
lo gs</w>
lo cker</w>
ll es</w>
lit ude</w>
li sm</w>
li shing</w>
li p
ler a</w>
lefto vers</w>
lear ns</w>
le mons</w>
lan der</w>
la tors</w>
l ur
l ance</w>
kyo ko</w>
ky ard</w>
ko iz
koiz umi</w>
kit tens</w>
kit a</w>
kilo s</w>
key board</w>
kei o</w>
ke st</w>
ke i</w>
kar uizawa</w>
kan sai</w>
kan a
k uni
k out</w>
k not</w>
k night</w>
k book</w>
k ang
kang ar
jun k</w>
ju venile</w>
ju piter</w>
jack pot</w>
j r</w>
j erry</w>
j ean</w>
j an</w>
j am
ita ting</w>
it er
is ra
irrit ates</w>
irre levant</w>
ira q</w>
ir y</w>
inv est</w>
inti mate</w>
inter val</w>
inte gr
integr ity</w>
inqui ries</w>
inqu iring</w>
inju ries</w>
inf ant</w>
ine a</w>
industri alization</w>
indul ges</w>
in tri
in sufficient</w>
in sol
in er</w>
in adequate</w>
in a</w>
impu dent</w>
impre ssions</w>
im prison
im plying</w>
i sing</w>
i ku</w>
i ke
i e</w>
i do
ido l</w>
i an</w>
hu mpty</w>
hosp italized</w>
hor se
hon ors</w>
hon or
ho ly</w>
ho llow</w>
ho arse</w>
hit ler</w>
hin der</w>
hi ra
hi kers</w>
hero ine</w>
her e
heavi est</w>
heaven s</w>
hea p</w>
hea lthier</w>
hea led</w>
he dge</w>
hat ch
hatch et</w>
har moni
har assed</w>
hak one</w>
ha ya
ha il</w>
gymna sium</w>
guar ded</w>
gu ts</w>
gu inea</w>
gru mbling</w>
groun dless</w>
grin ned</w>
gre y</w>
gra ted</w>
gover n</w>
go d
gloo my</w>
gla dly</w>
gi le</w>
gi gan
gigan tic</w>
geo metry</w>
gen e
ga thers</w>
g ur
g roo
g low</w>
g lared</w>
g eable</w>
fur y</w>
ful ness</w>
fru it
fra gile</w>
for t</w>
flu id</w>
flu ency</w>
flow ed</w>
floo ding</w>
fla ttered</w>
fla shed</w>
fit ted</w>
fit ness</w>
fir mation</w>
fer tile</w>
fe minine</w>
fe ar
fav our</w>
fav ors</w>
fascin ating</w>
far es</w>
fami li
fain ter</w>
faci lity</w>
fabri c</w>
fa tter</w>
fa bul
f u</w>
f ours</w>
extra cted</w>
extin ction</w>
explo de</w>
expen dit
expendit ure</w>
exhib its</w>
exer ted</w>
exer t</w>
execu tives</w>
excep tions</w>
examin ing</w>
exagger ate</w>
ex u
ex hibit</w>
eva po
ev ans</w>
est y</w>
escap ing</w>
es says</w>
eri c</w>
eri a</w>
er up
er man</w>
enterpri ses</w>
engro ssed</w>
english men</w>
endea vor</w>
encoura gement</w>
encoun tered</w>
en try</w>
en trusted</w>
en e</w>
en chan
en acted</w>
embar ked</w>
em be
em ba
emba ssy</w>
eloqu ence</w>
eli gible</w>
electron ics</w>
el ders</w>
edu cate</w>
ed ward</w>
ec cen
e vol
e valu
e minent</w>
e house</w>
e dged</w>
du mpty</w>
dra matic</w>
doub ted</w>
dor mitory</w>
door way</w>
do zed</w>
do t</w>
do se</w>
do d
diver ted</w>
distribu te</w>
disp en
dischar ge</w>
disap point</w>
disa gree
dis regard</w>
dis order</w>
dis miss</w>
dis closed</w>
dis armament</w>
diale ct</w>
di zzy</w>
di stracted</w>
di stor
di c</w>
dest ined</w>
den nis</w>
den ies</w>
den i
delinqu ency</w>
deliber ately</w>
deliber ate</w>
defen dant</w>
deba ting</w>
de scends</w>
de ceased</w>
day light</w>
da vis</w>
da ta
d well</w>
d ary</w>
custo dy</w>
cur ves</w>
cur red</w>
cu e</w>
cra cked</w>
cor rupted</w>
coo led</w>
coo kbook</w>
convi ction</w>
conver ted</w>
conver sations</w>
contra cted</w>
continu ing</w>
conso led</w>
confu sing</w>
concei ved</w>
con trived</w>
con text</w>
con sen
compu l
compli ments</w>
comple tion</w>
compe ting</w>
comman der</w>
com prehension</w>
com pati
colon y</w>
colli sion</w>
collea gue</w>
co ps</w>
co p</w>
co medi
cloth ed</w>
clin ic</w>
clin ging</w>
clever ness</w>
cler ks</w>
classi c</w>
clari fy</w>
ck ling</w>
civili zed</w>
ci gar</w>
chron ic</w>
cho lera</w>
chief ly</w>
che on</w>
cha tted</w>
cha mpagne</w>
ch el
[...]
